{"<s>": 0, "<pad>": 1, "</s>": 2, "<unk>": 3, "<mask>": 4, "<encoder-decoder>": 5, "<encoder-only>": 6, "<decoder-only>": 7, "<c>": 8, "<c++>": 9, "<csharp>": 10, "<go>": 11, "<java>": 12, "<javascript>": 13, "<php>": 14, "<python>": 15, "<ruby>": 16, "<typescript>": 17, "<text>": 18, "<mask0>": 19, "<mask1>": 20, "<mask2>": 21, "<mask3>": 22, "<mask4>": 23, "<mask5>": 24, "<mask6>": 25, "<mask7>": 26, "<mask8>": 27, "<mask9>": 28, "<mask10>": 29, "<mask11>": 30, "<mask12>": 31, "<mask13>": 32, "<mask14>": 33, "<mask15>": 34, "<mask16>": 35, "<mask17>": 36, "<mask18>": 37, "<mask19>": 38, "<mask20>": 39, "<mask21>": 40, "<mask22>": 41, "<mask23>": 42, "<mask24>": 43, "<mask25>": 44, "<mask26>": 45, "<mask27>": 46, "<mask28>": 47, "<mask29>": 48, "<mask30>": 49, "<mask31>": 50, "<mask32>": 51, "<mask33>": 52, "<mask34>": 53, "<mask35>": 54, "<mask36>": 55, "<mask37>": 56, "<mask38>": 57, "<mask39>": 58, "<mask40>": 59, "<mask41>": 60, "<mask42>": 61, "<mask43>": 62, "<mask44>": 63, "<mask45>": 64, "<mask46>": 65, "<mask47>": 66, "<mask48>": 67, "<mask49>": 68, "<mask50>": 69, "<mask51>": 70, "<mask52>": 71, "<mask53>": 72, "<mask54>": 73, "<mask55>": 74, "<mask56>": 75, "<mask57>": 76, "<mask58>": 77, "<mask59>": 78, "<mask60>": 79, "<mask61>": 80, "<mask62>": 81, "<mask63>": 82, "<mask64>": 83, "<mask65>": 84, "<mask66>": 85, "<mask67>": 86, "<mask68>": 87, "<mask69>": 88, "<mask70>": 89, "<mask71>": 90, "<mask72>": 91, "<mask73>": 92, "<mask74>": 93, "<mask75>": 94, "<mask76>": 95, "<mask77>": 96, "<mask78>": 97, "<mask79>": 98, "<mask80>": 99, "<mask81>": 100, "<mask82>": 101, "<mask83>": 102, "<mask84>": 103, "<mask85>": 104, "<mask86>": 105, "<mask87>": 106, "<mask88>": 107, "<mask89>": 108, "<mask90>": 109, "<mask91>": 110, "<mask92>": 111, "<mask93>": 112, "<mask94>": 113, "<mask95>": 114, "<mask96>": 115, "<mask97>": 116, "<mask98>": 117, "<mask99>": 118, "!": 119, "\"": 120, "#": 121, "$": 122, "%": 123, "&": 124, "'": 125, "(": 126, ")": 127, "*": 128, "+": 129, ",": 130, "-": 131, ".": 132, "/": 133, "0": 134, "1": 135, "2": 136, "3": 137, "4": 138, "5": 139, "6": 140, "7": 141, "8": 142, "9": 143, ":": 144, ";": 145, "<": 146, "=": 147, ">": 148, "?": 149, "@": 150, "A": 151, "B": 152, "C": 153, "D": 154, "E": 155, "F": 156, "G": 157, "H": 158, "I": 159, "J": 160, "K": 161, "L": 162, "M": 163, "N": 164, "O": 165, "P": 166, "Q": 167, "R": 168, "S": 169, "T": 170, "U": 171, "V": 172, "W": 173, "X": 174, "Y": 175, "Z": 176, "[": 177, "\\": 178, "]": 179, "^": 180, "_": 181, "`": 182, "a": 183, "b": 184, "c": 185, "d": 186, "e": 187, "f": 188, "g": 189, "h": 190, "i": 191, "j": 192, "k": 193, "l": 194, "m": 195, "n": 196, "o": 197, "p": 198, "q": 199, "r": 200, "s": 201, "t": 202, "u": 203, "v": 204, "w": 205, "x": 206, "y": 207, "z": 208, "{": 209, "|": 210, "}": 211, "~": 212, "¡": 213, "¢": 214, "£": 215, "¤": 216, "¥": 217, "¦": 218, "§": 219, "¨": 220, "©": 221, "ª": 222, "«": 223, "¬": 224, "®": 225, "¯": 226, "°": 227, "±": 228, "²": 229, "³": 230, "´": 231, "µ": 232, "¶": 233, "·": 234, "¸": 235, "¹": 236, "º": 237, "»": 238, "¼": 239, "½": 240, "¾": 241, "¿": 242, "À": 243, "Á": 244, "Â": 245, "Ã": 246, "Ä": 247, "Å": 248, "Æ": 249, "Ç": 250, "È": 251, "É": 252, "Ê": 253, "Ë": 254, "Ì": 255, "Í": 256, "Î": 257, "Ï": 258, "Ð": 259, "Ñ": 260, "Ò": 261, "Ó": 262, "Ô": 263, "Õ": 264, "Ö": 265, "×": 266, "Ø": 267, "Ù": 268, "Ú": 269, "Û": 270, "Ü": 271, "Ý": 272, "Þ": 273, "ß": 274, "à": 275, "á": 276, "â": 277, "ã": 278, "ä": 279, "å": 280, "æ": 281, "ç": 282, "è": 283, "é": 284, "ê": 285, "ë": 286, "ì": 287, "í": 288, "î": 289, "ï": 290, "ð": 291, "ñ": 292, "ò": 293, "ó": 294, "ô": 295, "õ": 296, "ö": 297, "÷": 298, "ø": 299, "ù": 300, "ú": 301, "û": 302, "ü": 303, "ý": 304, "þ": 305, "ÿ": 306, "Ā": 307, "ā": 308, "Ă": 309, "ă": 310, "Ą": 311, "ą": 312, "Ć": 313, "ć": 314, "Ĉ": 315, "ĉ": 316, "Ċ": 317, "ċ": 318, "Č": 319, "č": 320, "Ď": 321, "ď": 322, "Đ": 323, "đ": 324, "Ē": 325, "ē": 326, "Ĕ": 327, "ĕ": 328, "Ė": 329, "ė": 330, "Ę": 331, "ę": 332, "Ě": 333, "ě": 334, "Ĝ": 335, "ĝ": 336, "Ğ": 337, "ğ": 338, "Ġ": 339, "ġ": 340, "Ģ": 341, "ģ": 342, "Ĥ": 343, "ĥ": 344, "Ħ": 345, "ħ": 346, "Ĩ": 347, "ĩ": 348, "Ī": 349, "ī": 350, "Ĭ": 351, "ĭ": 352, "Į": 353, "į": 354, "İ": 355, "ı": 356, "Ĳ": 357, "ĳ": 358, "Ĵ": 359, "ĵ": 360, "Ķ": 361, "ķ": 362, "ĸ": 363, "Ĺ": 364, "ĺ": 365, "Ļ": 366, "ļ": 367, "Ľ": 368, "ľ": 369, "Ŀ": 370, "ŀ": 371, "Ł": 372, "ł": 373, "Ń": 374, "ĠĠ": 375, "ĠĠĠĠ": 376, "ĠĠĠ": 377, "ĠĠĠĠĠĠĠĠ": 378, "re": 379, "in": 380, "er": 381, "on": 382, "st": 383, "at": 384, "Ġ=": 385, "en": 386, "th": 387, ");": 388, "ĉĉ": 389, "or": 390, "ar": 391, "al": 392, "se": 393, "ĠĠĠĠĠĠĠ": 394, "le": 395, "ct": 396, "ion": 397, "de": 398, "Ġ{": 399, "Ġ(": 400, "ur": 401, "is": 402, "an": 403, "Ġc": 404, "et": 405, "if": 406, "te": 407, "->": 408, "am": 409, "un": 410, "ĠĠĠĠĠĠĠĠĠĠĠ": 411, "Ġf": 412, "Ġth": 413, "//": 414, "--": 415, "Ġn": 416, "ro": 417, "ce": 418, "ing": 419, "ret": 420, "it": 421, "Ġt": 422, "urn": 423, "ent": 424, "Ġ}": 425, "Ġ*": 426, "return": 427, "Ġp": 428, "()": 429, "int": 430, "Ġs": 431, "ue": 432, "ss": 433, "Ġa": 434, "id": 435, "lo": 436, "Ġ\"": 437, "ed": 438, "ic": 439, "Ġ$": 440, "pe": 441, "Ġb": 442, "dd": 443, "ch": 444, "ul": 445, "Ġm": 446, "ate": 447, "Ġthe": 448, "tr": 449, "ut": 450, "Ġo": 451, "bb": 452, "ction": 453, "ame": 454, "str": 455, "il": 456, "el": 457, "ag": 458, "get": 459, "Ġv": 460, "Ġ0": 461, "Ġif": 462, "ck": 463, "Ġ'": 464, "00": 465, "ĠĠĠĠĠĠĠĠĠĠĠĠĠĠĠ": 466, "pt": 467, "**": 468, "co": 469, "ex": 470, "ad": 471, "ig": 472, "ĠĠĠĠĠ": 473, "um": 474, "\",": 475, "im": 476, "Ġw": 477, "----": 478, "Ġre": 479, "Ġd": 480, "In": 481, "es": 482, "Ġreturn": 483, "err": 484, "ol": 485, "ype": 486, "la": 487, "Ġin": 488, "ew": 489, "this": 490, "set": 491, "unction": 492, "ri": 493, "ĠĠĠĠĠĠĠĠĠĠĠĠĠĠĠĠ": 494, "ode": 495, "ra": 496, "ub": 497, "ata": 498, "==": 499, "::": 500, "and": 501, "ot": 502, "(\"": 503, "iz": 504, "om": 505, "ĠS": 506, "ist": 507, "Ġto": 508, "))": 509, "alue": 510, "ĉĉĉ": 511, "Re": 512, "Ġ+": 513, "ab": 514, "ĠT": 515, "us": 516, "Ġ<": 517, "Ġ//": 518, "Ġ&": 519, "ile": 520, "ation": 521, "as": 522, "();": 523, "Ġ1": 524, "con": 525, "he": 526, "ert": 527, "ase": 528, "end": 529, "ve": 530, "ap": 531, "ĠC": 532, "bbbb": 533, "',": 534, "age": 535, "ect": 536, "ize": 537, "up": 538, "Ġl": 539, "ption": 540, "aram": 541, "ult": 542, "em": 543, "ff": 544, "Ġ:": 545, "od": 546, "Ġthis": 547, "Ġi": 548, "Ġcon": 549, "Ġ==": 550, "lic": 551, "Ġ!": 552, "ĠA": 553, "Ġint": 554, "Ġis": 555, "),": 556, "able": 557, "Ġst": 558, "Con": 559, "ers": 560, "all": 561, "('": 562, "Ġfor": 563, "ment": 564, "bj": 565, "Ġh": 566, "St": 567, "****": 568, "($": 569, "ke": 570, "string": 571, "Ġe": 572, "Ġerr": 573, "Ex": 574, "qu": 575, "ow": 576, "Ġde": 577, "ir": 578, "Ġnew": 579, "--------": 580, "Ġ-": 581, "ren": 582, "fo": 583, "ull": 584, "bu": 585, "ĉĉĉĉ": 586, "res": 587, "ter": 588, "to": 589, "tex": 590, "ĠN": 591, "oid": 592, "ĠĠĠĠĠĠĠĠĠĠĠĠĠĠĠĠĠĠĠ": 593, "ER": 594, "Ġof": 595, "ublic": 596, "uct": 597, "ack": 598, "ath": 599, "vi": 600, "param": 601, "ort": 602, "Ġfunction": 603, "ray": 604, "art": 605, "mp": 606, "ĠI": 607, "ine": 608, "dddd": 609, "Name": 610, "Ġg": 611, "tring": 612, "else": 613, "ĠD": 614, "ĠP": 615, "name": 616, "li": 617, "function": 618, "op": 619, "Ġ!=": 620, "bject": 621, "for": 622, "Ġ_": 623, "fa": 624, "text": 625, "Ġ[": 626, "struct": 627, "ime": 628, "Ġr": 629, "ext": 630, "Ġtr": 631, "Ġu": 632, "put": 633, "Ġ*/": 634, "ĠM": 635, "data": 636, "0000": 637, "ht": 638, "que": 639, "ind": 640, "Type": 641, "/*": 642, "unt": 643, "pro": 644, "ang": 645, "ver": 646, "Ġar": 647, "));": 648, "Ġ|": 649, "sc": 650, "IN": 651, "ĠF": 652, "public": 653, "os": 654, "pa": 655, "lock": 656, "out": 657, "Get": 658, "\");": 659, "Ġvar": 660, "Ġbe": 661, "alse": 662, "oc": 663, "ssert": 664, "En": 665, "ain": 666, "dex": 667, "bbbbbbbb": 668, "Ġelse": 669, "ach": 670, "key": 671, "ign": 672, ").": 673, "add": 674, "De": 675, "ith": 676, "rent": 677, "our": 678, "Ġex": 679, "rr": 680, "RE": 681, "ip": 682, "type": 683, "String": 684, "ord": 685, "unc": 686, "To": 687, "Ġ2": 688, "atch": 689, "rom": 690, "test": 691, "len": 692, "vent": 693, "32": 694, "lass": 695, "dev": 696, "Value": 697, "Ġ&&": 698, "====": 699, "Ġnull": 700, "var": 701, "Err": 702, "val": 703, "Pro": 704, "Ġres": 705, "Ġand": 706, "']": 707, "quest": 708, "Ġse": 709, "tem": 710, "Ġ>": 711, "ON": 712, "lement": 713, "atic": 714, "row": 715, "Ġ:=": 716, "ST": 717, "ure": 718, "ĠB": 719, "sh": 720, "AT": 721, "vice": 722, "Ġvoid": 723, "Ġstring": 724, "ess": 725, "Ġ%": 726, "ource": 727, "one": 728, "def": 729, "yte": 730, "gth": 731, "ly": 732, "Ġch": 733, "ity": 734, "oint": 735, "ak": 736, "['": 737, "Res": 738, "act": 739, "per": 740, "ance": 741, "ire": 742, "Ġ)": 743, "Ġget": 744, "Id": 745, "Ġ.": 746, "ĠL": 747, "EN": 748, "ild": 749, "ax": 750, "ser": 751, "est": 752, "port": 753, "ight": 754, "fig": 755, "ial": 756, "of": 757, "mo": 758, "],": 759, "LL": 760, "pon": 761, "value": 762, "func": 763, "eld": 764, "ans": 765, "Ġfalse": 766, "Ġvalue": 767, "********": 768, "Ġtrue": 769, "ception": 770, "Ġ=>": 771, "rite": 772, "ay": 773, "ore": 774, "ive": 775, "Ġpro": 776, "reate": 777, "pr": 778, "</": 779, "code": 780, "ield": 781, "gs": 782, "form": 783, "')": 784, "///": 785, "ĠĠĠĠĠĠĠĠĠ": 786, "Ġname": 787, "loc": 788, "ll": 789, "ĠO": 790, "eth": 791, "cess": 792, "Error": 793, "und": 794, "ix": 795, "ary": 796, "size": 797, "bo": 798, "ule": 799, "Ġnot": 800, "fault": 801, "Ġ(!": 802, "=\"": 803, "ost": 804, "ID": 805, "reak": 806, "\")": 807, "ition": 808, "ken": 809, "ĠĠĠĠĠĠĠĠĠĠĠĠĠĠĠĠĠĠĠĠĠĠĠ": 810, "Data": 811, "ptions": 812, "\":": 813, "read": 814, "Set": 815, "ress": 816, "Ġan": 817, "++": 818, "cted": 819, "----------------": 820, "ĠR": 821, "iv": 822, "];": 823, "file": 824, "ory": 825, "LE": 826, "Ġset": 827, "pp": 828, "Ar": 829, "Ġ#": 830, "dddddddd": 831, "ator": 832, "essage": 833, "ĠU": 834, "Ġit": 835, "ethod": 836, "ument": 837, "Com": 838, "OR": 839, "qual": 840, "List": 841, "Ch": 842, "Ġerror": 843, "ader": 844, "Ġnil": 845, "ber": 846, "fe": 847, "64": 848, "AL": 849, "ted": 850, "Ġun": 851, "lay": 852, "Ġ||": 853, "Ġon": 854, "ĠG": 855, "Exception": 856, "Ġ);": 857, "reg": 858, "].": 859, "ĠE": 860, "ust": 861, "(&": 862, "ail": 863, "},": 864, "og": 865, "Ġarray": 866, "cl": 867, "Ġx": 868, "Ġdata": 869, "riv": 870, "ide": 871, "Ġor": 872, "pl": 873, "atus": 874, "lag": 875, "__": 876, "ph": 877, "Ġbo": 878, "SE": 879, "Ġas": 880, "Ġwh": 881, "red": 882, "Ġcase": 883, "Ġcom": 884, "ple": 885, "ange": 886, "Se": 887, "ĠW": 888, "Ġtype": 889, "Ġ@": 890, "////": 891, "IT": 892, "(),": 893, "new": 894, "void": 895, "log": 896, "ffer": 897, "DE": 898, "sed": 899, "ry": 900, "ptr": 901, "path": 902, "ref": 903, "().": 904, "Object": 905, "urrent": 906, "Ke": 907, "app": 908, "MA": 909, "ULL": 910, "tri": 911, "ffset": 912, "Ġj": 913, "ount": 914, "date": 915, "@@": 916, "ask": 917, "Ġwith": 918, "orm": 919, "ponse": 920, "ac": 921, "Ġthat": 922, "pert": 923, "low": 924, "Ġconst": 925, "..": 926, "Key": 927, "ill": 928, "Cont": 929, "());": 930, "case": 931, "static": 932, "ream": 933, "lient": 934, "col": 935, "arget": 936, "Ġwe": 937, "ree": 938, "Size": 939, "yn": 940, "Ġuint": 941, "back": 942, "stance": 943, "ml": 944, "roup": 945, "ated": 946, "ies": 947, "){": 948, "Ġout": 949, "ant": 950, "Ġsh": 951, "bbbbbbbbbbbbbbbb": 952, "):": 953, "com": 954, "ener": 955, "File": 956, "ery": 957, "At": 958, "cont": 959, "sign": 960, "tp": 961, "ast": 962, "info": 963, "Ġtest": 964, "Un": 965, "ĠH": 966, "Ġy": 967, "heck": 968, "ĠĠĠĠĠĠ": 969, "');": 970, "Ġ<<": 971, "Add": 972, "AR": 973, "ib": 974, "Bu": 975, "ok": 976, "length": 977, "ock": 978, "())": 979, "00000000": 980, "ink": 981, "list": 982, "rc": 983, "user": 984, "ole": 985, "Info": 986, "ong": 987, "Ġassert": 988, "Col": 989, "Ġcont": 990, "io": 991, "ard": 992, "Ġal": 993, "bute": 994, "Ġ3": 995, "priv": 996, "\";": 997, "odel": 998, "Ġ?": 999, "Ġdo": 1000, "pec": 1001, "ork": 1002, "tribute": 1003, "umber": 1004, "par": 1005, "CT": 1006, "lect": 1007, "ĠNULL": 1008, "ave": 1009, "ĠV": 1010, "Tr": 1011, "Ġfile": 1012, "Ġend": 1013, "Ġsize": 1014, "Ġlen": 1015, "own": 1016, "Ġ/": 1017, "Ser": 1018, "ec": 1019, "ersion": 1020, "lf": 1021, "ĠĊ": 1022, "ĠIn": 1023, "Time": 1024, "sg": 1025, "arg": 1026, "16": 1027, "========": 1028, "Ġfrom": 1029, "load": 1030, "use": 1031, "ĠĠĠĠĠĠĠĠĠĠĠĠĠĠĠĠĠĠĠĠĠĠĠĠĠĠĠĠĠĠĠĠ": 1032, "Ġbu": 1033, "OM": 1034, "Ġat": 1035, "sum": 1036, "Node": 1037, "\\\\": 1038, "[]": 1039, "print": 1040, "uld": 1041, "ifi": 1042, "der": 1043, "ĠThe": 1044, "ĠRe": 1045, "Ġresult": 1046, "ger": 1047, "count": 1048, "Test": 1049, "ens": 1050, "map": 1051, "Index": 1052, "lags": 1053, "Ġ+=": 1054, "ould": 1055, "yst": 1056, "line": 1057, "SS": 1058, "rame": 1059, "pos": 1060, "HE": 1061, "ded": 1062, "idth": 1063, "odule": 1064, "md": 1065, "IC": 1066, "Ġ/*": 1067, ":\"": 1068, "ĉĉĉĉĉ": 1069, "av": 1070, "loat": 1071, "Text": 1072, "._": 1073, "Ġ($": 1074, "ep": 1075, "index": 1076, "ystem": 1077, "sp": 1078, "He": 1079, "Ġ4": 1080, "iter": 1081, "error": 1082, "10": 1083, "ne": 1084, "Ġk": 1085, "State": 1086, "perty": 1087, "An": 1088, "Event": 1089, "be": 1090, "buf": 1091, "move": 1092, "12": 1093, "start": 1094, "ute": 1095, "Equal": 1096, "Point": 1097, "ME": 1098, "Ġen": 1099, "node": 1100, "signed": 1101, "inal": 1102, "Ġadd": 1103, "Item": 1104, "irst": 1105, "byte": 1106, "])": 1107, "Ġchar": 1108, "indow": 1109, "const": 1110, "Ġim": 1111, "write": 1112, "Ġstr": 1113, "ash": 1114, "ann": 1115, "ript": 1116, "Sh": 1117, "base": 1118, "Path": 1119, "mand": 1120, "ake": 1121, "AA": 1122, "no": 1123, "pty": 1124, "result": 1125, "state": 1126, "Ġbreak": 1127, "Class": 1128, "Ġkey": 1129, "iew": 1130, "andle": 1131, "ther": 1132, "Context": 1133, "AN": 1134, "comp": 1135, "pected": 1136, "Ġobject": 1137, "Sc": 1138, "umn": 1139, "min": 1140, "ush": 1141, "ug": 1142, "ache": 1143, "Is": 1144, "pace": 1145, "Param": 1146, "Ġare": 1147, "****************": 1148, "class": 1149, "Element": 1150, "AC": 1151, "ĠQ": 1152, "cur": 1153, "OT": 1154, "AD": 1155, "cp": 1156, "valid": 1157, "andl": 1158, "Code": 1159, "yle": 1160, "ge": 1161, "IS": 1162, "ting": 1163, "Request": 1164, "OP": 1165, "Ġle": 1166, "ĠString": 1167, "mary": 1168, "dddddddddddddddd": 1169, "array": 1170, "assert": 1171, "((": 1172, "ED": 1173, "Int": 1174, "sub": 1175, "Ġstatic": 1176, "';": 1177, "face": 1178, "ps": 1179, "raw": 1180, "time": 1181, "Ġlist": 1182, "url": 1183, "Bo": 1184, "Ġthrow": 1185, "\"\"": 1186, "FF": 1187, "':": 1188, "break": 1189, "eturn": 1190, "lace": 1191, "TR": 1192, "Ġhe": 1193, "isp": 1194, "esc": 1195, "\">": 1196, "ilter": 1197, "Count": 1198, "Len": 1199, "ud": 1200, "Ġreg": 1201, "Th": 1202, "ctx": 1203, "its": 1204, "lete": 1205, "temp": 1206, "uth": 1207, "allback": 1208, "SI": 1209, "Array": 1210, "Ġid": 1211, "LO": 1212, "ccess": 1213, "ĠGet": 1214, "irect": 1215, "Ġ\\": 1216, "ft": 1217, "ual": 1218, "Ġ((": 1219, "Reg": 1220, "Form": 1221, "Ġ`": 1222, "Ġbool": 1223, "PE": 1224, "summary": 1225, "lab": 1226, "db": 1227, "mb": 1228, "object": 1229, "lection": 1230, "ont": 1231, "++)": 1232, "num": 1233, "Ġret": 1234, "mt": 1235, "UN": 1236, "alid": 1237, "Ġarg": 1238, "ma": 1239, "Ġpublic": 1240, "Ġuintptr": 1241, "init": 1242, "Ġby": 1243, "options": 1244, "Config": 1245, "Ġ===": 1246, "create": 1247, "pre": 1248, "##": 1249, "config": 1250, "sa": 1251, "rint": 1252, "Ġcol": 1253, "Ġup": 1254, "Ġ},": 1255, "last": 1256, "Ġparam": 1257, "andler": 1258, "ise": 1259, "ĠĠĠĠĠĠĠĠĠĠĠĠĠĠĠĠĠĠĠĠĠĠĠĠĠĠĠ": 1260, "ody": 1261, "Message": 1262, "item": 1263, "ister": 1264, "roll": 1265, "\",\"": 1266, "Ġ__": 1267, "ys": 1268, "pc": 1269, "Result": 1270, "ite": 1271, "ample": 1272, "ync": 1273, "ton": 1274, "Qu": 1275, "UR": 1276, "Ġstruct": 1277, "max": 1278, "vel": 1279, "lob": 1280, "Map": 1281, "dir": 1282, "quire": 1283, "Ġsc": 1284, "char": 1285, "UT": 1286, "word": 1287, "lose": 1288, "ERR": 1289, "11": 1290, "addr": 1291, "verr": 1292, "arch": 1293, "Ġrequest": 1294, "tern": 1295, "Ġwill": 1296, "bug": 1297, "fs": 1298, "ld": 1299, "mem": 1300, "Ġ});": 1301, "ocument": 1302, ".$": 1303, "GE": 1304, "Ġpa": 1305, "////////": 1306, "Of": 1307, "work": 1308, "son": 1309, "uble": 1310, "cond": 1311, "entry": 1312, "next": 1313, "request": 1314, "Ġ[]": 1315, "verride": 1316, "PI": 1317, "ark": 1318, "ject": 1319, "Ġnode": 1320, "itch": 1321, "ĠJ": 1322, "FI": 1323, "old": 1324, "AB": 1325, "--------------------------------": 1326, "Loc": 1327, "ify": 1328, "rol": 1329, "place": 1330, "query": 1331, "Or": 1332, "ound": 1333, "]);": 1334, "private": 1335, "View": 1336, "gr": 1337, "default": 1338, "Up": 1339, "'t": 1340, "ee": 1341, "Ġtime": 1342, "(?": 1343, "rence": 1344, "Ġall": 1345, "order": 1346, "Ġcan": 1347, "ĠTh": 1348, "anag": 1349, "01": 1350, "Response": 1351, "ĠX": 1352, "Field": 1353, "As": 1354, "args": 1355, "Line": 1356, "event": 1357, "Ġself": 1358, "ĠIf": 1359, "utton": 1360, "Ġdefault": 1361, "ait": 1362, "token": 1363, "local": 1364, "Ġ5": 1365, "status": 1366, "Token": 1367, "ape": 1368, "Out": 1369, "Ġpar": 1370, "From": 1371, "field": 1372, "02": 1373, "pi": 1374, "Ġno": 1375, "input": 1376, "ference": 1377, "link": 1378, "point": 1379, "TE": 1380, "sk": 1381, "Ġcheck": 1382, "Lo": 1383, "element": 1384, "witch": 1385, "Service": 1386, "bbbbbbbbbbbbbbbbbbbbbbbbbbbbbbbb": 1387, "[\"": 1388, "table": 1389, "press": 1390, "Ġpath": 1391, "empty": 1392, "Ġuse": 1393, "offset": 1394, "action": 1395, "ns": 1396, "cord": 1397, "Ġelement": 1398, "ION": 1399, "device": 1400, "ector": 1401, "uration": 1402, "End": 1403, "Ġstate": 1404, "rl": 1405, "->_": 1406, "are": 1407, "ined": 1408, "ĠĠĠĠĠĠĠĠĠĠĠĠĠ": 1409, "Pa": 1410, "0000000000000000": 1411, "attr": 1412, "null": 1413, "olean": 1414, "Ġser": 1415, "che": 1416, "UE": 1417, "Attribute": 1418, "PR": 1419, "trans": 1420, "Ġspec": 1421, "itle": 1422, "Log": 1423, "'s": 1424, "inter": 1425, "eb": 1426, "ia": 1427, "space": 1428, "Ġro": 1429, "fd": 1430, "led": 1431, "Pos": 1432, "tot": 1433, "Ġcurrent": 1434, "ytes": 1435, "annel": 1436, "Ġstart": 1437, "\\\"": 1438, "eter": 1439, "do": 1440, "};": 1441, "Ġindex": 1442, "label": 1443, "dr": 1444, "tx": 1445, "uint": 1446, "ttp": 1447, "CE": 1448, "anager": 1449, "ict": 1450, "Ġ>=": 1451, "CK": 1452, "Ġapp": 1453, "Ġmethod": 1454, "Le": 1455, "Ġus": 1456, "Trans": 1457, "pen": 1458, "For": 1459, "pect": 1460, "match": 1461, "fore": 1462, "Length": 1463, "(?:": 1464, "ms": 1465, "Ġoptions": 1466, "vert": 1467, "uto": 1468, "ages": 1469, "ins": 1470, "check": 1471, "Ġne": 1472, "With": 1473, "py": 1474, "US": 1475, "Property": 1476, "net": 1477, "format": 1478, "req": 1479, "][": 1480, "printf": 1481, "Ġ};": 1482, "Ġ8": 1483, "oto": 1484, "Not": 1485, "group": 1486, "ainer": 1487, "Ġevent": 1488, "04": 1489, "ations": 1490, "ature": 1491, "Pointer": 1492, "Model": 1493, "ĠCon": 1494, "ename": 1495, "bs": 1496, "tings": 1497, "On": 1498, "context": 1499, "&&": 1500, "block": 1501, "CH": 1502, "Ġclass": 1503, "ified": 1504, "><": 1505, "25": 1506, "ative": 1507, "Im": 1508, "Ptr": 1509, "obj": 1510, "App": 1511, "nd": 1512, "Stream": 1513, "Ġz": 1514, "apt": 1515, "Ġsub": 1516, "ick": 1517, "tag": 1518, "ific": 1519, "lobal": 1520, "method": 1521, "ĠTHE": 1522, "000": 1523, "current": 1524, "Ġstd": 1525, "mat": 1526, "ilder": 1527, "unsigned": 1528, "Method": 1529, "Ġ</": 1530, "nection": 1531, "Ġ()": 1532, "Al": 1533, "Ġlong": 1534, "New": 1535, "Status": 1536, "Ġ>>": 1537, "Query": 1538, "Ġpre": 1539, "late": 1540, "By": 1541, "po": 1542, ")),": 1543, "cle": 1544, "ich": 1545, "Client": 1546, "ace": 1547, "target": 1548, "iable": 1549, "flags": 1550, "Ġdef": 1551, "Ġcontext": 1552, ">(": 1553, "ND": 1554, "try": 1555, "ie": 1556, "Ġread": 1557, "msg": 1558, "Ġhas": 1559, "http": 1560, "iled": 1561, "Instance": 1562, "ension": 1563, "Str": 1564, "ĠĠĠĠĠĠĠĠĠĠĠĠ": 1565, "ription": 1566, "parent": 1567, "Ġtry": 1568, "abled": 1569, "Ġshould": 1570, "Be": 1571, "ĠSet": 1572, "Ġitem": 1573, "desc": 1574, "ustom": 1575, "\"),": 1576, "Ġhave": 1577, "ale": 1578, "Buffer": 1579, "Ġfield": 1580, "eters": 1581, "Block": 1582, "Ġline": 1583, "(){": 1584, "The": 1585, "Ġinput": 1586, "='": 1587, "Table": 1588, "append": 1589, "client": 1590, "LA": 1591, "Ġlog": 1592, "true": 1593, "[$": 1594, "Write": 1595, "safe": 1596, "Date": 1597, "Ġinstance": 1598, "(_": 1599, "ĠThis": 1600, "buffer": 1601, "push": 1602, "equal": 1603, "itor": 1604, "iss": 1605, "ML": 1606, "module": 1607, "mon": 1608, "message": 1609, "Inter": 1610, "Create": 1611, "TY": 1612, "Equals": 1613, "Ġcall": 1614, "jo": 1615, "Read": 1616, "queue": 1617, "Desc": 1618, "cope": 1619, "INT": 1620, "Ġmax": 1621, "riter": 1622, "'),": 1623, "params": 1624, "Group": 1625, "igh": 1626, "mode": 1627, "Start": 1628, "layer": 1629, "Ag": 1630, "Ġ\"\\": 1631, "cy": 1632, "ice": 1633, "not": 1634, "Ġnumber": 1635, "cs": 1636, "pression": 1637, "Ġ\"\"\"": 1638, "refix": 1639, "enu": 1640, "ĠEx": 1641, "ner": 1642, "OD": 1643, "Ġprint": 1644, "eta": 1645, "Content": 1646, "VAL": 1647, "til": 1648, "Mode": 1649, "Ġnum": 1650, "MP": 1651, "BU": 1652, "Oper": 1653, "free": 1654, "Ġmatch": 1655, "SC": 1656, "page": 1657, "ĠAr": 1658, "tected": 1659, "Format": 1660, "ls": 1661, "IG": 1662, "Ġlo": 1663, "ponent": 1664, "================": 1665, "inue": 1666, "Par": 1667, "ĠDe": 1668, "has": 1669, "ING": 1670, "isplay": 1671, "Ġwhen": 1672, "Ġtext": 1673, "ATE": 1674, "Return": 1675, "Em": 1676, "cmd": 1677, "Ġinter": 1678, "Ġconfig": 1679, "User": 1680, "ilename": 1681, "Sub": 1682, "bool": 1683, "aders": 1684, "Window": 1685, "ider": 1686, "IO": 1687, "Ġtrans": 1688, "IP": 1689, ".</": 1690, "fter": 1691, "ally": 1692, "expected": 1693, "://": 1694, "Ġuser": 1695, "20": 1696, "SU": 1697, "Color": 1698, "ence": 1699, "Manager": 1700, "ning": 1701, "chem": 1702, "Ġ->": 1703, "Ġpoint": 1704, "call": 1705, "(*": 1706, "ĉĉĉĉĉĉ": 1707, "content": 1708, "opy": 1709, "Ġsizeof": 1710, "ible": 1711, "Ġbase": 1712, "Var": 1713, "ude": 1714, "uments": 1715, "EX": 1716, "Ġcode": 1717, "ENT": 1718, "stream": 1719, "})": 1720, "Ġoutput": 1721, "ializ": 1722, "omain": 1723, "version": 1724, "Ref": 1725, "from": 1726, "pts": 1727, "std": 1728, "width": 1729, "wh": 1730, "CON": 1731, "Ġpos": 1732, "self": 1733, "Ġ_,": 1734, "teger": 1735, "True": 1736, "Base": 1737, "Ġcreate": 1738, "Arg": 1739, "find": 1740, "plit": 1741, "ODE": 1742, "remove": 1743, "Ġtarget": 1744, "Ġwhile": 1745, "rt": 1746, "OL": 1747, "Ġq": 1748, "Check": 1749, "imit": 1750, "Ġtoken": 1751, "Ġcount": 1752, "pack": 1753, "TH": 1754, "Resource": 1755, "()->": 1756, "gin": 1757, "cc": 1758, "SY": 1759, "dddddddddddddddddddddddddddddddd": 1760, "ses": 1761, "bl": 1762, "Default": 1763, "Header": 1764, "raph": 1765, "Ġsup": 1766, "fn": 1767, "Source": 1768, "Ġso": 1769, "orted": 1770, "No": 1771, "arsh": 1772, "ics": 1773, "Ġ6": 1774, "dis": 1775, "float": 1776, "Function": 1777, "ql": 1778, "ell": 1779, "Ġrange": 1780, "FA": 1781, "Pre": 1782, "parse": 1783, "false": 1784, "\").": 1785, "ĠSystem": 1786, "Ġone": 1787, "output": 1788, "Ġnext": 1789, "aa": 1790, "view": 1791, "src": 1792, "nect": 1793, "ding": 1794, "ero": 1795, "Ġinit": 1796, "lot": 1797, "Tag": 1798, "DB": 1799, "Ġany": 1800, "ish": 1801, "ical": 1802, "Frame": 1803, "goto": 1804, "Ġoffset": 1805, "Ġfirst": 1806, "hw": 1807, "Options": 1808, "alloc": 1809, "ifier": 1810, "ssion": 1811, "LT": 1812, "ĉĠĠĠ": 1813, "Ġused": 1814, "ĠĠĠĠĠĠĠĠĠĠ": 1815, "host": 1816, "ĠAssert": 1817, "Ġblock": 1818, "SH": 1819, "({": 1820, "Ġ*)": 1821, "Ġargs": 1822, "++;": 1823, "ĠSt": 1824, "uccess": 1825, "Ġ<=": 1826, "pend": 1827, "Ġ///": 1828, "bar": 1829, "here": 1830, "AP": 1831, "Ġunsigned": 1832, "response": 1833, "Input": 1834, "Ġmem": 1835, "rap": 1836, "Ġns": 1837, "Ġact": 1838, "Ġwhich": 1839, "html": 1840, "Ġmessage": 1841, "Ġfloat": 1842, "mu": 1843, "source": 1844, "Ġonly": 1845, "Lay": 1846, "entity": 1847, "Null": 1848, "box": 1849, "TYPE": 1850, "Width": 1851, "cept": 1852, "core": 1853, "Util": 1854, "go": 1855, "ines": 1856, "update": 1857, ")))": 1858, "Image": 1859, "unk": 1860, "totype": 1861, "mit": 1862, "Ġbuffer": 1863, "ialize": 1864, "Ġ10": 1865, "Override": 1866, "ateg": 1867, "irectory": 1868, "irq": 1869, "ĠFI": 1870, "perties": 1871, "ymb": 1872, "div": 1873, "15": 1874, "AME": 1875, "Co": 1876, "Version": 1877, "Child": 1878, "uid": 1879, "ailed": 1880, "rop": 1881, "ift": 1882, "PC": 1883, "Offset": 1884, "ports": 1885, "ob": 1886, "ymbol": 1887, "Action": 1888, "irt": 1889, "Mem": 1890, "iven": 1891, "post": 1892, "99": 1893, "\"]": 1894, "QU": 1895, "([": 1896, "Ġsource": 1897, "*/": 1898, "color": 1899, "returns": 1900, "Ġvalues": 1901, "Ġ|=": 1902, "Box": 1903, "ĠĠĠĠĠĠĠĠĠĠĠĠĠĠĠĠĠĠĠĠĠĠĠĠĠĠĠĠĠĠĠ": 1904, "Handler": 1905, "rows": 1906, "mod": 1907, "ctor": 1908, "ZE": 1909, "Ġmap": 1910, "stat": 1911, "Ġco": 1912, "ca": 1913, "ysc": 1914, "IF": 1915, "mm": 1916, "amp": 1917, "store": 1918, "Ġval": 1919, "Ġfinal": 1920, "Ġper": 1921, "bit": 1922, "Style": 1923, "ormal": 1924, "Ġresponse": 1925, "ains": 1926, "ocket": 1927, "ĠReturn": 1928, "Tra": 1929, "lib": 1930, "we": 1931, "Ġ++": 1932, "protected": 1933, "Number": 1934, "replace": 1935, "Imp": 1936, "lication": 1937, "ĠNone": 1938, "lector": 1939, "NE": 1940, "lick": 1941, "BB": 1942, "Ġref": 1943, "ingle": 1944, ")(": 1945, "Ġother": 1946, "ĠIS": 1947, "vm": 1948, "ERROR": 1949, "top": 1950, "tmp": 1951, "ĠĠĠĠĠĠĠĠĠĠĠĠĠĠĠĠĠĠ": 1952, "VER": 1953, "lat": 1954, "Ed": 1955, "06": 1956, "yscall": 1957, "pan": 1958, "ĠTest": 1959, "Ġad": 1960, "System": 1961, "header": 1962, "close": 1963, "All": 1964, "09": 1965, "frame": 1966, "clude": 1967, "mask": 1968, "(!": 1969, "first": 1970, "cache": 1971, "SET": 1972, "ists": 1973, "api": 1974, "lected": 1975, "Ġvalid": 1976, "Ġlength": 1977, "ĠNOT": 1978, "apter": 1979, "child": 1980, "AM": 1981, "ci": 1982, "Command": 1983, "Num": 1984, "Fact": 1985, "Target": 1986, "ender": 1987, "Ġdevice": 1988, "ved": 1989, "model": 1990, "Row": 1991, "lease": 1992, "cb": 1993, "wait": 1994, "body": 1995, "Ġcal": 1996, "template": 1997, "elper": 1998, "ou": 1999, "lt": 2000, "Builder": 2001, "Ġmake": 2002, "lem": 2003, "HT": 2004, "ome": 2005, "defined": 2006, "}}": 2007, "ates": 2008, "\"))": 2009, "Def": 2010, "image": 2011, "open": 2012, "vo": 2013, "Ġhttp": 2014, "ĠPro": 2015, "Ġmust": 2016, "root": 2017, "'],": 2018, "Ġ,": 2019, "anged": 2020, "Ġformat": 2021, "abel": 2022, "Ġlast": 2023, "ĠAT": 2024, "Valid": 2025, "Ġtable": 2026, "REG": 2027, "Column": 2028, "prototype": 2029, "Ent": 2030, "RO": 2031, "roller": 2032, "Char": 2033, "Call": 2034, "Address": 2035, "********************************": 2036, "sup": 2037, "DI": 2038, "ution": 2039, "13": 2040, "Ġdouble": 2041, "Ext": 2042, "Act": 2043, "KE": 2044, "mark": 2045, "####": 2046, "height": 2047, "Ġexpected": 2048, "typeof": 2049, "24": 2050, "80": 2051, "Ro": 2052, "vider": 2053, "rix": 2054, "Per": 2055, "Update": 2056, "style": 2057, "Ġflags": 2058, "ERT": 2059, "Ġreturns": 2060, "ĠĠĠĠĠĠĠĠĠĠĠĠĠĠ": 2061, "round": 2062, "Entry": 2063, "lice": 2064, "Max": 2065, "nt": 2066, "ments": 2067, "ĠList": 2068, "Ġmin": 2069, "Ġoper": 2070, "Gener": 2071, "down": 2072, "foo": 2073, "Ġrun": 2074, "xy": 2075, "Ġgiven": 2076, "():": 2077, "Ġ!==": 2078, "Ad": 2079, "ous": 2080, "idget": 2081, "coding": 2082, "Ġtra": 2083, "ater": 2084, "attern": 2085, "ĠCom": 2086, "});": 2087, ",\"": 2088, "SIZE": 2089, "istr": 2090, "cast": 2091, "Ġcatch": 2092, "...": 2093, "ĠĠĠĠĊ": 2094, "And": 2095, "ugin": 2096, "||": 2097, "imer": 2098, "VE": 2099, "Height": 2100, "nown": 2101, "xx": 2102, "doc": 2103, "Ġstatus": 2104, "Ġneed": 2105, "Ġtag": 2106, "Ġbut": 2107, "idx": 2108, "older": 2109, "column": 2110, "14": 2111, "active": 2112, "with": 2113, "chema": 2114, "////////////////": 2115, "Ġboolean": 2116, "ĠCOM": 2117, "instance": 2118, "Ġmode": 2119, "Page": 2120, "PO": 2121, "resent": 2122, "Ġ['": 2123, "Button": 2124, "regex": 2125, "Ġ7": 2126, "Ġobj": 2127, "ĠTr": 2128, "Ġdoes": 2129, "rag": 2130, "Init": 2131, "aw": 2132, "handle": 2133, "Ġbyte": 2134, "option": 2135, "me": 2136, "andom": 2137, "TP": 2138, "\"},": 2139, "Params": 2140, "33": 2141, "switch": 2142, "ĠTH": 2143, "Ġrequire": 2144, "Rule": 2145, "Ġinto": 2146, "IL": 2147, "rid": 2148, "\"));": 2149, "adata": 2150, "lang": 2151, "Url": 2152, "MM": 2153, "Ġsk": 2154, "ote": 2155, "Ġ(*": 2156, "Empty": 2157, "reen": 2158, "ixed": 2159, "SON": 2160, "Server": 2161, "Ġdesc": 2162, "attribute": 2163, "ower": 2164, "ported": 2165, "Ġme": 2166, "resource": 2167, "55": 2168, "her": 2169, "iff": 2170, "Ġwas": 2171, "title": 2172, "XX": 2173, "SP": 2174, "Ġpart": 2175, "DR": 2176, "filter": 2177, "ERAT": 2178, "Ġsrc": 2179, "riptor": 2180, "MAND": 2181, "cpu": 2182, "FO": 2183, "etadata": 2184, "part": 2185, "js": 2186, "Ġac": 2187, "Label": 2188, "pare": 2189, "stant": 2190, "uction": 2191, "ision": 2192, "orage": 2193, "sole": 2194, "debug": 2195, "Tem": 2196, "ĠBY": 2197, "Ġmodule": 2198, "arshal": 2199, "Ġbuf": 2200, "Ġparent": 2201, "Ġgener": 2202, "Output": 2203, "Ġcomp": 2204, "fg": 2205, "Ġfore": 2206, "Ġel": 2207, "Position": 2208, "untime": 2209, "Ġ16": 2210, "xml": 2211, "ĠDO": 2212, "OK": 2213, "@@@@": 2214, "Ġos": 2215, "dest": 2216, "util": 2217, "ecute": 2218, "hash": 2219, "join": 2220, "endif": 2221, "ĠFILE": 2222, "leg": 2223, "Control": 2224, "ized": 2225, "00000000000000000000000000000000": 2226, "auth": 2227, "Range": 2228, "Ġversion": 2229, "ORT": 2230, "Ġusing": 2231, "Ġcur": 2232, "Current": 2233, "Ġclient": 2234, "34": 2235, "tract": 2236, "bt": 2237, "DIT": 2238, "Ġstream": 2239, "Bytes": 2240, "ume": 2241, "ays": 2242, "18": 2243, "BUG": 2244, "SYS": 2245, "imple": 2246, "Dis": 2247, "cm": 2248, "miss": 2249, "Ġwrite": 2250, "30": 2251, "ĠUn": 2252, "LI": 2253, "river": 2254, "ient": 2255, "'))": 2256, "register": 2257, "MD": 2258, "apping": 2259, "let": 2260, "Ġcommand": 2261, "Ġext": 2262, "TI": 2263, "Ġcontent": 2264, "tach": 2265, "Ġcallback": 2266, "pth": 2267, "Entity": 2268, "Ġfail": 2269, "Ġthen": 2270, "location": 2271, "ump": 2272, "19": 2273, "Filter": 2274, "left": 2275, "Op": 2276, "ĠAdd": 2277, "ĠObject": 2278, "cre": 2279, "Ġnet": 2280, "Ġinfo": 2281, "lear": 2282, "process": 2283, "Vector": 2284, "Interface": 2285, "ool": 2286, "Assert": 2287, "Args": 2288, "56": 2289, "Component": 2290, "ready": 2291, "Ġfound": 2292, "SK": 2293, ")|": 2294, "Ġdis": 2295, "structor": 2296, "Ġoption": 2297, "ternal": 2298, "AG": 2299, "unsafe": 2300, "resh": 2301, "Ġbytes": 2302, "Ġpage": 2303, "ures": 2304, "ĠCreate": 2305, "med": 2306, "_,": 2307, "Ġupdate": 2308, "ĠGEN": 2309, "Ġpack": 2310, "my": 2311, "olic": 2312, "gine": 2313, "Ġspecified": 2314, "Ġforeach": 2315, "Cache": 2316, "json": 2317, "nal": 2318, "Ġra": 2319, "Spec": 2320, "run": 2321, "show": 2322, "Ġthrows": 2323, "opt": 2324, "number": 2325, "ĠTHIS": 2326, "irtual": 2327, "pu": 2328, "ty": 2329, "ility": 2330, "atal": 2331, "Pack": 2332, "server": 2333, "Ġ{}": 2334, "ating": 2335, "Enum": 2336, "ui": 2337, "sor": 2338, "/**": 2339, "ERATED": 2340, "Ġerrno": 2341, "ĠIN": 2342, "ĠTOP": 2343, "ĠCOMMAND": 2344, "Ġmsg": 2345, "Pl": 2346, "uage": 2347, "elp": 2348, "BO": 2349, "Ġprocess": 2350, "RL": 2351, "Are": 2352, "Min": 2353, "duct": 2354, "see": 2355, "ĠEDIT": 2356, "ĉĊ": 2357, "Ġmodel": 2358, "iginal": 2359, "rx": 2360, "split": 2361, "ava": 2362, "UP": 2363, "').": 2364, "coder": 2365, "uch": 2366, "inition": 2367, "ĠGENERATED": 2368, "ĠWe": 2369, "igger": 2370, "rit": 2371, "ank": 2372, "ince": 2373, "ities": 2374, "wo": 2375, "Layout": 2376, "Ġresource": 2377, "Case": 2378, "Ġimage": 2379, "Script": 2380, "UM": 2381, "CA": 2382, "Ġtmp": 2383, "Ġhandle": 2384, "Ġentry": 2385, "env": 2386, "Ġgroup": 2387, "Hash": 2388, "None": 2389, "Match": 2390, "tom": 2391, "Part": 2392, "Mo": 2393, "ultip": 2394, "Next": 2395, "Ġwork": 2396, "ABLE": 2397, "formation": 2398, "select": 2399, "bytes": 2400, "bbbbbbbbbbbbbbbbbbbbbbbbbbbbbbbbbbbbbbbbbbbbbbbbbbbbbbbbbbbbbbbb": 2401, "ww": 2402, "Dir": 2403, "Handle": 2404, "gg": 2405, "Ġ]": 2406, "MS": 2407, "flow": 2408, "INVAL": 2409, "so": 2410, "ose": 2411, "sd": 2412, "Ġab": 2413, "send": 2414, "28": 2415, "Ġattribute": 2416, "Ġcontinue": 2417, "ssign": 2418, "ssword": 2419, "right": 2420, "php": 2421, "spec": 2422, "COM": 2423, "CP": 2424, "Ġback": 2425, "tra": 2426, "50": 2427, "Level": 2428, "arning": 2429, "atrix": 2430, "Draw": 2431, "Back": 2432, "command": 2433, "Ġold": 2434, "Ġrep": 2435, "Ġoverride": 2436, "light": 2437, "copy": 2438, "ha": 2439, "ET": 2440, "AAAA": 2441, "rect": 2442, "Load": 2443, "Ġswitch": 2444, "idd": 2445, "da": 2446, "uff": 2447, "UI": 2448, "17": 2449, "ear": 2450, "CR": 2451, "ĠZ": 2452, "Ġcl": 2453, "level": 2454, "Ġlocal": 2455, "long": 2456, "Ġind": 2457, "skb": 2458, "cry": 2459, "ched": 2460, "olicy": 2461, "iction": 2462, "the": 2463, "HECK": 2464, "over": 2465, "head": 2466, "Ġparse": 2467, "ailable": 2468, "Do": 2469, "ua": 2470, "ilt": 2471, "HP": 2472, "filename": 2473, "Device": 2474, "ategory": 2475, "Ġ;": 2476, "NO": 2477, "etr": 2478, "BA": 2479, "ts": 2480, "Ġed": 2481, "ialog": 2482, "22": 2483, "*)": 2484, "MAX": 2485, "Listener": 2486, "bind": 2487, "tocol": 2488, "ops": 2489, "Ġ\"%": 2490, "Run": 2491, "{}": 2492, "Ġafter": 2493, "Ġeach": 2494, "enter": 2495, "[:": 2496, "ook": 2497, "oper": 2498, "by": 2499, "second": 2500, "require": 2501, "Val": 2502, "struction": 2503, "Location": 2504, "channel": 2505, "CL": 2506, "quence": 2507, "100": 2508, "GET": 2509, "Collection": 2510, "PA": 2511, "aint": 2512, "Ġurl": 2513, "Ġnon": 2514, "sm": 2515, "clear": 2516, "TO": 2517, "URL": 2518, "ICAg": 2519, "cal": 2520, "dma": 2521, "EM": 2522, "Ġfind": 2523, "NAME": 2524, "ĠerrnoErr": 2525, "rel": 2526, "40": 2527, ")->": 2528, "STAT": 2529, "Ġ(\"": 2530, "Types": 2531, "br": 2532, "Values": 2533, "Invalid": 2534, "Menu": 2535, "ĠFile": 2536, "ĠReturns": 2537, "','": 2538, "unlock": 2539, "Factory": 2540, "ĠCheck": 2541, "Option": 2542, "main": 2543, "ĠID": 2544, "assertEquals": 2545, "otal": 2546, "Vis": 2547, "exp": 2548, "Role": 2549, "Ġthere": 2550, "STR": 2551, "ĠType": 2552, "END": 2553, "oft": 2554, "Settings": 2555, "EE": 2556, "à¤": 2557, "Ac": 2558, "86": 2559, "fer": 2560, "FB": 2561, "Ġrow": 2562, "Ver": 2563, "session": 2564, "Cur": 2565, "ĠĠĠĠĠĠĠĠĠĠĠĠĠĠĠĠĠ": 2566, "sb": 2567, "Ġframe": 2568, "CC": 2569, "Ġchild": 2570, "Obj": 2571, "ugh": 2572, "Ġport": 2573, "position": 2574, "ensor": 2575, "ground": 2576, "Task": 2577, "Writer": 2578, "cul": 2579, "Body": 2580, "Link": 2581, "card": 2582, "ĠK": 2583, "Ġmay": 2584, "erge": 2585, "False": 2586, "Ġdest": 2587, "ĠCh": 2588, "ification": 2589, "sn": 2590, "Ġcolumn": 2591, "Callback": 2592, "Ġdev": 2593, "Module": 2594, "Ġbit": 2595, "Auth": 2596, "OF": 2597, "px": 2598, "Mod": 2599, "ipp": 2600, "Byte": 2601, "delete": 2602, "Ġroot": 2603, "CI": 2604, "sert": 2605, "ng": 2606, "document": 2607, "Ġexp": 2608, "ffect": 2609, "si": 2610, "Process": 2611, "window": 2612, "Ġload": 2613, "double": 2614, "Async": 2615, "Ġquery": 2616, "ATA": 2617, "Ġ],": 2618, "td": 2619, "cd": 2620, "Ġok": 2621, "Ġbefore": 2622, "values": 2623, "Ġcor": 2624, "ices": 2625, "ession": 2626, "save": 2627, "ared": 2628, "Provider": 2629, ";\\": 2630, "angle": 2631, "Helper": 2632, "Net": 2633, "off": 2634, "Ġaddress": 2635, "inary": 2636, "Ġem": 2637, "Expression": 2638, "gress": 2639, "Ġsign": 2640, "Ġsame": 2641, "Container": 2642, "'.": 2643, "ĠY": 2644, "Parent": 2645, "Ġdocument": 2646, "MI": 2647, "yy": 2648, "Ġlabel": 2649, "annot": 2650, "search": 2651, "Access": 2652, "vide": 2653, "ĠException": 2654, "Ġheader": 2655, "DO": 2656, "Ġaction": 2657, "ency": 2658, "Ġarguments": 2659, "comment": 2660, "Comp": 2661, "pop": 2662, "ixel": 2663, "WR": 2664, "ĠArray": 2665, "Ġfunc": 2666, "SA": 2667, "23": 2668, "ym": 2669, "Ġempty": 2670, "Names": 2671, "\"],": 2672, "ottom": 2673, "dddddddddddddddddddddddddddddddddddddddddddddddddddddddddddddddd": 2674, "any": 2675, "udio": 2676, "mutex": 2677, "Ġop": 2678, "ogle": 2679, "Ġmo": 2680, "Ġover": 2681, "mission": 2682, "Ġmod": 2683, "cket": 2684, "Ġgo": 2685, "cor": 2686, "SSERT": 2687, "03": 2688, "Top": 2689, "Document": 2690, "begin": 2691, "Reader": 2692, "address": 2693, "Ġnp": 2694, "ACE": 2695, "sec": 2696, "ä¸": 2697, "></": 2698, "Errorf": 2699, "Ġserver": 2700, "(\"%": 2701, "build": 2702, "Parameter": 2703, "olve": 2704, "spin": 2705, "other": 2706, "Ġproperty": 2707, "acter": 2708, "dst": 2709, "'])": 2710, "Rect": 2711, "Ġhash": 2712, "Ġyou": 2713, "connect": 2714, "vious": 2715, "Ġfailed": 2716, "Ġopen": 2717, "ĠNew": 2718, "CS": 2719, "gram": 2720, "callback": 2721, "Print": 2722, "Flags": 2723, "ĉĉĉĉĉĉĉ": 2724, "OS": 2725, "Ġmore": 2726, "Record": 2727, "gn": 2728, "Ġav": 2729, "gener": 2730, "ALSE": 2731, "entifier": 2732, "org": 2733, "Ġwidth": 2734, "\".": 2735, "ctrl": 2736, "Ġ9": 2737, "used": 2738, "(/": 2739, "lip": 2740, "plate": 2741, "mote": 2742, "uc": 2743, "Ġwindow": 2744, "27": 2745, "Ġappend": 2746, "okup": 2747, "unter": 2748, "scope": 2749, "ULT": 2750, "ev": 2751, "FD": 2752, "irection": 2753, "CB": 2754, "PT": 2755, "Open": 2756, "KEY": 2757, "Web": 2758, "ces": 2759, "Ġ**": 2760, "GL": 2761, "Unit": 2762, "Ġposition": 2763, ">>": 2764, "Tool": 2765, "button": 2766, "Store": 2767, "nil": 2768, "aster": 2769, "domain": 2770, "Ġfmt": 2771, "08": 2772, "script": 2773, "FS": 2774, "Ġ'/": 2775, "VM": 2776, "Decl": 2777, "ctl": 2778, "rate": 2779, "Local": 2780, "Ġcolor": 2781, "Ġreq": 2782, "Operation": 2783, "Kind": 2784, ")]": 2785, "headers": 2786, "while": 2787, "Ġ\"\"": 2788, "Connection": 2789, "Sign": 2790, "Parse": 2791, "ĠEn": 2792, "dition": 2793, "Host": 2794, "toString": 2795, "Argument": 2796, "Ġparams": 2797, "Ġiter": 2798, "oo": 2799, "Iter": 2800, "Ġpl": 2801, "Ġ})": 2802, "Ġtemp": 2803, "each": 2804, "ails": 2805, "pb": 2806, "Ġinst": 2807, "Exp": 2808, "sw": 2809, "mi": 2810, "ĠError": 2811, "asic": 2812, "Ġcopy": 2813, "keys": 2814, "If": 2815, "sys": 2816, "ular": 2817, "Debug": 2818, "rule": 2819, "stack": 2820, "Ġdelete": 2821, "66": 2822, "range": 2823, "tab": 2824, "Stack": 2825, "Float": 2826, "property": 2827, "etch": 2828, "chip": 2829, "ĉĉĊ": 2830, "imum": 2831, "isset": 2832, "wn": 2833, "roy": 2834, "AY": 2835, "QL": 2836, "Ġ'\\": 2837, "cap": 2838, "uster": 2839, "straint": 2840, "ĠHT": 2841, "ries": 2842, "Delete": 2843, "Copy": 2844, "cmp": 2845, "Configuration": 2846, "las": 2847, "ĠValue": 2848, "ĠReg": 2849, "Ġ--": 2850, "css": 2851, "service": 2852, "Returns": 2853, "ivity": 2854, "auto": 2855, "Ġauto": 2856, "df": 2857, "sl": 2858, "Ġview": 2859, "control": 2860, "access": 2861, "Ġreturned": 2862, "AS": 2863, "ba": 2864, "ization": 2865, "Ġfilter": 2866, "ĉĠ": 2867, "uple": 2868, "xff": 2869, "iag": 2870, "Has": 2871, "ssoc": 2872, "wise": 2873, "Tree": 2874, "reset": 2875, "ern": 2876, "]))": 2877, "ĠOn": 2878, "Ġ...": 2879, "Sup": 2880, "SB": 2881, "Ġregister": 2882, "Utils": 2883, "CO": 2884, "NULL": 2885, "exception": 2886, "ward": 2887, "'):": 2888, "29": 2889, ")?": 2890, "ĠTR": 2891, "full": 2892, "Ġcache": 2893, "ln": 2894, "Ġthan": 2895, "Lock": 2896, "items": 2897, "uri": 2898, "Ð°": 2899, "parser": 2900, "05": 2901, "task": 2902, "Thread": 2903, "Ġsend": 2904, "Ġlink": 2905, "andard": 2906, "ĠDE": 2907, "PAR": 2908, "insert": 2909, "Ġcontain": 2910, "Session": 2911, "Ġparameter": 2912, "continue": 2913, "cr": 2914, "Ġqu": 2915, "Ġalready": 2916, "Ġ~": 2917, "tml": 2918, "Ġ.=": 2919, "imes": 2920, ".\\": 2921, "Ġver": 2922, "orld": 2923, "88": 2924, "cho": 2925, "should": 2926, "AND": 2927, "prefix": 2928, "'));": 2929, "Ġallow": 2930, "Reference": 2931, "ane": 2932, "ONE": 2933, "Ġopt": 2934, "]+": 2935, "ten": 2936, "achine": 2937, "esh": 2938, "handler": 2939, "pri": 2940, "ĠĠĠĠĠĠĠĠĊ": 2941, "pol": 2942, "Ġservice": 2943, "sing": 2944, "Ġhere": 2945, "Constant": 2946, "Ġwant": 2947, "Ġvariable": 2948, "----------------------------------------------------------------": 2949, ")));": 2950, "very": 2951, "ancel": 2952, "Ġcalled": 2953, "Last": 2954, "rad": 2955, "adapter": 2956, "pk": 2957, "tt": 2958, "ux": 2959, "LOCK": 2960, "web": 2961, ">();": 2962, "ignore": 2963, "Register": 2964, "vis": 2965, "Ġfiles": 2966, "Ġimp": 2967, "drop": 2968, "ORD": 2969, "conf": 2970, "conn": 2971, "Ġwhere": 2972, ")}": 2973, "Work": 2974, "ĠSe": 2975, "fmt": 2976, "DEBUG": 2977, "mac": 2978, "gl": 2979, "pha": 2980, "ORM": 2981, "Ġsuccess": 2982, "Ġcre": 2983, "Timeout": 2984, "READ": 2985, "aded": 2986, "ulti": 2987, "rivate": 2988, "Ġelements": 2989, "ĠĠĠĠĠĠĠĠĠĠĠĠĠĠĠĠĠĠĠĠĠĠĠĠĠĠĠĠĠĠĠĠĠĠĠ": 2990, "Ġorder": 2991, "icon": 2992, "fp": 2993, "Ðµ": 2994, "fl": 2995, "known": 2996, "stamp": 2997, "ĠTrue": 2998, "change": 2999, "bits": 3000, "lower": 3001, "Mock": 3002, "Left": 3003, "This": 3004, "Ġglobal": 3005, "Ġ100": 3006, "Ġinterface": 3007, "Ġcmd": 3008, "thing": 3009, "fc": 3010, "files": 3011, "ãģ": 3012, "global": 3013, "200": 3014, "ITE": 3015, "ToString": 3016, "Func": 3017, "can": 3018, "less": 3019, "IR": 3020, "Changed": 3021, "Ġbeen": 3022, "Ġ\",": 3023, "'];": 3024, "Ġctx": 3025, "clk": 3026, "inish": 3027, "ĠIs": 3028, "ĠSyscall": 3029, "sz": 3030, "Msg": 3031, "Properties": 3032, "Ġremove": 3033, "Cal": 3034, "INE": 3035, "Que": 3036, "ats": 3037, "ique": 3038, "ination": 3039, "Ġexist": 3040, ".\",": 3041, "inding": 3042, "Ġ32": 3043, "iron": 3044, "ĠBu": 3045, "ĉĉĠĠĠ": 3046, "anch": 3047, "LAG": 3048, "Comple": 3049, "Ġparameters": 3050, "Ġcomple": 3051, "Ġinstanceof": 3052, "../": 3053, "Ġtypeof": 3054, "rapper": 3055, "Port": 3056, "Template": 3057, "hdr": 3058, "Det": 3059, "Enabled": 3060, "Items": 3061, "Order": 3062, "Send": 3063, "ĠMath": 3064, "ACK": 3065, "XT": 3066, "cpy": 3067, "abs": 3068, "ynam": 3069, "chr": 3070, "Ġ),": 3071, "LOG": 3072, "cfg": 3073, "ictionary": 3074, "tree": 3075, "Ġhost": 3076, "Bit": 3077, "ĠSer": 3078, "day": 3079, "Cl": 3080, "Ġ/**": 3081, "Ġheight": 3082, "bus": 3083, "@@@": 3084, "Ġraise": 3085, "hether": 3086, "now": 3087, ".'": 3088, "display": 3089, "Ġstore": 3090, "enc": 3091, "ĠDate": 3092, "Mon": 3093, "ram": 3094, "Ġio": 3095, "]]": 3096, "Ġdon": 3097, "=%": 3098, "CTION": 3099, "regs": 3100, "final": 3101, "proto": 3102, "bers": 3103, "Widget": 3104, "Ġ>>>": 3105, "ollow": 3106, "Root": 3107, "Close": 3108, "af": 3109, "FR": 3110, "(\".": 3111, "shape": 3112, "ware": 3113, "Ġ('": 3114, "vc": 3115, "ias": 3116, "essages": 3117, "interface": 3118, "ipe": 3119, "Ġexpect": 3120, "Change": 3121, "Ġph": 3122, "35": 3123, "Ġ{\\": 3124, "container": 3125, "anges": 3126, "Ġ-=": 3127, "board": 3128, "Inst": 3129, "member": 3130, "Ph": 3131, "tax": 3132, "pm": 3133, "Ġrc": 3134, "ĠTo": 3135, "ĠData": 3136, "36": 3137, "cent": 3138, "Ġdone": 3139, "DATA": 3140, "okie": 3141, "total": 3142, "vector": 3143, "Ġlevel": 3144, "Ġhandler": 3145, "ene": 3146, "span": 3147, "EL": 3148, "Ġform": 3149, "eric": 3150, "Ġ\"/": 3151, "Parameters": 3152, "WN": 3153, "Ġright": 3154, "FP": 3155, "stop": 3156, "Ġsession": 3157, "ds": 3158, "cat": 3159, "Ġnow": 3160, "ĠCol": 3161, "settings": 3162, "Ġreference": 3163, "thread": 3164, "Select": 3165, "Ġaddr": 3166, "side": 3167, "={": 3168, "MASK": 3169, "imal": 3170, "olume": 3171, "FAULT": 3172, "Windows": 3173, "lash": 3174, "OST": 3175, "MODE": 3176, "Ġcustom": 3177, "Sk": 3178, "GB": 3179, "SR": 3180, "lap": 3181, "idden": 3182, "heet": 3183, "Ġleft": 3184, "Ġmain": 3185, "Ġ$.": 3186, "rq": 3187, "signature": 3188, "Description": 3189, "KER": 3190, "+\"": 3191, "Ġjson": 3192, "First": 3193, "Ġtop": 3194, "Ġrel": 3195, "CF": 3196, "enable": 3197, "Ġpass": 3198, "ĠSh": 3199, "rm": 3200, "Ġtask": 3201, "26": 3202, "Ġsecond": 3203, "Down": 3204, "Remove": 3205, "Ġparser": 3206, "lean": 3207, "ART": 3208, "stats": 3209, "PP": 3210, "Ġcls": 3211, "Http": 3212, "chan": 3213, "iler": 3214, "Integer": 3215, "Fe": 3216, "pdev": 3217, "alk": 3218, "erru": 3219, "cel": 3220, "Ġstyle": 3221, "rie": 3222, "latform": 3223, "izer": 3224, "Ġchannel": 3225, "NS": 3226, "flag": 3227, "Ġconnection": 3228, "ĠFor": 3229, "curity": 3230, "ented": 3231, "Ġits": 3232, "Ġ{@": 3233, "OUT": 3234, "Ind": 3235, "imation": 3236, "OC": 3237, "Bar": 3238, "click": 3239, "limit": 3240, "lish": 3241, "31": 3242, "amples": 3243, "===": 3244, "ALL": 3245, "77": 3246, "Ġdate": 3247, "IE": 3248, "ian": 3249, "tool": 3250, "Append": 3251, "np": 3252, "timeout": 3253, "Expr": 3254, "rec": 3255, "ighlight": 3256, "CESS": 3257, "phy": 3258, "Ġent": 3259, "Ġjust": 3260, "font": 3261, "INFO": 3262, "lta": 3263, "rep": 3264, "alar": 3265, "encode": 3266, "Channel": 3267, "cause": 3268, "Ġ\"\",": 3269, "Ġsp": 3270, "verse": 3271, "ĠassertEquals": 3272, "FILE": 3273, "ODO": 3274, "imension": 3275, "Ġoperation": 3276, "TEST": 3277, "}\\": 3278, "Ġrecord": 3279, "edia": 3280, "prev": 3281, "Descriptor": 3282, "SD": 3283, "Operand": 3284, "man": 3285, "Ġresults": 3286, "Search": 3287, "lasses": 3288, "soft": 3289, "']);": 3290, "ribe": 3291, "igin": 3292, "(-": 3293, "Ġ12": 3294, "Ġlib": 3295, "ived": 3296, "<<": 3297, "EINVAL": 3298, "Ġexception": 3299, "Ġbuild": 3300, "Ġpointer": 3301, "Ġdb": 3302, "gment": 3303, "ĠUp": 3304, "iterator": 3305, "inode": 3306, "peed": 3307, "iant": 3308, "Ġmask": 3309, "xis": 3310, "exists": 3311, "step": 3312, "pool": 3313, "voke": 3314, "API": 3315, "RT": 3316, "Ġfe": 3317, "TER": 3318, "scroll": 3319, "stract": 3320, "Ð¾": 3321, "Custom": 3322, "Ġenv": 3323, "internal": 3324, "Ġstack": 3325, "rv": 3326, "ority": 3327, "AreEqual": 3328, "']['": 3329, "throw": 3330, "Del": 3331, "89": 3332, "done": 3333, "21": 3334, "ĠLog": 3335, "semb": 3336, "ssoci": 3337, "Ġmemory": 3338, "ĠĠĠĠĠĠĠĠĠĠĠĠĠĠĠĠĠĠĠĠĠ": 3339, "make": 3340, "ynamic": 3341, "vb": 3342, "=>": 3343, "ĠAn": 3344, "Addr": 3345, "URE": 3346, "icro": 3347, "Ġsome": 3348, "Rules": 3349, "menu": 3350, "rowser": 3351, "########": 3352, "=\\\"": 3353, "vers": 3354, "ĠRE": 3355, "ernel": 3356, "Controller": 3357, "layout": 3358, "aaaa": 3359, "ggle": 3360, "custom": 3361, "icle": 3362, "Ġimport": 3363, "meta": 3364, "Ġinformation": 3365, "FLAG": 3366, "exec": 3367, "Extension": 3368, "Ġdst": 3369, "variable": 3370, "CD": 3371, "Font": 3372, "ultiple": 3373, "\"},{": 3374, "================================": 3375, "unds": 3376, "43": 3377, "ĠFalse": 3378, "types": 3379, "rer": 3380, "sql": 3381, "crypt": 3382, "AX": 3383, "fail": 3384, "Tab": 3385, "Wh": 3386, "ring": 3387, "Ġunsafe": 3388, "Ġ(_": 3389, "istance": 3390, "dict": 3391, "throws": 3392, "JSON": 3393, "fields": 3394, "ĉĉĉĉĉĉĉĉ": 3395, "anel": 3396, "seq": 3397, "ily": 3398, "Variable": 3399, "rough": 3400, "PAT": 3401, "Ġag": 3402, "Ġpo": 3403, "record": 3404, "exit": 3405, "etry": 3406, "apply": 3407, "Active": 3408, "Ġren": 3409, "Attributes": 3410, "ialized": 3411, "ĠIO": 3412, "Ġoff": 3413, "inst": 3414, "Space": 3415, "ential": 3416, "expect": 3417, "dec": 3418, "rb": 3419, "GR": 3420, "Ġ'%": 3421, "Fatal": 3422, "Find": 3423, "Ġundefined": 3424, "ĠĠĊ": 3425, "Ġargument": 3426, "arn": 3427, "ways": 3428, "Directory": 3429, "usb": 3430, "escape": 3431, "FE": 3432, "Ġfilename": 3433, "ek": 3434, "Can": 3435, "sort": 3436, "TIME": 3437, "assed": 3438, "ispatch": 3439, "Ġstrings": 3440, "/>": 3441, "Ġqueue": 3442, "lable": 3443, "Ġbody": 3444, "Ġ/>": 3445, "ĠByte": 3446, "short": 3447, "sizeof": 3448, "Ġbecause": 3449, "hs": 3450, "ached": 3451, "section": 3452, "shift": 3453, "ws": 3454, "Ġsys": 3455, "Ġdirectory": 3456, "prec": 3457, "Ġsearch": 3458, "equals": 3459, "Prefix": 3460, "Mask": 3461, "du": 3462, "zero": 3463, "testing": 3464, "Queue": 3465, "region": 3466, "39": 3467, "Sp": 3468, "PRE": 3469, "Ġ$(": 3470, ".\");": 3471, "76": 3472, "Ġalloc": 3473, "Ġdefined": 3474, "LEN": 3475, "ĠIt": 3476, "trigger": 3477, "Ġ'<": 3478, "ging": 3479, "Use": 3480, "Parser": 3481, "NOT": 3482, "Ġ\\\"": 3483, "Ġthread": 3484, "Convert": 3485, "emit": 3486, "amed": 3487, "prop": 3488, "dm": 3489, "undle": 3490, "tl": 3491, "ĠFALSE": 3492, "Impl": 3493, "Ġli": 3494, "ASSERT": 3495, "Ġ[];": 3496, "Ġ20": 3497, "ors": 3498, "ublish": 3499, "PH": 3500, "Ġsingle": 3501, "enum": 3502, "Ġlet": 3503, "Definition": 3504, "Ġlock": 3505, "points": 3506, "Click": 3507, ".\"": 3508, "0000000000000000000000000000000000000000000000000000000000000000": 3509, "scale": 3510, "Ġnullptr": 3511, "ason": 3512, "``": 3513, "bc": 3514, "medi": 3515, "valu": 3516, "lines": 3517, "posit": 3518, "Ġev": 3519, ")\\": 3520, "ĠAR": 3521, ".*": 3522, "Ġmy": 3523, "Ġdoc": 3524, "Ġrece": 3525, "Ġattr": 3526, "ifdef": 3527, "256": 3528, "Pr": 3529, "names": 3530, "ironment": 3531, "gp": 3532, "One": 3533, "Ġauth": 3534, "Over": 3535, "Ġpost": 3536, "STATUS": 3537, "SO": 3538, "Comment": 3539, "Ġexec": 3540, "Fields": 3541, "Display": 3542, "marshal": 3543, "Keys": 3544, "Ġ&=": 3545, "iod": 3546, "ATION": 3547, "inher": 3548, "ĠĠĠĠĠĠĠĠĠĠĠĠĠĠĠĠĠĠĠĠ": 3549, "Right": 3550, "ids": 3551, "Ġexcept": 3552, "Ġword": 3553, "Doc": 3554, "Ġspace": 3555, "anguage": 3556, "define": 3557, "AGE": 3558, "Ġerrors": 3559, "()));": 3560, "Ġregex": 3561, "erm": 3562, "MT": 3563, "Ġwhether": 3564, "ween": 3565, "Ġinvalid": 3566, "Ð¸": 3567, "54": 3568, "FIG": 3569, "rary": 3570, "Ġca": 3571, "img": 3572, "Project": 3573, "ĠRead": 3574, "Ð½": 3575, "gen": 3576, ":[": 3577, "Mark": 3578, "Non": 3579, "description": 3580, "Symbol": 3581, "Ġdir": 3582, "PL": 3583, "Ġchange": 3584, "ĠPHP": 3585, "trace": 3586, "PU": 3587, "term": 3588, "IM": 3589, "project": 3590, "Global": 3591, "connection": 3592, "Ty": 3593, "07": 3594, "ĠArg": 3595, "ĠInt": 3596, "oin": 3597, "OB": 3598, "Ġrepresent": 3599, "NT": 3600, "ĠDo": 3601, "59": 3602, "Ġprefix": 3603, "Ġflag": 3604, "ĠEX": 3605, "Ġ''": 3606, "GU": 3607, "Ġap": 3608, "tc": 3609, "Metadata": 3610, "Ġtypes": 3611, "romise": 3612, "Show": 3613, "parator": 3614, "Cell": 3615, "sync": 3616, "(\\": 3617, "timer": 3618, "ĠPar": 3619, "ï¼": 3620, "{\"": 3621, "Ġscope": 3622, "Ġ'';": 3623, "Failed": 3624, "Ġelif": 3625, "Json": 3626, "802": 3627, "Ġfact": 3628, "arguments": 3629, "FC": 3630, "aml": 3631, "ending": 3632, "Rel": 3633, "clo": 3634, "38": 3635, "Ġtemplate": 3636, "Ġtx": 3637, "lim": 3638, "('.": 3639, "extend": 3640, "Xml": 3641, "ÑĤ": 3642, "fr": 3643, "Ġaccess": 3644, "ered": 3645, "ĠAl": 3646, "Ġtwo": 3647, "gb": 3648, "Long": 3649, "Storage": 3650, "Ġfollow": 3651, "printk": 3652, "()))": 3653, "ĠCont": 3654, "Title": 3655, "ĠGL": 3656, "wd": 3657, "just": 3658, "44": 3659, "XG": 3660, "Ġvis": 3661, "Ġfull": 3662, "Icon": 3663, "([]": 3664, "Ġsnd": 3665, "include": 3666, "Scope": 3667, "fb": 3668, "Ġstrict": 3669, "Full": 3670, "\"}": 3671, "Ġawait": 3672, "amb": 3673, "hd": 3674, "Schema": 3675, "pv": 3676, "onent": 3677, "EXT": 3678, "Matrix": 3679, "IB": 3680, "SER": 3681, "Su": 3682, "Ġ##": 3683, "Graph": 3684, "Enumer": 3685, "rs": 3686, "atures": 3687, "Attr": 3688, "pci": 3689, "]*": 3690, "IH": 3691, "BQ": 3692, "Ġcontainer": 3693, "Uri": 3694, "urface": 3695, "_.": 3696, "Dest": 3697, "Ġ'.": 3698, "Core": 3699, "cnt": 3700, "Only": 3701, "component": 3702, "]->": 3703, "Ġtotal": 3704, "SL": 3705, "128": 3706, "slice": 3707, "leep": 3708, "etric": 3709, "Region": 3710, "::$": 3711, "VT": 3712, "Ġmark": 3713, "ings": 3714, "Internal": 3715, "Build": 3716, "BIT": 3717, "\":\"": 3718, "Transform": 3719, "Ġtitle": 3720, "Dialog": 3721, "Policy": 3722, "ead": 3723, "eek": 3724, "ĠName": 3725, "Render": 3726, "ibility": 3727, "DS": 3728, "opts": 3729, "Ġll": 3730, "Ġoriginal": 3731, "Post": 3732, "&&(": 3733, "arshall": 3734, "pay": 3735, "wp": 3736, "utf": 3737, "37": 3738, "Struct": 3739, "Short": 3740, "ideo": 3741, "gt": 3742, "ely": 3743, "Ġgot": 3744, "dp": 3745, "Exec": 3746, ")/": 3747, "buff": 3748, "ended": 3749, "Memory": 3750, "qui": 3751, "çļ": 3752, "Clo": 3753, "exports": 3754, "errupt": 3755, "network": 3756, "Ġ$_": 3757, "invalid": 3758, "åı": 3759, "Texture": 3760, "Engine": 3761, "yntax": 3762, "boolean": 3763, "Auto": 3764, "Files": 3765, "çļĦ": 3766, "cip": 3767, "olver": 3768, "Ġpr": 3769, "olution": 3770, "ĠTODO": 3771, "Math": 3772, "Ġcontrol": 3773, "Pool": 3774, "istry": 3775, "Scale": 3776, "Ġavailable": 3777, "driver": 3778, "....": 3779, "Ġactual": 3780, "CHECK": 3781, "Ġkeys": 3782, "ĠLo": 3783, "ĠST": 3784, "dated": 3785, "getName": 3786, "Ġbet": 3787, "era": 3788, "Cre": 3789, "Ġoc": 3790, "ced": 3791, "(\"\\": 3792, "ĠApp": 3793, "ĠInit": 3794, "Ġopts": 3795, "Ġwait": 3796, "wner": 3797, "ĠJSON": 3798, "Env": 3799, "Ġrequired": 3800, "Ġfields": 3801, "48": 3802, "tep": 3803, "entic": 3804, "Us": 3805, "ĠUpdate": 3806, "Db": 3807, "tip": 3808, "Ġinteger": 3809, "ippet": 3810, "('/": 3811, "GV": 3812, "ĠWrite": 3813, "Bl": 3814, "ICE": 3815, "allow": 3816, "!=": 3817, "Meta": 3818, "normal": 3819, "Flag": 3820, "ializer": 3821, "INIT": 3822, "Socket": 3823, "Fail": 3824, "chedule": 3825, "az": 3826, "language": 3827, "ilters": 3828, "Ġreflect": 3829, "ĠAPI": 3830, "Ġitems": 3831, "ense": 3832, "Ġdisplay": 3833, "FORM": 3834, ":%": 3835, "Player": 3836, "Ġdebug": 3837, "Selected": 3838, "arr": 3839, "ful": 3840, "dom": 3841, "Ġpacket": 3842, "sets": 3843, ">\\": 3844, "havi": 3845, "Ġcomponent": 3846, "-----": 3847, "release": 3848, "Ġbits": 3849, "STATE": 3850, "Ġloop": 3851, "Iterator": 3852, "imary": 3853, "Ġ[\"": 3854, "Ġ^": 3855, "Ġthem": 3856, "SION": 3857, "mall": 3858, "Account": 3859, "pipe": 3860, "Ġnames": 3861, "ged": 3862, "Ġsum": 3863, "Rep": 3864, "ZX": 3865, "////////////////////////////////": 3866, "istory": 3867, "argin": 3868, "only": 3869, "CODE": 3870, "di": 3871, "once": 3872, "Second": 3873, "defer": 3874, "Ġfree": 3875, "ĠTRUE": 3876, "Ġrule": 3877, "MO": 3878, "ius": 3879, "1000": 3880, "We": 3881, "keyword": 3882, "Ġalso": 3883, "pository": 3884, "imp": 3885, "Ġsettings": 3886, "Headers": 3887, "icode": 3888, "Nd": 3889, "OFF": 3890, "render": 3891, "Ġconvert": 3892, "Rece": 3893, "Ġpassed": 3894, "pid": 3895, "DEV": 3896, "uffix": 3897, "itional": 3898, "Src": 3899, "fix": 3900, "Ġprevious": 3901, "wr": 3902, "fx": 3903, "amily": 3904, "Ġtree": 3905, "Trace": 3906, "Ġproto": 3907, "Ġnormal": 3908, "------": 3909, "`,": 3910, "Ġcpu": 3911, "Buf": 3912, "Forms": 3913, "ORY": 3914, "Drawing": 3915, "ĠEvent": 3916, "TX": 3917, "vec": 3918, "ither": 3919, "ICAgICAg": 3920, "align": 3921, "Ġmon": 3922, "ÑĢ": 3923, "Ġshow": 3924, "draw": 3925, "hide": 3926, "mc": 3927, "lex": 3928, "Ġreset": 3929, "Ġclose": 3930, "vas": 3931, "ffff": 3932, "indexOf": 3933, "Ġ64": 3934, "Ġencode": 3935, "attributes": 3936, "argv": 3937, "Each": 3938, "RI": 3939, ")).": 3940, "lg": 3941, "ãĤ": 3942, "Ġsystem": 3943, "BE": 3944, "pass": 3945, "unit": 3946, "\"\"\"": 3947, "Application": 3948, "Ġcb": 3949, "FromString": 3950, "064": 3951, "decode": 3952, "iteral": 3953, ".__": 3954, "Ġtimeout": 3955, "Found": 3956, "ĠCHECK": 3957, "Ġzero": 3958, "Ġclear": 3959, "curs": 3960, "Dec": 3961, "DD": 3962, "WAR": 3963, "chunk": 3964, "Ġte": 3965, "PORT": 3966, "Nodes": 3967, "Ġidx": 3968, "EV": 3969, "Section": 3970, "xu": 3971, "Ne": 3972, "Ġcref": 3973, "Go": 3974, "']))": 3975, "lp": 3976, "Ġshift": 3977, "PER": 3978, "ĠVector": 3979, "ZW": 3980, "Grid": 3981, "\"+": 3982, "children": 3983, "Ġsure": 3984, "TEXT": 3985, "Ġsee": 3986, "amera": 3987, "USE": 3988, "Ġexpression": 3989, "Ġsupport": 3990, "]=": 3991, "licit": 3992, "xFF": 3993, "fill": 3994, "constant": 3995, "Domain": 3996, "sv": 3997, "chron": 3998, "border": 3999, "Ġam": 4000, "drv": 4001, "operator": 4002, "loy": 4003, "Ġdif": 4004, "()).": 4005, "OG": 4006, "Ġ\"-": 4007, "pattern": 4008, "Transaction": 4009, "where": 4010, "Ġdown": 4011, "bn": 4012, "}.": 4013, "atom": 4014, "RoleSize": 4015, "socket": 4016, "packet": 4017, "hi": 4018, "Ġour": 4019, "Ġenum": 4020, "ragment": 4021, "Packet": 4022, "win": 4023, "WORD": 4024, "åĪ": 4025, "irm": 4026, "ling": 4027, "Ġ'',": 4028, "ayload": 4029, "ĠĠĠĠĠĠĠĠĠĠĠĠĠĠĠĠĠĠĠĠĠĠĠĠĠĠĠĠĠĠĠĠĠĠĠĠĠĠĠ": 4030, "Elements": 4031, "42": 4032, "PS": 4033, "Ġshort": 4034, "pg": 4035, "HER": 4036, "gor": 4037, "ĠNo": 4038, "Member": 4039, "Idx": 4040, "Ġheaders": 4041, "SUC": 4042, "Editor": 4043, "Av": 4044, "Ġconfiguration": 4045, "www": 4046, "Ġ\"#": 4047, "Track": 4048, "Ġvirtual": 4049, "Ġdec": 4050, "ĠTask": 4051, "acy": 4052, "XML": 4053, "Ret": 4054, "ĠNot": 4055, "LS": 4056, "]['": 4057, "Contains": 4058, "NUM": 4059, "Single": 4060, "Ġinclude": 4061, "Edit": 4062, "way": 4063, "Uint": 4064, "Ġfn": 4065, "disable": 4066, "Ġbl": 4067, "dbg": 4068, "undefined": 4069, "URI": 4070, "utes": 4071, "Ġignore": 4072, "lain": 4073, "WE": 4074, "setup": 4075, "Ġtf": 4076, "Ġ\"<": 4077, "ĠĠĠĠĠĠĠĠĠĠĠĠĠĠĠĠĠĠĠĠĠĠ": 4078, "Ġ\".": 4079, "tail": 4080, "ãĥ": 4081, "vided": 4082, "support": 4083, "ped": 4084, "Selector": 4085, "thon": 4086, "ssible": 4087, "getValue": 4088, "ĠTime": 4089, "LINE": 4090, "Ġstep": 4091, "shot": 4092, "ions": 4093, "dt": 4094, "Lower": 4095, "Ġobjects": 4096, "plugin": 4097, "Ġsince": 4098, "Ġ',": 4099, "Ġoptional": 4100, "ited": 4101, "Panel": 4102, "dat": 4103, "proxy": 4104, "derer": 4105, "96": 4106, "ĠCON": 4107, "Ġ(!$": 4108, "dw": 4109, "ordin": 4110, "pair": 4111, "moved": 4112, "`.": 4113, "foreach": 4114, "EQ": 4115, "UD": 4116, "VALUE": 4117, "dc": 4118, "nr": 4119, "gra": 4120, "Ġskip": 4121, "(__": 4122, "UL": 4123, "PUT": 4124, "example": 4125, "Ġreplace": 4126, "Network": 4127, "cell": 4128, "Vo": 4129, "oly": 4130, "Ġconsole": 4131, "culate": 4132, "Ġsuper": 4133, "resp": 4134, "QT": 4135, "gorith": 4136, "75": 4137, "ertific": 4138, "80211": 4139, "ired": 4140, "Require": 4141, "ĠSee": 4142, "Bits": 4143, "Ġvector": 4144, "MC": 4145, "__,": 4146, "BY": 4147, "ĉĉĉĊ": 4148, "HTTP": 4149, "Ġthey": 4150, "product": 4151, "Ġdoesn": 4152, "ories": 4153, "Ġequal": 4154, "ferent": 4155, "NdEx": 4156, "random": 4157, "à¸": 4158, "ims": 4159, "ii": 4160, "arge": 4161, "Prop": 4162, ":'": 4163, "Ġ'\"": 4164, "tf": 4165, "REQ": 4166, "dddddddddddddddddddddddddddddddddddddddddddddddddddddddddddddddddddddddddddddddddddddddddddddddddddddddddddddddddddddddddddddddd": 4167, "ĠSD": 4168, "Mapping": 4169, ")*": 4170, "Stop": 4171, "MB": 4172, "aved": 4173, "Ge": 4174, "issing": 4175, "alt": 4176, "Ġshape": 4177, "apture": 4178, "Ġotherwise": 4179, "admin": 4180, "Lib": 4181, "olute": 4182, "Ġdirect": 4183, "ĉĉĉĠĠĠ": 4184, "NC": 4185, "slot": 4186, "txt": 4187, ")\",": 4188, "DC": 4189, "llation": 4190, ")[": 4191, "https": 4192, "ialization": 4193, "cx": 4194, "Selection": 4195, "ĠOP": 4196, "Ġimplement": 4197, "ested": 4198, "Ġencoding": 4199, "edit": 4200, "ĠNote": 4201, "redential": 4202, "plat": 4203, "Ġcontains": 4204, "sample": 4205, "Namespace": 4206, "Ġund": 4207, "scan": 4208, "Layer": 4209, "OPT": 4210, "Ġaut": 4211, "keep": 4212, "inner": 4213, "destroy": 4214, "PECT": 4215, "ĠPy": 4216, "Ġcreated": 4217, "ĠĠĠĠĠĠĠĠĠĠĠĠĠĠĠĠĠĠĠĠĠĠĠĠ": 4218, "Events": 4219, "Ġ'-": 4220, "ĠURL": 4221, "Api": 4222, "Raw": 4223, "Ġ[],": 4224, "ynchron": 4225, "ĠĠĠĠĠĠĠĠĠĠĠĠĊ": 4226, "Ab": 4227, "reference": 4228, "legate": 4229, "Plugin": 4230, "Ġ{};": 4231, "ECT": 4232, "HTML": 4233, "Ġsave": 4234, "Ġdomain": 4235, "bed": 4236, "ĠĠĠĠĠĠĠĠĠĠĠĠĠĠĠĠĠĠĠĠĠĠĠĠĠ": 4237, "NotNull": 4238, "WRITE": 4239, "neg": 4240, "Ġcharacter": 4241, "pped": 4242, "Ins": 4243, "Ġstop": 4244, "merge": 4245, "Ġconnect": 4246, "Profile": 4247, "ips": 4248, "email": 4249, "bottom": 4250, "Ġbeing": 4251, "201": 4252, "CTRL": 4253, "ressed": 4254, "{@": 4255, "month": 4256, "book": 4257, "ĠBO": 4258, "Boolean": 4259, "execute": 4260, "46": 4261, "BL": 4262, "cheme": 4263, "Ġgl": 4264, "utable": 4265, "AtA": 4266, "ability": 4267, "toggle": 4268, "nb": 4269, "password": 4270, "Job": 4271, "sig": 4272, "selected": 4273, "Any": 4274, "Ġcontaining": 4275, "Category": 4276, "Simple": 4277, "Ġexit": 4278, "system": 4279, "jQuery": 4280, "real": 4281, "since": 4282, "Ġscript": 4283, "success": 4284, "mouse": 4285, "namespace": 4286, "Ġadded": 4287, "mock": 4288, "CM": 4289, "Ġ15": 4290, "cn": 4291, "FT": 4292, "legal": 4293, "contains": 4294, "ancellation": 4295, "bin": 4296, "vision": 4297, "proc": 4298, "Ġlines": 4299, "II": 4300, "97": 4301, "Results": 4302, "Ġraw": 4303, "bbbbbbbbbbbbbbbbbbbbbbbbbbbbbbbbbbbbbbbbbbbbbbbbbbbbbbbbbbbbbbbbbbbbbbbbbbbbbbbbbbbbbbbbbbbbbbbbbbbbbbbbbbbbbbbbbbbbbbbbbbbbbbbb": 4304, "eeded": 4305, "transform": 4306, "ambda": 4307, "import": 4308, "etime": 4309, "events": 4310, "adow": 4311, "Ġsupported": 4312, "ĠOut": 4313, "Ġactive": 4314, "Man": 4315, "Red": 4316, "DEFAULT": 4317, "Ġthrough": 4318, "sock": 4319, "Pair": 4320, "Ġ``": 4321, "graph": 4322, "GF": 4323, "DIR": 4324, "Ġproperties": 4325, "Ġ[[": 4326, "æľ": 4327, "Ġcannot": 4328, "LECT": 4329, "Move": 4330, "Ġdefine": 4331, "MENT": 4332, "sq": 4333, "NEL": 4334, "acters": 4335, "ĠSk": 4336, ":{": 4337, "CTL": 4338, "adding": 4339, "trl": 4340, "complete": 4341, "Ġrender": 4342, "SUCCESS": 4343, "constructor": 4344, "common": 4345, "Ġhelp": 4346, "application": 4347, "transition": 4348, "')->": 4349, "Save": 4350, "85": 4351, "Scroll": 4352, "POST": 4353, "Ġselect": 4354, "LED": 4355, "fin": 4356, "ade": 4357, "DIS": 4358, "Ġcollection": 4359, "Br": 4360, "45": 4361, "ĠUse": 4362, "${": 4363, "Double": 4364, "icrosoft": 4365, "afe": 4366, "after": 4367, "Should": 4368, "87": 4369, "crement": 4370, "ES": 4371, "Tx": 4372, "fw": 4373, "Binding": 4374, "Standard": 4375, "inherit": 4376, "ĠDefault": 4377, "results": 4378, "Align": 4379, "()),": 4380, "EC": 4381, "After": 4382, "ĠHTTP": 4383, "ĠKey": 4384, "Ġ();": 4385, "dered": 4386, "\"/>": 4387, "Ġagain": 4388, "zz": 4389, "47": 4390, "tm": 4391, "prom": 4392, "attach": 4393, "ITY": 4394, "Ġpattern": 4395, "Bool": 4396, "Ġcorrect": 4397, "dig": 4398, "clean": 4399, "ves": 4400, "Ġlike": 4401, "Ġattributes": 4402, "codec": 4403, "then": 4404, "Ġwithout": 4405, "ACT": 4406, "Shape": 4407, "Success": 4408, "'re": 4409, "batch": 4410, "mount": 4411, "PATH": 4412, "Ġchunk": 4413, "itive": 4414, "scription": 4415, "track": 4416, "Ġxml": 4417, "****************************************************************": 4418, "CMD": 4419, ",-": 4420, "That": 4421, "JS": 4422, "author": 4423, "ta": 4424, "MIN": 4425, "60": 4426, "parameters": 4427, "aj": 4428, "aterial": 4429, "ĠParam": 4430, "leted": 4431, "El": 4432, "Pri": 4433, "Ġsb": 4434, "Ġnodes": 4435, "cing": 4436, "etrics": 4437, "gorithm": 4438, "errors": 4439, "avig": 4440, "gnore": 4441, "Ġselector": 4442, "Import": 4443, "ĠĠĠĠĠĠĠĠĠĠĠĠĠĠĠĠĠĠĠĠĠĠĠĠĠĠĠĠĠ": 4444, "ADD": 4445, "Ġasync": 4446, "Ġsection": 4447, "Word": 4448, "Ġproject": 4449, "conv": 4450, "Depth": 4451, "hr": 4452, "ators": 4453, "pd": 4454, "Ġprovided": 4455, "[^": 4456, "ually": 4457, "delay": 4458, "Cap": 4459, "\\\":": 4460, "Clear": 4461, "Ġwriter": 4462, "Condition": 4463, "Ġexports": 4464, "Ġselected": 4465, "symbol": 4466, "MAP": 4467, "validate": 4468, "ĠText": 4469, "Ġbegin": 4470, "bose": 4471, "Ġrandom": 4472, "Ġscale": 4473, "reshold": 4474, "async": 4475, "INS": 4476, "loop": 4477, "RX": 4478, "zone": 4479, "Ġbr": 4480, "matches": 4481, "VERSION": 4482, "apshot": 4483, "Ġgoto": 4484, "Ġbutton": 4485, "ĠAt": 4486, "sr": 4487, "Ġinstead": 4488, "ĠCode": 4489, "YX": 4490, "lide": 4491, "Pers": 4492, "Ġip": 4493, "DateTime": 4494, "Wrapper": 4495, "Ġclean": 4496, "Ġsocket": 4497, "Ġentity": 4498, "enabled": 4499, "pret": 4500, "Insert": 4501, "acity": 4502, "rypt": 4503, "argument": 4504, "Ġbetween": 4505, "ĠQString": 4506, "before": 4507, "Cmd": 4508, "bp": 4509, "Database": 4510, "ĠTrans": 4511, "Ġsequence": 4512, "Ġalways": 4513, "addClass": 4514, "icate": 4515, "MSG": 4516, "DF": 4517, "sure": 4518, "Highlight": 4519, "Ġ1000": 4520, "ĠNode": 4521, "nodes": 4522, "Ġinternal": 4523, "IVE": 4524, "åĲ": 4525, "ulate": 4526, "ends": 4527, "cv": 4528, "ik": 4529, "AI": 4530, "Ġwrit": 4531, "(\"/": 4532, "pending": 4533, "Ġexists": 4534, "direct": 4535, "------------------------------------------------------------------------": 4536, "ploy": 4537, "Ġplatform": 4538, "ertificate": 4539, "schema": 4540, "Ids": 4541, "Free": 4542, "AV": 4543, "\"></": 4544, "Ġconf": 4545, "ĠIP": 4546, "screen": 4547, "Zero": 4548, "Encode": 4549, "Ġinsert": 4550, "Ġlocation": 4551, "IGN": 4552, "Unknown": 4553, "Des": 4554, "ĠConfig": 4555, "Expected": 4556, "}\",": 4557, "qp": 4558, "Ġ11": 4559, "respon": 4560, "area": 4561, "diff": 4562, "ĠÐ": 4563, "Constraint": 4564, "aW": 4565, "PtrFromString": 4566, "ĠExt": 4567, "reser": 4568, "FBQ": 4569, "Adapter": 4570, "depth": 4571, "lush": 4572, "kw": 4573, "extension": 4574, "fi": 4575, "Ġclo": 4576, "Ġ];": 4577, "{},": 4578, "Conf": 4579, "Sec": 4580, "Statement": 4581, "Same": 4582, "=(": 4583, "ĠĠĠĠĠĠĠĠĠĠĠĠĠĠĠĠĠĠĠĠĠĠĠĠĠĠ": 4584, "<?": 4585, "ĠUS": 4586, "FUN": 4587, "storage": 4588, "Ġnamespace": 4589, "Ġput": 4590, "google": 4591, "comm": 4592, "ges": 4593, "Ġextension": 4594, "ĠMap": 4595, "eer": 4596, "Ġfs": 4597, "Ġcould": 4598, "rac": 4599, "Vertex": 4600, "ĠWeb": 4601, "Marshal": 4602, "000000": 4603, "ĠArgument": 4604, "Ġlimit": 4605, "IV": 4606, "ross": 4607, "rd": 4608, "site": 4609, "found": 4610, "words": 4611, "Runtime": 4612, "bi": 4613, "Ġsymbol": 4614, "selector": 4615, "foc": 4616, "dump": 4617, "{})": 4618, "Ġresp": 4619, "Ġhref": 4620, "Pattern": 4621, "Ġbox": 4622, "WS": 4623, "actual": 4624, "Normal": 4625, "$/": 4626, "Protocol": 4627, "Main": 4628, "ĠFunction": 4629, "UTF": 4630, "FileName": 4631, "ĠBytePtrFromString": 4632, "Ġptr": 4633, "je": 4634, "widget": 4635, "Ġreader": 4636, "until": 4637, "âĢ": 4638, "Proxy": 4639, "RAY": 4640, "elem": 4641, "pad": 4642, "zip": 4643, "Ñģ": 4644, "ĠZend": 4645, "Ġ(!(": 4646, "My": 4647, "tv": 4648, "Ġdatabase": 4649, "background": 4650, "controller": 4651, "gid": 4652, "Begin": 4653, "Alloc": 4654, "Interval": 4655, "ĠGo": 4656, "ello": 4657, "Folder": 4658, "OMEM": 4659, "ives": 4660, "tered": 4661, "Span": 4662, "Game": 4663, "Visible": 4664, "Activity": 4665, "Ġgenerate": 4666, "expr": 4667, "MOD": 4668, "Strip": 4669, "Before": 4670, "--;": 4671, "andlers": 4672, "Timer": 4673, "assign": 4674, "verage": 4675, "ĠWh": 4676, "=[": 4677, "report": 4678, "rules": 4679, "Limit": 4680, "rtc": 4681, "rency": 4682, "Excel": 4683, "utils": 4684, "-\\": 4685, "Sync": 4686, "Ġ200": 4687, "skip": 4688, "Ġpy": 4689, "ummy": 4690, "stderr": 4691, "Product": 4692, "SW": 4693, "kfree": 4694, "Identifier": 4695, "lyph": 4696, "WARN": 4697, "irr": 4698, "Temp": 4699, "Ġalign": 4700, "Stat": 4701, "(%": 4702, "Total": 4703, "lu": 4704, "Fatalf": 4705, "Public": 4706, "Ġabout": 4707, "encoding": 4708, "sembly": 4709, "{{": 4710, "platform": 4711, "endar": 4712, "lode": 4713, "uation": 4714, "ĠInput": 4715, "ocus": 4716, "Cursor": 4717, "90": 4718, "Wait": 4719, "ĠUser": 4720, "chor": 4721, "Ġmatrix": 4722, "ĠErr": 4723, "println": 4724, "va": 4725, "gpio": 4726, "locale": 4727, "vs": 4728, "Ġperform": 4729, "Ġprob": 4730, "Ġlogger": 4731, "Ġcondition": 4732, "Ġprivate": 4733, "original": 4734, "SELECT": 4735, "fact": 4736, "Errors": 4737, "ights": 4738, "ier": 4739, "RC": 4740, "lied": 4741, "Ali": 4742, "FORMAT": 4743, ":\\": 4744, "æķ": 4745, "arm": 4746, "ĠMake": 4747, "wrap": 4748, "condition": 4749, "Ġstat": 4750, "Slice": 4751, "]),": 4752, "Fold": 4753, "ĠQu": 4754, "ugins": 4755, "TC": 4756, "ENOMEM": 4757, "role": 4758, "Ġeither": 4759, "Ġbuilder": 4760, "sel": 4761, "ATTR": 4762, "bad": 4763, "Ġfunctions": 4764, "AAAAAAAA": 4765, "FL": 4766, "Ġstructure": 4767, "Ġpoints": 4768, "ĠMessage": 4769, "Ġexample": 4770, "rand": 4771, "ral": 4772, "ĠParse": 4773, "restore": 4774, "CHAR": 4775, "Mouse": 4776, "ĠLoc": 4777, "Ġenable": 4778, "Ġprev": 4779, "Ġassoci": 4780, "ometry": 4781, "icker": 4782, "Ġevents": 4783, "tails": 4784, "requ": 4785, "},{": 4786, "Package": 4787, "uring": 4788, "ĠMAX": 4789, "assertTrue": 4790, "Ġ24": 4791, "Ġsn": 4792, "SQL": 4793, "Ġinitial": 4794, "Sel": 4795, "oriz": 4796, "Duration": 4797, "Ġexecute": 4798, "modal": 4799, "Pop": 4800, "href": 4801, "ONG": 4802, "account": 4803, "ĠCall": 4804, "bd": 4805, "wl": 4806, "ĠClass": 4807, "Step": 4808, "tags": 4809, "category": 4810, "Ġunless": 4811, "istent": 4812, "note": 4813, "Ġisset": 4814, "peat": 4815, "Ġ255": 4816, "termin": 4817, "Ġmixed": 4818, "asm": 4819, "pose": 4820, "Ġsort": 4821, "Constructor": 4822, "Ġregist": 4823, "Ġreal": 4824, "CONFIG": 4825, "|\\": 4826, "super": 4827, "Ġmultiple": 4828, "flush": 4829, "iagn": 4830, "Sprintf": 4831, "Ġbased": 4832, "Ġcomplete": 4833, "FAIL": 4834, "TRUE": 4835, "ĠGener": 4836, "INTER": 4837, "******": 4838, "tBQ": 4839, "editor": 4840, "57": 4841, "Ġdifferent": 4842, "rest": 4843, "failed": 4844, "Ġfollowing": 4845, "START": 4846, "clock": 4847, "akes": 4848, "Me": 4849, "runtime": 4850, "vol": 4851, "Warning": 4852, "INVALID": 4853, "ä»": 4854, "ĠFT": 4855, "JECT": 4856, "Resources": 4857, "Ġwx": 4858, "STRING": 4859, "Ġmapping": 4860, "ĠOption": 4861, "Ġyour": 4862, "delta": 4863, "LIST": 4864, "Security": 4865, "QUFD": 4866, "focus": 4867, "aration": 4868, "owner": 4869, "year": 4870, "Ġcomment": 4871, "ArgumentException": 4872, "Ġgraph": 4873, "('#": 4874, "Ġhtml": 4875, "reader": 4876, "Ġsw": 4877, "Conn": 4878, "oom": 4879, "ĠĠĠĠĠĠĠĠĠĠĠĠĠĠĠĠĠĠĠĠĠĠĠĠĠĠĠĠĠĠ": 4880, "HEAD": 4881, "Ġexisting": 4882, "Loader": 4883, "Ġtransform": 4884, "KERN": 4885, "MEM": 4886, "Ġsample": 4887, "Ġprintf": 4888, "ĠAs": 4889, "Proto": 4890, "uture": 4891, "Replace": 4892, "Ġloc": 4893, "Ġinline": 4894, "cursor": 4895, "ROM": 4896, "49": 4897, "ĠNS": 4898, "quote": 4899, "Ġpair": 4900, "ah": 4901, "GUI": 4902, "Html": 4903, "Sum": 4904, "Ġlook": 4905, "ispose": 4906, "pages": 4907, "Ġlayer": 4908, "Progress": 4909, "DA": 4910, "Tri": 4911, "ĠArgs": 4912, "alle": 4913, "Ġsets": 4914, "seconds": 4915, "agent": 4916, "ulture": 4917, "Ġirq": 4918, "blk": 4919, "COL": 4920, "Ġinstruction": 4921, "Generator": 4922, "ĠEXPECT": 4923, "lapse": 4924, "padd": 4925, "ENABLE": 4926, "ru": 4927, "Ġ\"'": 4928, "Encoding": 4929, "del": 4930, "Rate": 4931, "chain": 4932, ",$": 4933, "Sample": 4934, "ĠĠĠĠĠĠĠĠĠĠĠĠĠĠĠĠĠĠĠĠĠĠĠĠĠĠĠĠ": 4935, "xf": 4936, "ĠPoint": 4937, "Pass": 4938, "ĠHandle": 4939, "maining": 4940, "resolve": 4941, "car": 4942, "EOF": 4943, "Ġstrlen": 4944, "ĠXML": 4945, "engine": 4946, "UID": 4947, "non": 4948, "convert": 4949, "OW": 4950, "Logger": 4951, "vars": 4952, "tBQUN": 4953, "Ġdecode": 4954, "Off": 4955, "Ġprop": 4956, "Ġbound": 4957, "removeClass": 4958, "Screen": 4959, "LAY": 4960, "lookup": 4961, "alpha": 4962, "Ġunder": 4963, "Connect": 4964, "Area": 4965, "RD": 4966, "mage": 4967, "ADDR": 4968, "eee": 4969, "bound": 4970, "bh": 4971, "velo": 4972, "dAtA": 4973, "TA": 4974, "bm": 4975, "iver": 4976, "(@": 4977, "Ð¾Ð": 4978, "Ġsetup": 4979, "Ġdict": 4980, "resize": 4981, "retval": 4982, "btn": 4983, "ĠVAL": 4984, "ural": 4985, "Ġ\"\";": 4986, "ĠDesc": 4987, "Ġwould": 4988, "warn": 4989, "substr": 4990, "Basic": 4991, "props": 4992, "Ġtransaction": 4993, "ĠBase": 4994, "ĠBo": 4995, "ness": 4996, "arshaller": 4997, "integer": 4998, "ĠSc": 4999, "Ġneeded": 5000, "orter": 5001, "Ġplace": 5002, "1234": 5003, "Ġ\");": 5004, "ãĢ": 5005, "ading": 5006, "Sn": 5007, ":[\"": 5008, "atio": 5009, "}/": 5010, "fetch": 5011, "Ġpop": 5012, "Ġdraw": 5013, "ai": 5014, "warning": 5015, "WriteLine": 5016, "urb": 5017, "ĠConvert": 5018, "collection": 5019, "asure": 5020, "video": 5021, "Ġaxis": 5022, "counter": 5023, "Sequence": 5024, "Ġ(%": 5025, "oll": 5026, "ĠOS": 5027, "ĠIOException": 5028, "41": 5029, "IST": 5030, "irror": 5031, "sheet": 5032, "single": 5033, "ĠDB": 5034, "Ġfont": 5035, "ĠHTML": 5036, "52": 5037, "lin": 5038, "metadata": 5039, "DATE": 5040, "UInt": 5041, "package": 5042, "vl": 5043, "logger": 5044, "ifiers": 5045, "getType": 5046, "Ġfactory": 5047, "properties": 5048, "player": 5049, "ison": 5050, "pted": 5051, "aly": 5052, "____": 5053, "CLA": 5054, "strip": 5055, "Ġchanged": 5056, "TAG": 5057, "mail": 5058, "fold": 5059, "iagnost": 5060, "ass": 5061, "Agent": 5062, "HS": 5063, "Ġhow": 5064, "shared": 5065, "ĠPath": 5066, "ouse": 5067, "è¯": 5068, "Ġnetwork": 5069, "kind": 5070, "UND": 5071, "Ġboth": 5072, "tn": 5073, "#{": 5074, "CHAN": 5075, "255": 5076, "ï¼Į": 5077, "Fn": 5078, "audio": 5079, "train": 5080, "Ġcap": 5081, "eq": 5082, "className": 5083, "Ġaccount": 5084, "pin": 5085, "mar": 5086, "Scalar": 5087, "cbi": 5088, "Ġfoo": 5089, "ancellationToken": 5090, "memcpy": 5091, "memory": 5092, "BR": 5093, "png": 5094, "media": 5095, "Ġtt": 5096, "67": 5097, "IFY": 5098, "ĠFind": 5099, "GN": 5100, "snd": 5101, "redentials": 5102, ">'": 5103, "force": 5104, "Ġrect": 5105, "Private": 5106, "Media": 5107, "Ġunit": 5108, "lation": 5109, "Points": 5110, "Ġ'')": 5111, "HighlightRules": 5112, "ga": 5113, "WA": 5114, "Children": 5115, "route": 5116, "Bound": 5117, "Ġapplication": 5118, "Ġtests": 5119, "Day": 5120, "Annot": 5121, "MAC": 5122, "ĠOpen": 5123, "uted": 5124, "Permission": 5125, "Ġinte": 5126, "PRO": 5127, "ĠRequest": 5128, "Rad": 5129, "ĠSQL": 5130, "kt": 5131, "roid": 5132, "Ġrv": 5133, "mediate": 5134, "ĠCal": 5135, "indent": 5136, ")},": 5137, "Ġdescription": 5138, "EB": 5139, "disabled": 5140, "Ġabs": 5141, "Ġbatch": 5142, "Ġcharacters": 5143, "them": 5144, "Py": 5145, "Ġmove": 5146, "ĠPR": 5147, "Ġentries": 5148, "ĠValid": 5149, "Reset": 5150, "aff": 5151, "Ġpred": 5152, "Ġpri": 5153, "Ġyield": 5154, "Sw": 5155, "Ġass": 5156, "Ġcons": 5157, "java": 5158, "ĠIR": 5159, "llegal": 5160, "[\\": 5161, "ById": 5162, "pred": 5163, "interval": 5164, "CRE": 5165, "gle": 5166, "áĥ": 5167, "lx": 5168, "Mesh": 5169, "QTtBQUN": 5170, "pcm": 5171, "Enable": 5172, "Details": 5173, "checked": 5174, "ĠHe": 5175, "IX": 5176, "UNT": 5177, "So": 5178, "tle": 5179, "PIO": 5180, "activ": 5181, "(:": 5182, "Stats": 5183, "axis": 5184, "DMA": 5185, "Ġextra": 5186, "MenuItem": 5187, "ĠjQuery": 5188, "Unmarshal": 5189, "Ġtoo": 5190, "tect": 5191, "Ġsplit": 5192, "Syscall": 5193, "Ġtool": 5194, "ĠXXX": 5195, "Ġelseif": 5196, "Ġui": 5197, "ensure": 5198, "{$": 5199, "Route": 5200, "mapping": 5201, "Sets": 5202, "rtl": 5203, "race": 5204, "yp": 5205, "Ġevery": 5206, "ze": 5207, "Transition": 5208, "hidden": 5209, "lack": 5210, "Ġman": 5211, "Ġdriver": 5212, "quires": 5213, "83": 5214, "Rows": 5215, "Ġtrack": 5216, "alias": 5217, "impl": 5218, "arted": 5219, "EP": 5220, "loaded": 5221, "Own": 5222, ":/": 5223, "Ġthese": 5224, "HA": 5225, "Ġuntil": 5226, "NONE": 5227, "grid": 5228, "æķ°": 5229, "Ġapply": 5230, "Ġpackage": 5231, "Ġpossible": 5232, "mer": 5233, "Tags": 5234, "apped": 5235, "Ġdepend": 5236, "\")]": 5237, "Exists": 5238, "trim": 5239, "lause": 5240, "matrix": 5241, "BT": 5242, "Ġvm": 5243, "Ġhttps": 5244, "Allow": 5245, "vid": 5246, "power": 5247, "ĠPL": 5248, "wm": 5249, "Sql": 5250, "Loop": 5251, "Ġbar": 5252, "REE": 5253, "rot": 5254, "ĠVALUE": 5255, "Password": 5256, "forEach": 5257, "ler": 5258, "help": 5259, "uplic": 5260, "Vec": 5261, "ĠStart": 5262, "Instruction": 5263, "scri": 5264, "virtual": 5265, "Join": 5266, "Sort": 5267, "su": 5268, "DT": 5269, "æĸ": 5270, "Ġspecific": 5271, "Ġargv": 5272, "Ġ{{": 5273, "Publish": 5274, "IGHT": 5275, "username": 5276, "...)": 5277, "Constants": 5278, "ĠBOOST": 5279, "Ġpool": 5280, "parts": 5281, "Report": 5282, "QTtBQUNBO": 5283, "Arch": 5284, "vok": 5285, "Ġ\"[": 5286, "Enumerable": 5287, "Ġmatches": 5288, "Ġwithin": 5289, "AUT": 5290, "Pixel": 5291, "strict": 5292, "ĠInvalid": 5293, "ĠRemove": 5294, "Slot": 5295, "World": 5296, "master": 5297, "Ġassign": 5298, "Framework": 5299, "ĠSub": 5300, "rieve": 5301, "Ġ'_": 5302, "Assign": 5303, "eff": 5304, "vd": 5305, "compare": 5306, "cessed": 5307, "cookie": 5308, "Ġconn": 5309, "Ġindent": 5310, "Ġemit": 5311, "ough": 5312, "Split": 5313, "payload": 5314, "PHP": 5315, "iddle": 5316, "freq": 5317, "Ġmethods": 5318, "Ġdw": 5319, "Ġ'#": 5320, "loader": 5321, "Abs": 5322, "orizont": 5323, "Random": 5324, "ĠInteger": 5325, "Ġchain": 5326, "+=": 5327, "Feature": 5328, "ĠLoad": 5329, "Cluster": 5330, "Ġhigh": 5331, "remote": 5332, "Ġcell": 5333, "Ġenabled": 5334, "Volume": 5335, "profile": 5336, "tokens": 5337, "Ġdescriptor": 5338, "Ġdelta": 5339, "Ġdig": 5340, "SV": 5341, "Ġconstant": 5342, "ands": 5343, "isEmpty": 5344, "Ġdiv": 5345, "Required": 5346, "Endpoint": 5347, "Execute": 5348, "variant": 5349, "ĠDelete": 5350, "imate": 5351, "Machine": 5352, "Ġreport": 5353, "Ġllvm": 5354, "job": 5355, "cer": 5356, "Ġmock": 5357, "(\"./": 5358, "Ġcommon": 5359, "rp": 5360, "ridge": 5361, "Native": 5362, "seg": 5363, "Controls": 5364, "Vert": 5365, "USER": 5366, "Ġsender": 5367, "]:": 5368, "anner": 5369, "INSERT": 5370, "trib": 5371, "Ġskb": 5372, "Language": 5373, "Ġ{\"": 5374, "tw": 5375, "nl": 5376, "Ġindic": 5377, "*(": 5378, "Lookup": 5379, "ĠSo": 5380, "createElement": 5381, "Ġsprintf": 5382, "\"==": 5383, "ĠOp": 5384, "groups": 5385, "Ignore": 5386, "Ob": 5387, "åħ": 5388, "havior": 5389, "ĠHttp": 5390, "extra": 5391, "Ġslot": 5392, "izes": 5393, "ents": 5394, "aut": 5395, "vance": 5396, "YW": 5397, "Static": 5398, "Ġsetting": 5399, "dl": 5400, "layers": 5401, "ving": 5402, "Ġecho": 5403, "Generic": 5404, "manager": 5405, "Ġdepth": 5406, "Edge": 5407, "Ġisinstance": 5408, "entries": 5409, "QUFDQTtBQUNBO": 5410, "Ġfill": 5411, "Ġfix": 5412, "loor": 5413, "Ġsyscall": 5414, "hook": 5415, "FFFF": 5416, "Bounds": 5417, "unct": 5418, "YY": 5419, "Ġusb": 5420, "Generated": 5421, "inished": 5422, "Ġregion": 5423, "Ġclock": 5424, "andid": 5425, "OFFSET": 5426, "Ġelem": 5427, ":!": 5428, "optional": 5429, "supported": 5430, "Ġ::": 5431, "pers": 5432, "BASE": 5433, "Month": 5434, "getId": 5435, "IFT": 5436, "ĠForm": 5437, "Help": 5438, "Ġfailure": 5439, "eners": 5440, "Attach": 5441, "voc": 5442, "Ġfin": 5443, "xc": 5444, "ycle": 5445, "00000000000000000000000000000000000000000000000000000000000000000000000000000000000000000000000000000000000000000000000000000000": 5446, "decl": 5447, "objects": 5448, "ench": 5449, "Emit": 5450, "aaaaaaaa": 5451, "Ġkeep": 5452, "alf": 5453, "Ġdiff": 5454, "Gl": 5455, "!==": 5456, "Decode": 5457, "orizontal": 5458, "=!": 5459, "none": 5460, "builder": 5461, "(['": 5462, "Now": 5463, "ĠAct": 5464, "ithub": 5465, "Release": 5466, "Disk": 5467, "INK": 5468, "ioc": 5469, "ĠComp": 5470, "\\/": 5471, "UEST": 5472, "[-": 5473, "ĠRes": 5474, "ĠGFP": 5475, "+'": 5476, "Ġplugin": 5477, "jection": 5478, "Ġpipe": 5479, "ĉĠĠĠĠĠ": 5480, "70": 5481, "ĠAS": 5482, "************************************************************************": 5483, "Mac": 5484, "ĠJS": 5485, "Ġwhat": 5486, "Bean": 5487, "Ġcursor": 5488, "TF": 5489, "Try": 5490, "gative": 5491, "entral": 5492, "Ġgenerated": 5493, "Arguments": 5494, "Ġapi": 5495, "à¥": 5496, "agic": 5497, "hci": 5498, "Ġ--------": 5499, "Ġsignal": 5500, "paren": 5501, "Owner": 5502, "58": 5503, "LD": 5504, "illi": 5505, "abc": 5506, "tim": 5507, "Ġcalls": 5508, "tb": 5509, "ĠMem": 5510, "ĠId": 5511, "Elem": 5512, "ĠBlock": 5513, "PM": 5514, "Chain": 5515, "(\"../": 5516, "Throw": 5517, "HR": 5518, "78": 5519, "Ren": 5520, "Ġtab": 5521, "ied": 5522, "gc": 5523, "valuate": 5524, "Bind": 5525, "sumer": 5526, "ermin": 5527, "Unexpected": 5528, "parameter": 5529, "ĠRaw": 5530, "aN": 5531, "atalog": 5532, "PARAM": 5533, "pf": 5534, "writer": 5535, "Ġ\"+": 5536, "ĠField": 5537, "erred": 5538, "utdown": 5539, "iNdEx": 5540, "Ġob": 5541, "Ġinode": 5542, "Chunk": 5543, "tries": 5544, ".,": 5545, "AF": 5546, "Objects": 5547, "Ġmeta": 5548, "depend": 5549, "Ġprotected": 5550, "Te": 5551, "Fix": 5552, ");\\": 5553, "dn": 5554, "dim": 5555, "required": 5556, "ĠPre": 5557, "prepare": 5558, "Effect": 5559, "requency": 5560, "Ġpriv": 5561, "Columns": 5562, "Ġcontroller": 5563, "Ġpresent": 5564, "clus": 5565, "BLOCK": 5566, "unique": 5567, "~~": 5568, "Multi": 5569, "nv": 5570, "å®": 5571, "Ġremoved": 5572, "ĠRegister": 5573, "getInstance": 5574, "Animation": 5575, "entication": 5576, "Ġtuple": 5577, "Ġpixel": 5578, "53": 5579, "ured": 5580, "install": 5581, "protocol": 5582, "Ġsent": 5583, "ĠWindow": 5584, "Ġmenu": 5585, "Ġvalidate": 5586, "Ġ\")": 5587, "EventListener": 5588, "pointer": 5589, "contents": 5590, "CUR": 5591, "center": 5592, "Ġ${": 5593, "pell": 5594, "WIN": 5595, "ours": 5596, "VR": 5597, "writel": 5598, "EVENT": 5599, "ampl": 5600, "BC": 5601, "Ġ([]": 5602, "directory": 5603, "hc": 5604, "çĶ": 5605, "Year": 5606, "ident": 5607, "Ġprotocol": 5608, "Identity": 5609, "ĠLOG": 5610, "THOD": 5611, "dist": 5612, "blocks": 5613, "Exit": 5614, "kit": 5615, "Ġplayer": 5616, "Ġet": 5617, "Ġps": 5618, "Ġvariables": 5619, "Depend": 5620, "Frac": 5621, "DEF": 5622, "fil": 5623, "serv": 5624, "Binary": 5625, "Validation": 5626, "MON": 5627, "SULT": 5628, "ĠMethod": 5629, "edge": 5630, "umb": 5631, "Ġsuch": 5632, "Groups": 5633, "kg": 5634, "StatusCode": 5635, "cf": 5636, "Failure": 5637, "($_": 5638, "ullable": 5639, "IDE": 5640, "Ġmetadata": 5641, "TRACE": 5642, "ĉĉĉĠĠ": 5643, "FFER": 5644, "Complete": 5645, "IMP": 5646, "Ġsig": 5647, "'=>": 5648, "SUB": 5649, "watch": 5650, "asc": 5651, "SHIFT": 5652, "rpc": 5653, "Ġparsed": 5654, "ĉĉĉĠ": 5655, "Gen": 5656, "generate": 5657, "cancel": 5658, ">,": 5659, "ometh": 5660, "ategy": 5661, "Ġtrace": 5662, "encies": 5663, "ony": 5664, "KERNEL": 5665, "ARG": 5666, "_(": 5667, ">.": 5668, "omething": 5669, "ĠĠĠĠĠĠĠĠĠĠĠĠĠĠĠĠĠĠĠĠĠĠĠĠĠĠĠĠĠĠĠĠĠĠĠĠĠĠĠĠĠĠĠ": 5670, "Direct": 5671, "which": 5672, "riteria": 5673, "Repository": 5674, "It": 5675, "Ġedge": 5676, "Background": 5677, "Ġpayload": 5678, "allet": 5679, "Ġextract": 5680, "Ġusage": 5681, "bove": 5682, "82": 5683, "Rot": 5684, "hex": 5685, "Cancel": 5686, "ĠNumber": 5687, "ones": 5688, "will": 5689, "notify": 5690, "Ġjob": 5691, "++]": 5692, "Driver": 5693, "curr": 5694, "console": 5695, "dot": 5696, "ĉĉĠĠĠĠĠĠ": 5697, "roke": 5698, "################": 5699, "FLO": 5700, "catch": 5701, "ĠSC": 5702, "na": 5703, "Ġ')": 5704, "vp": 5705, "Ġavoid": 5706, "concat": 5707, "Ġvec": 5708, "DOM": 5709, "rong": 5710, "Ġcorrespon": 5711, "memset": 5712, "kely": 5713, "precated": 5714, "92": 5715, "Note": 5716, "ĠBuild": 5717, "Ġstill": 5718, "bucket": 5719, "login": 5720, "high": 5721, "dropdown": 5722, "Ġruntime": 5723, "Ġpassword": 5724, "Operator": 5725, "GRO": 5726, "BYTE": 5727, "?(": 5728, "ĠHash": 5729, "Video": 5730, "orth": 5731, "FALSE": 5732, "ĠReset": 5733, "eds": 5734, "clone": 5735, "ĠAND": 5736, "Axis": 5737, "nn": 5738, "Cor": 5739, "Ġarch": 5740, "}\"": 5741, "GER": 5742, "Ġjava": 5743, "Ġnative": 5744, "holder": 5745, "CAP": 5746, "Angle": 5747, "got": 5748, "ĠASSERT": 5749, ">\"": 5750, "sym": 5751, "boot": 5752, "Tests": 5753, "åŃ": 5754, "Bundle": 5755, "olved": 5756, "HERE": 5757, "Ġbus": 5758, "Lines": 5759, "Ġ\";": 5760, "Ġmember": 5761, "è¿": 5762, "Methods": 5763, "play": 5764, "Ġfd": 5765, "reply": 5766, "Ġrad": 5767, "Ġtags": 5768, "Win": 5769, "ĉĉĉĉĠĠĠ": 5770, "Ġ14": 5771, "Ġmat": 5772, "Pred": 5773, "clu": 5774, "Compare": 5775, "cessary": 5776, "ĠRT": 5777, "(\"#": 5778, "UV": 5779, "cogn": 5780, "Zone": 5781, "attrs": 5782, "Ġallowed": 5783, "Ġtri": 5784, "numeric": 5785, "signal": 5786, "Ġ13": 5787, "Ġimg": 5788, "}),": 5789, "Ġrepresentation": 5790, "itespace": 5791, "Ġct": 5792, "509": 5793, "LY": 5794, "oted": 5795, "classes": 5796, "unch": 5797, "Ġrows": 5798, "Ġcm": 5799, "Ġfprintf": 5800, "Ġpci": 5801, "Ġway": 5802, "xl": 5803, "Ġidentifier": 5804, "Ġtheir": 5805, "chart": 5806, ":\"\\\\": 5807, "51": 5808, "Tick": 5809, "upper": 5810, "ĠFROM": 5811, "EventArgs": 5812, "Ġeditor": 5813, "ĠDebug": 5814, "ĉĉĉĠĠĠĠĠĠ": 5815, "tempt": 5816, "Ġsq": 5817, "chedul": 5818, "Ġ}\\": 5819, "Ġ{'": 5820, "factory": 5821, "modules": 5822, "/,": 5823, "?\"": 5824, "like": 5825, "ĠMMM": 5826, "cbiAg": 5827, "Ġrelease": 5828, "writ": 5829, "Filename": 5830, "Unlock": 5831, "ĠClose": 5832, "spi": 5833, "Cast": 5834, "SHA": 5835, "Ġhapp": 5836, "Ġsimple": 5837, "theme": 5838, "istrib": 5839, "Opt": 5840, "Ġcc": 5841, "helper": 5842, "Std": 5843, "tok": 5844, "Usage": 5845, "\\\",": 5846, "Ġrelative": 5847, "echo": 5848, "Ġschema": 5849, "Direction": 5850, "ĠOutput": 5851, "Ġonce": 5852, "pixel": 5853, "gd": 5854, "Ð°Ð": 5855, "allel": 5856, "GA": 5857, "ĠĠĠĠĠĠĠĠĠĠĠĠĠĠĠĠĠĠĠĠĠĠĠĠĠĠĠĠĠĠĠĠĠ": 5858, "Ġattach": 5859, "ÐµÐ": 5860, "=$": 5861, "oot": 5862, "DM": 5863, "Ġverify": 5864, "Ġmatched": 5865, "METHOD": 5866, "Ġhead": 5867, "ĠServer": 5868, "Play": 5869, "Virtual": 5870, "CFG": 5871, "tk": 5872, "ĠRun": 5873, "Instr": 5874, "Ġla": 5875, "Ġcontents": 5876, "ĠDateTime": 5877, "ĠView": 5878, "Ġmonth": 5879, "panel": 5880, "ĉĉĠ": 5881, "padding": 5882, "ĠINTO": 5883, "TRAN": 5884, "starts": 5885, "Push": 5886, "ULE": 5887, "Bottom": 5888, "resses": 5889, "greg": 5890, "NET": 5891, "AST": 5892, "Ġwarning": 5893, "Site": 5894, "Real": 5895, "Ġleast": 5896, "LAN": 5897, "columns": 5898, "ĠEd": 5899, "Ġtrain": 5900, "Ġappro": 5901, "ĠJson": 5902, "'.$": 5903, "==\"": 5904, "usage": 5905, "covery": 5906, "Make": 5907, "Java": 5908, "ases": 5909, "Ġsock": 5910, "pkt": 5911, "Ġtimer": 5912, "lite": 5913, "Shader": 5914, "cut": 5915, ".(": 5916, "HW": 5917, "sin": 5918, "ĠWhen": 5919, "speed": 5920, "68": 5921, "direction": 5922, "Ġsz": 5923, "ifest": 5924, "Ġrunning": 5925, "elements": 5926, "duration": 5927, ")){": 5928, "Ġtimes": 5929, "eval": 5930, "Common": 5931, "expression": 5932, "inline": 5933, "HAND": 5934, "ĠDMA": 5935, "lict": 5936, "rev": 5937, "Sheet": 5938, "Ġrate": 5939, "^\\": 5940, "Ġdisable": 5941, ":`": 5942, "Ġdestination": 5943, "Fill": 5944, "RET": 5945, "Setup": 5946, "tick": 5947, "Ġwire": 5948, "Ġlua": 5949, "Ġsec": 5950, "Props": 5951, "Fixed": 5952, "DBG": 5953, "substring": 5954, "'].": 5955, "webpack": 5956, "Ġ30": 5957, ":]": 5958, "strcmp": 5959, "exist": 5960, ";}": 5961, "NN": 5962, "ĠLL": 5963, "ĠĠĠĠĠĠĠĠĠĠĠĠĠĠĠĠĠĠĠĠĠĠĠĠĠĠĠĠĠĠĠĠĠĠ": 5964, "Ġmessages": 5965, "alert": 5966, "71": 5967, "Ġts": 5968, "åĬ": 5969, "netdev": 5970, "UB": 5971, "Ġlp": 5972, "ĠContext": 5973, "imitive": 5974, "ture": 5975, "Author": 5976, "Ġforce": 5977, "tests": 5978, "accept": 5979, "Dictionary": 5980, "Information": 5981, "CATE": 5982, "ĠCH": 5983, "DEX": 5984, "policy": 5985, "cluded": 5986, "methods": 5987, "FIX": 5988, "zer": 5989, "LETE": 5990, "RESULT": 5991, "ĠProcess": 5992, "Ġhw": 5993, ",'": 5994, "Ġsu": 5995, "Ġweb": 5996, "Seconds": 5997, "ĠDis": 5998, "flat": 5999, "IsNull": 6000, "Ġslice": 6001, "Ġlow": 6002, "Material": 6003, "Ġneeds": 6004, "Ġscan": 6005, "Remote": 6006, "weight": 6007, "Batch": 6008, "emon": 6009, "Marker": 6010, "arty": 6011, "Ġlower": 6012, "SSL": 6013, "Dig": 6014, "progress": 6015, "Ġprogram": 6016, "ĠConsole": 6017, "SCR": 6018, "zA": 6019, "idi": 6020, "ho": 6021, "soc": 6022, "Ġkernel": 6023, "LOB": 6024, "itude": 6025, "Ġblocks": 6026, "Modified": 6027, "sy": 6028, "Prev": 6029, "Ġdimension": 6030, "CONTR": 6031, "EST": 6032, "QUAL": 6033, "Atom": 6034, "Console": 6035, "gon": 6036, "atomic": 6037, "rypto": 6038, "ĠVALUES": 6039, "93": 6040, "98": 6041, "att": 6042, "ĠSource": 6043, "road": 6044, "ube": 6045, "ĠOther": 6046, "that": 6047, "strings": 6048, "grade": 6049, "rf": 6050, "Ġmight": 6051, "ĠValueError": 6052, "Shared": 6053, "agement": 6054, "Ġbinary": 6055, "relation": 6056, "math": 6057, "ĠPCI": 6058, "Ġassociated": 6059, ")-": 6060, "]\",": 6061, "ĠDOM": 6062, "Ġ<-": 6063, "NotFound": 6064, "Ġanother": 6065, "oment": 6066, "Audio": 6067, "front": 6068, "serialize": 6069, "äº": 6070, "Ġbuff": 6071, "BUFFER": 6072, "Ġvert": 6073, "VO": 6074, "tion": 6075, "istribution": 6076, "95": 6077, "Big": 6078, "Ġuses": 6079, "encoder": 6080, "Ġcp": 6081, "ĠVer": 6082, "Counter": 6083, "collapse": 6084, "ĠImage": 6085, "Ġdefinition": 6086, "Face": 6087, "Ġdid": 6088, "Ġlayout": 6089, "Ġsim": 6090, "Registry": 6091, "ĠOptional": 6092, "iform": 6093, "65": 6094, "iom": 6095, "Ġinterrupt": 6096, "reater": 6097, "Ġmaximum": 6098, "å¤": 6099, "channels": 6100, "zure": 6101, "\\'": 6102, ">';": 6103, "Ġgen": 6104, "Ġchildren": 6105, "Ø§": 6106, "SM": 6107, ":[{": 6108, "inheritdoc": 6109, "Ġfinally": 6110, "Ġoccur": 6111, "defaults": 6112, "ef": 6113, "utor": 6114, "ulator": 6115, "Locale": 6116, ">(\"": 6117, "changed": 6118, "CPU": 6119, ")\"": 6120, "ELD": 6121, "hl": 6122, "è®": 6123, "lua": 6124, "selection": 6125, "ĠArrayList": 6126, "TRY": 6127, "seed": 6128, "Ġarr": 6129, ">=": 6130, "marks": 6131, "Literal": 6132, "91": 6133, "&#": 6134, "days": 6135, "rece": 6136, "users": 6137, "Ġrequested": 6138, "Ġ#{": 6139, "commit": 6140, "au": 6141, "Ġ50": 6142, "123": 6143, "Indent": 6144, "ysis": 6145, "anaged": 6146, "ĠUN": 6147, "Ġtrigger": 6148, "vn": 6149, "URCE": 6150, "CLASS": 6151, "Ġcore": 6152, "Ġmeans": 6153, "ĠBuffer": 6154, "Drop": 6155, "Ġmac": 6156, "compile": 6157, "/{": 6158, "Ġyet": 6159, "High": 6160, "Tile": 6161, "Ġrout": 6162, "ble": 6163, "Merge": 6164, "ipher": 6165, "ĠMI": 6166, "untry": 6167, "Anchor": 6168, "ĠLe": 6169, "plan": 6170, "Focus": 6171, "Ġident": 6172, "Ġvia": 6173, "Ġ';": 6174, "Scene": 6175, "Ġscroll": 6176, "inc": 6177, "æĺ": 6178, "istic": 6179, "Ġdist": 6180, "Ġsubstr": 6181, "plot": 6182, "dent": 6183, "CLK": 6184, "mented": 6185, "GetType": 6186, "ĠResult": 6187, "game": 6188, "Ġeven": 6189, "inte": 6190, "\"].": 6191, "visible": 6192, "Ġpers": 6193, "TS": 6194, "hasClass": 6195, "ĠInitialize": 6196, "Ġbad": 6197, "ĠSize": 6198, "SUPP": 6199, "phys": 6200, "lave": 6201, "Ġ'[": 6202, "iro": 6203, "ette": 6204, "Ġlibc": 6205, "getOperand": 6206, "Hex": 6207, "Functions": 6208, "æĪ": 6209, "outer": 6210, "Ġinitialize": 6211, "UG": 6212, "Ġknow": 6213, "Ġer": 6214, "igr": 6215, "mk": 6216, "compress": 6217, "63": 6218, "PTR": 6219, "pector": 6220, "Timestamp": 6221, "Ġcfg": 6222, "Services": 6223, "Ġss": 6224, "parison": 6225, "Family": 6226, "Ns": 6227, "72": 6228, "Ġensure": 6229, "dispatch": 6230, "Ġatom": 6231, "ifo": 6232, "timestamp": 6233, "ĠSend": 6234, "__);": 6235, "Ġcompare": 6236, "OwnProperty": 6237, "ĠColor": 6238, ")+": 6239, "Suf": 6240, "deep": 6241, "angular": 6242, "unctuation": 6243, "Ġselection": 6244, "unknown": 6245, "84": 6246, "Ġcast": 6247, "-------": 6248, "lm": 6249, "Program": 6250, "verify": 6251, "ĉĉĉĉĠ": 6252, "Ġ).": 6253, "Ġresources": 6254, "GEN": 6255, "Ġparts": 6256, "ĠIndex": 6257, "Ġabove": 6258, "Ġms": 6259, "edi": 6260, "Ġpush": 6261, "Ġ*=": 6262, "RM": 6263, "Ġside": 6264, "binary": 6265, "Pod": 6266, "UINT": 6267, "ks": 6268, "Ġlistener": 6269, "Ġdirection": 6270, "FLAGS": 6271, "|\\\\": 6272, "SERVER": 6273, "isc": 6274, ">::": 6275, "Diff": 6276, "OBJECT": 6277, "Origin": 6278, "DAY": 6279, "Ġbest": 6280, "Ġwere": 6281, "RV": 6282, "!!": 6283, "Ġupdated": 6284, "GROUP": 6285, "docs": 6286, "rdev": 6287, "Environment": 6288, "probe": 6289, "appendChild": 6290, "---": 6291, "medium": 6292, "feature": 6293, "ARD": 6294, "export": 6295, "IND": 6296, "]));": 6297, "xpr": 6298, "ĠPHPExcel": 6299, "SOURCE": 6300, "upload": 6301, "dx": 6302, "rive": 6303, "ASE": 6304, "icient": 6305, "Ġchanges": 6306, "Anim": 6307, "RED": 6308, "}]": 6309, "Available": 6310, "REF": 6311, "Ġeffect": 6312, "orig": 6313, "istics": 6314, ".\"\"\"": 6315, "Invoke": 6316, "same": 6317, "Ġnothing": 6318, "Ġunique": 6319, "transaction": 6320, "Ġtensor": 6321, "ĉĉĉĉĠĠ": 6322, "Styles": 6323, "URN": 6324, "images": 6325, "Unm": 6326, "drvdata": 6327, "Signature": 6328, "ather": 6329, "submit": 6330, "]],": 6331, "ords": 6332, "YPE": 6333, "ĉĠĠ": 6334, "Ġgrid": 6335, "Setting": 6336, "ĠQt": 6337, "peer": 6338, "Ġ102": 6339, "sf": 6340, "sta": 6341, "Ġpt": 6342, "NODE": 6343, "Ġmp": 6344, "Term": 6345, "RS": 6346, "alled": 6347, "simple": 6348, "62": 6349, "Ġcluster": 6350, "LOC": 6351, "ĠRawSyscall": 6352, "cg": 6353, "nippet": 6354, "Ġtokens": 6355, "Guid": 6356, "Ġpromise": 6357, "Ok": 6358, "Ġfeature": 6359, "ĠMy": 6360, "ĠToken": 6361, "cert": 6362, "Ġbt": 6363, "](": 6364, "CALL": 6365, "FN": 6366, "Ġdrm": 6367, "utex": 6368, "ĠAd": 6369, "Ġdat": 6370, "ategories": 6371, "hp": 6372, "Segment": 6373, "malloc": 6374, "Alias": 6375, "Ġproxy": 6376, "verted": 6377, "raise": 6378, "){\"": 6379, "Ġpadding": 6380, "Ġdrop": 6381, "Ġdelay": 6382, "COUNT": 6383, "Ġduring": 6384, "ĠassertThat": 6385, "endor": 6386, "ilities": 6387, "beta": 6388, "Ġcolumns": 6389, "Ġsql": 6390, "ront": 6391, "Done": 6392, "Ġremote": 6393, "ĠService": 6394, "ulk": 6395, "Culture": 6396, "ĠResponse": 6397, "lies": 6398, "Ġuri": 6399, "VAR": 6400, "come": 6401, "ĠJava": 6402, "Ġge": 6403, "zon": 6404, "bine": 6405, "dy": 6406, "Delegate": 6407, "94": 6408, "cout": 6409, "Ġadditional": 6410, "(/\\": 6411, "Renderer": 6412, "lc": 6413, "ifies": 6414, "()}": 6415, "ĠAction": 6416, "refs": 6417, "Ġcurrently": 6418, "Card": 6419, "mr": 6420, "ĠCC": 6421, "margin": 6422, "Ġcompute": 6423, "strlen": 6424, "REQUEST": 6425, "istration": 6426, "ula": 6427, "paths": 6428, "Ġspecial": 6429, "amd": 6430, "Ġlabels": 6431, "DEVICE": 6432, "precision": 6433, "PARE": 6434, "Ġrx": 6435, "Ġcounter": 6436, "Sock": 6437, "Ġacc": 6438, "Receive": 6439, "Center": 6440, "Supported": 6441, "definition": 6442, "sprintf": 6443, "ĠXml": 6444, "Ġ(((": 6445, "DP": 6446, "wer": 6447, "Ġpad": 6448, "labels": 6449, "cos": 6450, "dddddddddddddddddddddddddddddddddddddddddddddddddddddddddddddddddddddddddddddddddddddddddddddddddddddddddddddddddddddddddddddddddddddddddddddddddddddddddddddddddddddddddddddddddddddddddddddddddddddddddddddddddddddddddddddddddddddddddddddddddddddddddddddddd": 6451, "MIT": 6452, "Ġrot": 6453, "Validate": 6454, "jd": 6455, "Printf": 6456, "Suite": 6457, "PAGE": 6458, "Rec": 6459, "Head": 6460, "Ġmost": 6461, "bg": 6462, "Ġ\"_": 6463, "oop": 6464, "........": 6465, "Delay": 6466, "panded": 6467, "Dst": 6468, "Ġ256": 6469, "eded": 6470, "ĠPer": 6471, ",\\": 6472, "factor": 6473, "Ġstorage": 6474, "Messages": 6475, "bat": 6476, "ĠUSB": 6477, "001": 6478, "CATEG": 6479, "mesh": 6480, "Ġinner": 6481, "Ġ-----": 6482, "ĠOper": 6483, "Opcode": 6484, "(\"<": 6485, "Ġdecl": 6486, "ĠElement": 6487, "available": 6488, "Character": 6489, "Ġimplementation": 6490, "gate": 6491, "('\\": 6492, "Ġmissing": 6493, "Ġsmall": 6494, "ĉĉĠĠ": 6495, "PHY": 6496, "origin": 6497, "'+": 6498, "alette": 6499, "Ġreason": 6500, "Ġabstract": 6501, "racket": 6502, "ĠParameters": 6503, "Flow": 6504, "two": 6505, "Ġmatching": 6506, "alth": 6507, "multi": 6508, "Email": 6509, "Ġiterator": 6510, "IA": 6511, "******/": 6512, "Ġlanguage": 6513, "'\",": 6514, "panic": 6515, "Ġicon": 6516, "Ġmd": 6517, "uses": 6518, "TIM": 6519, "CAC": 6520, ")?|": 6521, "errno": 6522, "LowerCase": 6523, "fixed": 6524, "ĠMachine": 6525, "9999": 6526, "dialog": 6527, "filters": 6528, "BACK": 6529, "iltin": 6530, "Ġenumer": 6531, "ĠMock": 6532, ".',": 6533, "Border": 6534, "setting": 6535, "Microsoft": 6536, "IRQ": 6537, "Decimal": 6538, "ĠCopy": 6539, "unregister": 6540, "ĠIRQ": 6541, "Ġdtype": 6542, "Ġcard": 6543, "getLine": 6544, "PROP": 6545, "tile": 6546, "FW": 6547, "ARRAY": 6548, "Ġloaded": 6549, "initial": 6550, "ĠPrint": 6551, "Ġ*(": 6552, "CSS": 6553, "EXPR": 6554, "fully": 6555, "Ġaws": 6556, "Nil": 6557, "Ġday": 6558, "kwargs": 6559, "PROT": 6560, "Sound": 6561, "nav": 6562, "nsnippet": 6563, "ios": 6564, "Ġnecessary": 6565, "GTH": 6566, "rapped": 6567, "xa": 6568, "Ġconstructor": 6569, "043": 6570, "aws": 6571, "Ġpc": 6572, "Ġiss": 6573, "getMessage": 6574, "aving": 6575, "ANCE": 6576, "Checked": 6577, "@@@@@": 6578, "Into": 6579, "sequence": 6580, "Ġesc": 6581, "//------------------------------------------------------------------------": 6582, "resources": 6583, "Ġorg": 6584, "setValue": 6585, "ĉĉĉĠĠĠĠ": 6586, "Self": 6587, "epCopy": 6588, "Ġhold": 6589, "COMP": 6590, "stdout": 6591, "wb": 6592, "('<": 6593, "Put": 6594, "ssl": 6595, "Ġengine": 6596, "ĠOr": 6597, "History": 6598, "Entries": 6599, "Break": 6600, "orest": 6601, "Poly": 6602, "Bad": 6603, "HJ": 6604, "RECT": 6605, "wx": 6606, "ao": 6607, "cluster": 6608, "Platform": 6609, "Ġadapter": 6610, "Div": 6611, "Ñĥ": 6612, "avigation": 6613, "folder": 6614, "locity": 6615, "BER": 6616, "Ġcs": 6617, "Ġdma": 6618, "Ġprovider": 6619, "PRINT": 6620, "74": 6621, "Upper": 6622, "Ġvideo": 6623, "hy": 6624, "feed": 6625, ".');": 6626, "Ġlater": 6627, "Admin": 6628, "uspend": 6629, "expects": 6630, "serial": 6631, "ĉĠĠĠĠ": 6632, "Ġhard": 6633, "Ġprovide": 6634, "CATEGORY": 6635, "getAttribute": 6636, "Ġims": 6637, "Fragment": 6638, "ordinates": 6639, "transport": 6640, "LOAD": 6641, "uplicate": 6642, "Ġdetermin": 6643, "VF": 6644, "Ġutil": 6645, "cover": 6646, "Ġrt": 6647, "300": 6648, "xxx": 6649, "Ġseq": 6650, "Ġface": 6651, "configuration": 6652, "peg": 6653, "SSION": 6654, "cursive": 6655, "using": 6656, "Variant": 6657, "Pipe": 6658, "vf": 6659, "Ġ'</": 6660, "ues": 6661, "Ġscreen": 6662, "USB": 6663, "ĠVar": 6664, "Ġdictionary": 6665, "orary": 6666, "bbbc": 6667, "alysis": 6668, "61": 6669, "]{": 6670, "MF": 6671, "Ġprops": 6672, "ĠĠĠĠĠĠĠĠĠĠĠĠĠĠĠĠĠĠĠĠĠĠĠĠĠĠĠĠĠĠĠĠĠĠĠĠĠ": 6673, "Inline": 6674, "kernel": 6675, "lier": 6676, "CN": 6677, "pear": 6678, "Ġbind": 6679, "tod": 6680, "||(": 6681, "SG": 6682, "recv": 6683, "ĠEnd": 6684, "mazon": 6685, "bbbbbbbbbbbbbbbbbbbbbbbbbbbbbbbbbbbbbbbbbbbbbbbbbbbbbbbbbbbbbbbbbbbbbbbbbbbbbbbb": 6686, "Ġprogress": 6687, "bbbbbbbbbbbbbbbbbbbbbbbbbbbbbbbbbbbbbbbbbbbbbbbbbbbbbbbbbbbbbbbbbbbbbbbbbbbbbbbbbbbbbbbbbbbbbbbbbbbbbbbbbbbbbbbbbbbbbbbbbbbbbbbbbbbbbbbbbbbbbbbbbbbbbbbbbbbbbbbbbbbbbbbbbbbbbbbbbbbbbbbbbbbbbbbbbbbbbbbbbbbbbbbb": 6688, "bbbbbbbbbbbbbbbbbbbbbbbbbbbbbbbbbbbbbbbbbbbbbbbbbbbbbbbbbbbbbbbbbbbbbbbbbbbbbbbbbbbbbbbbbbbbbbbbbbbbbbbbbbbbbbbbbbbbbbbbbbbbbbbbbbbbbbbbbbbbbbbbbbbbbbbbbbbbbbbbbbbbbbbbbbbbbbbbbbbbbbbbbbbbbbbbbbbbbbbbbbbbbbbbbbbbbbbb": 6689, "Ġcaller": 6690, "CONTROL": 6691, "ond": 6692, "bbbbbbbbbbbbbbbbbbbbbbbbbbbbbbbbbbbbbbbbbbbbbbbbbbbbbbbbbbbbbbbbbbbbbbbbbbbbbbbbbbbbbbbbbbbbbbbbbbbbbbbbbbbbbbbbbbbbbbbbbbbbbbbbbbbbbbbbbbbbbbbbbbbbbbbbbbbbbbbbbbbbbbbbbbbbbbbbbbbbbbbbbbbbbbbbbbbbbbbbbbbbbbbbbbbbbbbbbbbc": 6693, "ĠAC": 6694, "Ġlookup": 6695, "native": 6696, "iling": 6697, "Ġax": 6698, "ĠCan": 6699, "00000": 6700, "ĠCONFIG": 6701, "Ġseconds": 6702, "Watch": 6703, "$.": 6704, "GetValue": 6705, "Decoder": 6706, "poll": 6707, "olid": 6708, "dk": 6709, "ipped": 6710, "previous": 6711, "ĠDEBUG": 6712, "punctuation": 6713, "BUF": 6714, "arp": 6715, "ĠĠĠĠĠĠĠĠĠĠĠĠĠĠĠĠĠĠĠĠĠĠĠĠĠĠĠĠĠĠĠĠĠĠĠĠ": 6716, "ĠBit": 6717, "åĽ": 6718, "Strings": 6719, "Abstract": 6720, "Notification": 6721, "allowed": 6722, "uuid": 6723, "pawn": 6724, "Ġsm": 6725, "Jo": 6726, "atible": 6727, "Ġep": 6728, "wc": 6729, "likely": 6730, "Ġyear": 6731, "ĠEN": 6732, "Ġdom": 6733, "Support": 6734, "Distance": 6735, "ĠInter": 6736, "ZER": 6737, "parsed": 6738, "Ġbelow": 6739, "prevent": 6740, "Encoder": 6741, "FIELD": 6742, "ĠTry": 6743, "cities": 6744, "Ġdt": 6745, "Execution": 6746, "ordinate": 6747, "otion": 6748, "Ġarea": 6749, "Ġng": 6750, "ĠCommand": 6751, "ij": 6752, "omatic": 6753, "ĠNet": 6754, "Transport": 6755, "Coll": 6756, "ĠNum": 6757, "Ctx": 6758, "Syntax": 6759, "messages": 6760, "Dom": 6761, "TL": 6762, "BD": 6763, "ulation": 6764, "Ġrest": 6765, "ĠQuery": 6766, "cloud": 6767, "Ġdetails": 6768, "scal": 6769, "xF": 6770, "github": 6771, "Ġcorresponding": 6772, "[(": 6773, "Qual": 6774, "Ġ'\\\\": 6775, "/%": 6776, "Ġgu": 6777, "Mat": 6778, "Ġpreg": 6779, "toLowerCase": 6780, "Lat": 6781, "Ġwin": 6782, "PK": 6783, "_;": 6784, "SizeIn": 6785, "ven": 6786, "database": 6787, "Ġstored": 6788, "}},": 6789, "(\"[": 6790, "FUNCTION": 6791, "stmt": 6792, "500": 6793, "getElement": 6794, "Ġterm": 6795, "rout": 6796, "Ġrole": 6797, "crtc": 6798, "met": 6799, ")):": 6800, "Ġpaths": 6801, "()[": 6802, "Ġrequests": 6803, "Drag": 6804, "ĠWHERE": 6805, "period": 6806, "LINK": 6807, "Ġamount": 6808, "ĠIllegal": 6809, "ĠState": 6810, "Ġnever": 6811, "FOR": 6812, "quare": 6813, "Ġil": 6814, "ĠSE": 6815, "Contact": 6816, "Ġcert": 6817, "UX": 6818, "\"\\": 6819, "(',": 6820, "SHORT": 6821, "Ġbranch": 6822, "andling": 6823, "created": 6824, "Ġreceived": 6825, "bf": 6826, "cu": 6827, "Delta": 6828, "Ve": 6829, "Ġargc": 6830, "Ġisn": 6831, "81": 6832, "Ġstandard": 6833, "Declaration": 6834, "Named": 6835, "ĠStatus": 6836, "RST": 6837, "Ġ(&": 6838, "Ġspecify": 6839, "chars": 6840, "RF": 6841, "Ġ'--": 6842, "Ġ){": 6843, "SPE": 6844, "ĠBoolean": 6845, "Separator": 6846, "Ġ60": 6847, "ensitive": 6848, "Ġbrowser": 6849, "Ġowner": 6850, "Const": 6851, "AW": 6852, "Ġnote": 6853, "features": 6854, "snippet": 6855, "Ġclasses": 6856, "ClassName": 6857, "alance": 6858, "xt": 6859, "ĠMod": 6860, "Cookie": 6861, "vt": 6862, "æĹ": 6863, "NG": 6864, "aped": 6865, "hb": 6866, "Ġalpha": 6867, "ĠAll": 6868, "TABLE": 6869, "RESS": 6870, "constraint": 6871, "Ca": 6872, "]).": 6873, "cipher": 6874, "ousel": 6875, "program": 6876, "Ġvol": 6877, "onical": 6878, "ĠClient": 6879, "Ġshared": 6880, "provider": 6881, "Ġsegment": 6882, "iB": 6883, "Skip": 6884, "dup": 6885, "Ġsupp": 6886, "Created": 6887, "wa": 6888, "FAI": 6889, "ĠĠĠĠĠĠĠĠĠĠĠĠĠĠĠĠĠĠĠĠĠĠĠĠĠĠĠĠĠĠĠĠĠĠĠĠĠĠ": 6890, "512": 6891, "ĉĉĉĠĠĠĠĠ": 6892, "ĠItem": 6893, "Ġdistance": 6894, "andidate": 6895, "picker": 6896, "è¡": 6897, "73": 6898, "touch": 6899, "cq": 6900, "roadcast": 6901, "stanti": 6902, "!\");": 6903, "WARNING": 6904, "LENGTH": 6905, "refresh": 6906, "Ġresolve": 6907, "lour": 6908, "ä½": 6909, "ferences": 6910, "correct": 6911, "als": 6912, "gpu": 6913, "Req": 6914, "Ġwp": 6915, "VB": 6916, "gu": 6917, "Ġ));": 6918, "reserve": 6919, "Cert": 6920, "Other": 6921, "ĠImp": 6922, "ĠTarget": 6923, "------------------------": 6924, "RESET": 6925, "Light": 6926, "coming": 6927, "Ġfp": 6928, "LOBAL": 6929, "termine": 6930, "Blocks": 6931, "ATCH": 6932, "Amount": 6933, "cycle": 6934, "activate": 6935, "Surface": 6936, "assertSame": 6937, "Ġaccept": 6938, "bitmap": 6939, "::_": 6940, "'\\": 6941, "QString": 6942, "Ġ!(": 6943, "Metrics": 6944, "mult": 6945, "ja": 6946, "ĠOnly": 6947, "DU": 6948, "Ġwidget": 6949, "Ġmany": 6950, "pn": 6951, "Ġendl": 6952, "Varint": 6953, "Ġdisabled": 6954, "Overflow": 6955, "patch": 6956, "tcp": 6957, "AE": 6958, "ãĢĤ": 6959, "Camera": 6960, "Certificate": 6961, "Diagnost": 6962, "(((": 6963, "sect": 6964, "erved": 6965, "ĠBe": 6966, "ĠMC": 6967, "INDEX": 6968, "ToolStrip": 6969, "Place": 6970, "FAILED": 6971, "lb": 6972, "({},": 6973, "ĠUtil": 6974, "raction": 6975, "highlight": 6976, "Ġsorted": 6977, "Scan": 6978, "))|": 6979, "Metric": 6980, "Qt": 6981, "]/": 6982, "Buff": 6983, "tection": 6984, "ĠMo": 6985, "LP": 6986, "cls": 6987, "EEE": 6988, "cred": 6989, "Logical": 6990, "gy": 6991, "vocation": 6992, "Dispatch": 6993, "uding": 6994, "SYNC": 6995, "Ġown": 6996, "week": 6997, "Ġtrim": 6998, "Ġoperator": 6999, "ĠCPU": 7000, "Ġ'$": 7001, "Ġkind": 7002, "Ġstatement": 7003, "Ġround": 7004, "upport": 7005, "Ġtake": 7006, "ĠTem": 7007, "mx": 7008, "pix": 7009, "Old": 7010, "ti": 7011, "dynamic": 7012, "ĠMax": 7013, "(\"-": 7014, "Clip": 7015, "ĠREG": 7016, "finish": 7017, "acc": 7018, "Ġhook": 7019, "ç»": 7020, "irqrestore": 7021, "Rest": 7022, "extract": 7023, "ANT": 7024, "emitter": 7025, "Ġhex": 7026, "Ġallocate": 7027, "ployment": 7028, "setAttribute": 7029, "Ctrl": 7030, "udit": 7031, "Ġsync": 7032, "EQUAL": 7033, "good": 7034, "ĠRuntime": 7035, "Bucket": 7036, "ratch": 7037, "Ġcalling": 7038, "Ġvalidation": 7039, "Ġencoded": 7040, "priority": 7041, "yaml": 7042, "__(": 7043, "Ġwrong": 7044, "URAL": 7045, "Ġpower": 7046, "Ġpending": 7047, "''": 7048, "Contract": 7049, "++){": 7050, "Ġ128": 7051, "ascript": 7052, "Ġdd": 7053, "vals": 7054, "cN": 7055, "Ġ\"$": 7056, "blob": 7057, "endl": 7058, "Ġroute": 7059, "--)": 7060, "Mgr": 7061, "Browser": 7062, "Ġless": 7063, "Checker": 7064, "Verify": 7065, "enar": 7066, "schedule": 7067, "Ġmerge": 7068, "Ġsynchron": 7069, "ĠUI": 7070, "Ġfetch": 7071, "cpi": 7072, "Missing": 7073, "ICB": 7074, "blank": 7075, "abilities": 7076, "DOWN": 7077, "Ġunknown": 7078, "ĠCollection": 7079, "rok": 7080, "Dict": 7081, "ĠAV": 7082, "dirname": 7083, "Ġsaved": 7084, "initialize": 7085, "Ġ1024": 7086, "ĠClear": 7087, "Formatter": 7088, "pag": 7089, "Ġconstraint": 7090, "udo": 7091, "FAILURE": 7092, "Ġhr": 7093, "LC": 7094, "want": 7095, "ĠOtherwise": 7096, "gers": 7097, "ĠassertTrue": 7098, "gre": 7099, "Ġ\"\\\\": 7100, "Ġwrap": 7101, "Ġweek": 7102, "IPT": 7103, "External": 7104, "uintptr": 7105, "Destroy": 7106, "Inspector": 7107, "Assembly": 7108, "Wrap": 7109, "actions": 7110, "psz": 7111, "Ġstats": 7112, "Imm": 7113, "evt": 7114, "ocker": 7115, "endpoint": 7116, "cheduler": 7117, "avascript": 7118, "operation": 7119, "Mirror": 7120, "loading": 7121, "oon": 7122, "Ġwritten": 7123, "Art": 7124, "Ġtile": 7125, "SPACE": 7126, "scribe": 7127, "Ġ\"\");": 7128, "Ġyaml": 7129, "primary": 7130, "!\\": 7131, "MAR": 7132, "HY": 7133, "Contents": 7134, "ĠĠĠĠĠĠĠĠĠĠĠĠĠĠĠĠĠĠĠĠĠĠĠĠĠĠĠĠĠĠĠĠĠĠĠĠĠĠĠĠĠĠĠĠĠĠĠ": 7135, "zd": 7136, "ĉĠĠĠĠĠĠ": 7137, "wq": 7138, "Sl": 7139, "pdata": 7140, "ĠStream": 7141, "Ġsignature": 7142, "Ġproduct": 7143, "compiler": 7144, "Ġtc": 7145, "Lang": 7146, "Ġoptim": 7147, "'][": 7148, "Ġemail": 7149, "Paths": 7150, "Sys": 7151, "pow": 7152, "gest": 7153, "Stmt": 7154, "Exist": 7155, "ircle": 7156, "ĠPLURAL": 7157, "CG": 7158, "Touch": 7159, "*>(": 7160, "Opts": 7161, "Ipv": 7162, "ibling": 7163, "ĠConstant": 7164, "Ġnegative": 7165, "volume": 7166, "mV": 7167, "getData": 7168, "SEL": 7169, "tuple": 7170, "Ġmean": 7171, "ĠFIX": 7172, "tbl": 7173, "Extra": 7174, "getParent": 7175, "LONG": 7176, "ismatch": 7177, "Ġretval": 7178, "Tex": 7179, "plugins": 7180, "ively": 7181, "Dimension": 7182, "Ġ\"\")": 7183, "world": 7184, "Ġcases": 7185, "ĉĉĉĉĉĉĉĉĉ": 7186, "Present": 7187, "TestCase": 7188, "Login": 7189, "Ġendpoint": 7190, "Where": 7191, "Initialize": 7192, "Library": 7193, "ron": 7194, "Could": 7195, "Ġprofile": 7196, "NaN": 7197, "sess": 7198, "79": 7199, "frag": 7200, "Ġbottom": 7201, "voice": 7202, "radius": 7203, "ĉĉĉĉĊ": 7204, "Ġchip": 7205, "ĠGoogle": 7206, "ĠPl": 7207, "Ġgp": 7208, "fire": 7209, "DED": 7210, "Hook": 7211, "Export": 7212, "Used": 7213, "Ġworld": 7214, "transfer": 7215, "xe": 7216, "tty": 7217, "question": 7218, "Resolver": 7219, "REAM": 7220, "AMP": 7221, "hasOwnProperty": 7222, "UST": 7223, "Validator": 7224, "Ġieee": 7225, "Ġdynamic": 7226, "Ġinside": 7227, "çĶ¨": 7228, "Ġlang": 7229, "Ġproper": 7230, "pact": 7231, "Ġregisters": 7232, "FX": 7233, "missions": 7234, "GLOBAL": 7235, "ĠChar": 7236, "ipping": 7237, "Ġvo": 7238, "inux": 7239, "Ġ'{": 7240, "ĠThread": 7241, "Activ": 7242, "vertex": 7243, "des": 7244, "Ġcx": 7245, "Ġseed": 7246, "AK": 7247, "Ġsafe": 7248, "mix": 7249, "interrupt": 7250, "disk": 7251, "Ġexpr": 7252, "laim": 7253, "irty": 7254, "Ġunset": 7255, "Arr": 7256, "segment": 7257, "Factor": 7258, "enchmark": 7259, "redirect": 7260, "pping": 7261, "Ġ\"--": 7262, "preventDefault": 7263, "ae": 7264, "ĠFirst": 7265, "Ġclk": 7266, "getCurrent": 7267, "Cannot": 7268, "Ġrules": 7269, "Ġupper": 7270, "GUIC": 7271, "pexpr": 7272, "ITH": 7273, "inputs": 7274, "IsNullOr": 7275, "Ġlambda": 7276, "Ġedit": 7277, "ucce": 7278, "letion": 7279, ">\",": 7280, "Ġinputs": 7281, "VEL": 7282, "clip": 7283, "ĠMO": 7284, "ital": 7285, "Graphics": 7286, "/******/": 7287, "ĠAc": 7288, "xs": 7289, "pause": 7290, "when": 7291, "ĠMarshal": 7292, "Dynamic": 7293, "Switch": 7294, "ird": 7295, "Phys": 7296, "repeat": 7297, "need": 7298, "Bitmap": 7299, "ov": 7300, "slide": 7301, "ric": 7302, "rome": 7303, "HI": 7304, "cleanup": 7305, "amount": 7306, "Ġfil": 7307, "Ġdetermine": 7308, "Secret": 7309, "Alignment": 7310, "ĠTEST": 7311, "identifier": 7312, "sid": 7313, "Ġcookie": 7314, "æį": 7315, "Ġpin": 7316, ">',": 7317, "XY": 7318, "Gets": 7319, "Ġinstall": 7320, "COLOR": 7321, "effect": 7322, "Ġ..": 7323, "Asset": 7324, "Ġstarting": 7325, "apon": 7326, "surface": 7327, "UNK": 7328, "browser": 7329, "Inner": 7330, "okies": 7331, "subject": 7332, "duce": 7333, "ĠTra": 7334, "ĠRef": 7335, "ĉĉĠĠĠĠ": 7336, "NV": 7337, "ĠVis": 7338, "Ġborder": 7339, "Alpha": 7340, "/************************************************************************": 7341, "Transfer": 7342, "Ġclick": 7343, "Ġfolder": 7344, "Signal": 7345, "GUICtrl": 7346, "heel": 7347, "translate": 7348, "Ġrequires": 7349, "Generate": 7350, "Ġcenter": 7351, "Ġsl": 7352, "cryption": 7353, "Ġagainst": 7354, "USH": 7355, "ittle": 7356, "ĠWindows": 7357, "radient": 7358, "ever": 7359, "para": 7360, "scape": 7361, "nc": 7362, "LTER": 7363, "illiseconds": 7364, "crypted": 7365, "Ġescape": 7366, "Apply": 7367, "123456": 7368, ".(*": 7369, "Ġlogging": 7370, "Ġgr": 7371, "Ġins": 7372, "HH": 7373, "stride": 7374, "Promise": 7375, "Ġsite": 7376, "Ġseg": 7377, "IAL": 7378, "Ġusers": 7379, "ether": 7380, "bas": 7381, "ĠAttribute": 7382, "Ġpatch": 7383, "Ġes": 7384, "cons": 7385, "SIGN": 7386, "Priv": 7387, "Ġ{},": 7388, "ENC": 7389, "uce": 7390, "Gui": 7391, "poly": 7392, "Times": 7393, "Ġenvironment": 7394, "Optional": 7395, "Ġfixed": 7396, "Ġwords": 7397, "Tokens": 7398, "RU": 7399, "ster": 7400, "agon": 7401, "Ġ40": 7402, "expand": 7403, "Ġpolicy": 7404, "ĠTable": 7405, "typ": 7406, "Ġorigin": 7407, "aries": 7408, "frames": 7409, "Ġpages": 7410, "invoke": 7411, "HOST": 7412, "ĠLook": 7413, "Ġflush": 7414, "ni": 7415, "GO": 7416, "anit": 7417, "loss": 7418, "descriptor": 7419, "eries": 7420, "sep": 7421, "When": 7422, "Ms": 7423, ")$": 7424, "hello": 7425, "Ġtim": 7426, "Ġgame": 7427, "Rl": 7428, "HEADER": 7429, "Summary": 7430, "Chars": 7431, "Ġmouse": 7432, "ĠAddress": 7433, "Ġred": 7434, "family": 7435, "compute": 7436, "West": 7437, "Ġpoly": 7438, "pkg": 7439, "ĠMatch": 7440, "Plan": 7441, "NI": 7442, "ĠMMMM": 7443, "Ġsy": 7444, "ĠNO": 7445, "team": 7446, "clusive": 7447, "Week": 7448, "Proc": 7449, "norm": 7450, "xd": 7451, "Priority": 7452, "\\\">": 7453, "flash": 7454, "listener": 7455, "ĠGET": 7456, "::~": 7457, "dimension": 7458, "Ġcancel": 7459, "=-": 7460, "score": 7461, "ault": 7462, "ĠSw": 7463, "%%": 7464, "mitted": 7465, "Labels": 7466, "Ġzip": 7467, "texture": 7468, "ATOR": 7469, "Ġdefaults": 7470, "InputStream": 7471, "Payload": 7472, "Ġnamed": 7473, "ĠPa": 7474, "Ġmulti": 7475, "article": 7476, "VALID": 7477, "fake": 7478, "inf": 7479, "cluding": 7480, "ByName": 7481, "Ġactually": 7482, "cached": 7483, "Annotation": 7484, "some": 7485, "Ġtexture": 7486, "ĠSimple": 7487, "ĠThere": 7488, "Ġtransition": 7489, "RPC": 7490, "Speed": 7491, "Ġ\":": 7492, "Ġenough": 7493, "Ip": 7494, "Unable": 7495, ")',": 7496, "POS": 7497, "ĠSec": 7498, "æł": 7499, "*\\": 7500, "pub": 7501, "Ġduration": 7502, "CONNE": 7503, "ighb": 7504, "Enter": 7505, "Suffix": 7506, "Combo": 7507, "Ġdirectly": 7508, "UTE": 7509, "Relative": 7510, "haviour": 7511, "][$": 7512, "ship": 7513, "tpl": 7514, "spy": 7515, "lying": 7516, "Ġ%#": 7517, "Ġtimestamp": 7518, "strap": 7519, ">\";": 7520, "Ġ'''": 7521, "Ġsd": 7522, "Ġcurr": 7523, "sem": 7524, "Price": 7525, "fifo": 7526, "ĠWM": 7527, "Ġwatch": 7528, "sent": 7529, "OPEN": 7530, "caps": 7531, "ZERO": 7532, "ĠPAGE": 7533, "Ġmesh": 7534, "Detail": 7535, "irmware": 7536, "HV": 7537, "GC": 7538, "rg": 7539, "ĠYou": 7540, "cli": 7541, "uv": 7542, "Ġmedia": 7543, "datetime": 7544, "Ġflow": 7545, "ĠStringBuilder": 7546, "secret": 7547, "Ġdyn": 7548, "ĠStr": 7549, "IZ": 7550, "Ġcategory": 7551, "Ġremaining": 7552, "Ġmath": 7553, "Ġsa": 7554, "ĠModel": 7555, "logy": 7556, "connected": 7557, "prob": 7558, "Fore": 7559, "Dlg": 7560, "Ġdump": 7561, "Subject": 7562, "XXXX": 7563, "Ġhappen": 7564, "big": 7565, "seek": 7566, "ĠTypeError": 7567, "bot": 7568, "Ġnv": 7569, "Serializer": 7570, "pacing": 7571, "abb": 7572, "<=": 7573, "jax": 7574, "charset": 7575, "messageInfo": 7576, "rw": 7577, "================================================================": 7578, "ulated": 7579, "ĠWait": 7580, "Ġdialog": 7581, "Side": 7582, "Ġsomething": 7583, "Ġthose": 7584, "Ident": 7585, "69": 7586, "security": 7587, "sleep": 7588, "priate": 7589, "(()": 7590, "tun": 7591, "Ġjoin": 7592, "ĠValidate": 7593, "]?": 7594, "Include": 7595, "Dispose": 7596, "Snapshot": 7597, "irqsave": 7598, "marker": 7599, "Ġwell": 7600, "Trigger": 7601, "Ġ*_": 7602, "getMock": 7603, "uest": 7604, "([\"": 7605, "ĠResource": 7606, "Ġpb": 7607, "ĠĠĠĠĠĠĠĠĠĠĠĠĠĠĠĠĠĠĠĠĠĠĠĠĠĠĠĠĠĠĠĠĠĠĠĠĠĠĠĠĠ": 7608, "partial": 7609, "Peer": 7610, "Foo": 7611, "Ġbackground": 7612, "argc": 7613, "Ap": 7614, "ĠCurrent": 7615, "CV": 7616, "ĉĉĉĉĠĠĠĠ": 7617, "Period": 7618, "Ġbucket": 7619, "Cloud": 7620, "cording": 7621, "Ġrecords": 7622, "fileName": 7623, "wake": 7624, "city": 7625, "fprintf": 7626, "Actions": 7627, "\\\\.": 7628, "isArray": 7629, "ĠURI": 7630, "Conv": 7631, "ĠFIXME": 7632, "Ð»": 7633, "rier": 7634, "Codes": 7635, "ĠShould": 7636, "culation": 7637, "Original": 7638, "Codec": 7639, "Ġimages": 7640, "Hint": 7641, "ales": 7642, "plane": 7643, "ĠĠĠĠĠĠĠĠĠĠĠĠĠĠĠĠĠĠĠĠĠĠĠĠĠĠĠĠĠĠĠĠĠĠĠĠĠĠĠĠ": 7644, "GT": 7645, "Google": 7646, "distance": 7647, "iw": 7648, "prag": 7649, "}'": 7650, "Ġcreates": 7651, "tor": 7652, "Processor": 7653, "inder": 7654, "Ly": 7655, "floor": 7656, "samples": 7657, "Ġ(($": 7658, "Accept": 7659, "ĉĠĠĠĠĠĠĠ": 7660, "Ġconversion": 7661, "ĠCur": 7662, "Bus": 7663, "RGB": 7664, "Extensions": 7665, "Ġpid": 7666, "Ġcached": 7667, "ĠExpression": 7668, "mf": 7669, "Dev": 7670, "ĠSV": 7671, "(&_": 7672, "verbose": 7673, "aching": 7674, "ĠĠĠĠĠĠĊ": 7675, "Ġperiod": 7676, "rase": 7677, "Ġpe": 7678, "Geometry": 7679, "ali": 7680, "Converter": 7681, "quival": 7682, "Tuple": 7683, "DL": 7684, "pragma": 7685, "special": 7686, "plain": 7687, "HO": 7688, "ĠAP": 7689, "++,": 7690, "dtype": 7691, "ĠWith": 7692, "ĠDep": 7693, "Classes": 7694, "Ġmm": 7695, "]\\": 7696, "VP": 7697, "Ġmanager": 7698, "Ġactiv": 7699, "Sprite": 7700, "enario": 7701, "Mail": 7702, "Ġ17": 7703, "})}": 7704, "Ġnone": 7705, "atile": 7706, "STD": 7707, "Ġjs": 7708, "Ġsepar": 7709, "seudo": 7710, "contact": 7711, "Ġbounds": 7712, "_)": 7713, "HB": 7714, "ĠiNdEx": 7715, "å¼": 7716, "Ġretry": 7717, "RW": 7718, "Ġ25": 7719, "Visual": 7720, "backdrop": 7721, "getText": 7722, "Ready": 7723, "xC": 7724, "Ġstride": 7725, "Ġclone": 7726, "Sym": 7727, "NUMBER": 7728, "Ġexact": 7729, "Ġbinding": 7730, "Worker": 7731, "relative": 7732, "sender": 7733, "Describe": 7734, "blue": 7735, "embed": 7736, "$_": 7737, "interpret": 7738, "currency": 7739, ">&": 7740, "dirfd": 7741, "QUE": 7742, "Ġspeed": 7743, "GPIO": 7744, "ells": 7745, "FRAME": 7746, "\"):": 7747, "dirty": 7748, "Ord": 7749, "EventHandler": 7750, "ota": 7751, "arrow": 7752, "csi": 7753, "SCRIPT": 7754, "ets": 7755, "Ġanimation": 7756, "Ġexplicit": 7757, "Strategy": 7758, "Ġalias": 7759, "BI": 7760, ",{": 7761, "getString": 7762, "sume": 7763, "Monitor": 7764, "Ġrs": 7765, "components": 7766, "scsi": 7767, "ĠAuth": 7768, "Trim": 7769, "raft": 7770, "ritical": 7771, "wrapper": 7772, "ino": 7773, "subscription": 7774, "pw": 7775, "publish": 7776, "walk": 7777, "Ġvolume": 7778, "Ġ19": 7779, "Ġadjust": 7780, "PLAY": 7781, "alan": 7782, "ĠEnable": 7783, "suffix": 7784, "preg": 7785, "times": 7786, "SF": 7787, "IntPtr": 7788, "WID": 7789, "Ġ[('": 7790, "zy": 7791, "ACTION": 7792, "CONT": 7793, "sha": 7794, "ysql": 7795, "pires": 7796, "Ġhelper": 7797, "fast": 7798, "ĠProperty": 7799, "coll": 7800, "Ġknown": 7801, "ĠSearch": 7802, "/.": 7803, "maj": 7804, "OutputStream": 7805, "Tensor": 7806, "Ġtermin": 7807, "pll": 7808, "DELETE": 7809, "Ġvertex": 7810, "Ġorig": 7811, "links": 7812, "cam": 7813, "price": 7814, "comments": 7815, "cision": 7816, "Ġprevent": 7817, "Ġprocessing": 7818, "Gu": 7819, "ĠCo": 7820, "ĠIntPtr": 7821, "ĠSY": 7822, "mean": 7823, ".\")": 7824, "Ġchecks": 7825, "Ġmodified": 7826, "DN": 7827, "Sig": 7828, "cpp": 7829, "NullException": 7830, "normalize": 7831, "Ġpartial": 7832, "LEVEL": 7833, "\"];": 7834, "Relation": 7835, "Blob": 7836, "Ġ18": 7837, "Padding": 7838, "mgr": 7839, "unmap": 7840, "riend": 7841, "deon": 7842, "Ñı": 7843, "Received": 7844, "ĠExample": 7845, "Ġregistered": 7846, "Ġexecution": 7847, "Notify": 7848, "Mapper": 7849, "fh": 7850, "Force": 7851, "Ġalgorithm": 7852, "ĠPython": 7853, "âĢĶ": 7854, "Ġtakes": 7855, "answer": 7856, "MAGE": 7857, "ĠLink": 7858, "folding": 7859, "git": 7860, "+-": 7861, "Aggreg": 7862, "ĠDon": 7863, "ĠSpec": 7864, "CACHE": 7865, "Ġ&$": 7866, "ajax": 7867, "Ġdel": 7868, "charAt": 7869, "Ġrestore": 7870, "Expect": 7871, "Called": 7872, "ye": 7873, "Ġbasic": 7874, "ODEV": 7875, "600": 7876, "mF": 7877, "Resolve": 7878, "branch": 7879, "intr": 7880, "ĠUint": 7881, "SN": 7882, "Radius": 7883, "Ġ(;": 7884, "assertFalse": 7885, "'ll": 7886, "WV": 7887, "isValid": 7888, "Serialize": 7889, "æĺ¯": 7890, "shadow": 7891, "ĠMage": 7892, "ĠARM": 7893, "Pending": 7894, "lapsed": 7895, "ĠSto": 7896, "Ġangle": 7897, "inv": 7898, "Ġcho": 7899, "Ġappropriate": 7900, "Ġ42": 7901, "ITION": 7902, "Extract": 7903, "Pay": 7904, "ĠFormat": 7905, "ĠSelect": 7906, "Heap": 7907, "Ġreject": 7908, "ised": 7909, "Dist": 7910, "USED": 7911, "LOW": 7912, "Loaded": 7913, "ping": 7914, "Ġetc": 7915, "Ġtw": 7916, "à®": 7917, "Ġnumbers": 7918, "nic": 7919, "MODULE": 7920, "override": 7921, "Ġattrs": 7922, "ĠSET": 7923, "Dot": 7924, "Ġyy": 7925, "Ġ----------": 7926, "åľ": 7927, "Ġdeleted": 7928, "*)(": 7929, "Zend": 7930, "rem": 7931, "codes": 7932, "Clean": 7933, "Ġbin": 7934, "grad": 7935, "åıĸ": 7936, "lk": 7937, "Instances": 7938, "Book": 7939, "Ð²": 7940, "Ġquote": 7941, "ĠIter": 7942, "OperationException": 7943, "Ġĉ": 7944, "encoded": 7945, "Ġrb": 7946, "ĠNV": 7947, "400": 7948, "lare": 7949, "ventory": 7950, "Branch": 7951, "drag": 7952, "åº": 7953, "Primary": 7954, "ox": 7955, "tensor": 7956, "Ġbig": 7957, "Ġir": 7958, "Ġrtl": 7959, "yyyy": 7960, "MX": 7961, "Ġnr": 7962, "ï¿": 7963, "Ġignored": 7964, "Ġ(-": 7965, "incip": 7966, "Ġitself": 7967, "ĠERROR": 7968, "Ġtok": 7969, "Safe": 7970, "Ġlibrary": 7971, "Ġarrays": 7972, "Runner": 7973, "('_": 7974, "swap": 7975, ">()": 7976, "Ġ':": 7977, "TLS": 7978, "cols": 7979, "Ġmer": 7980, "insn": 7981, "ĠON": 7982, "ĠWork": 7983, "overflow": 7984, "Refresh": 7985, "Ġwrapper": 7986, "Ġoperations": 7987, "customer": 7988, "UnexpectedEOF": 7989, "unlikely": 7990, "substream": 7991, "igration": 7992, "ROW": 7993, "fade": 7994, "ĠĠĠĠĠĠĠĠĠĠĠĠĠĠĠĠĊ": 7995, "uous": 7996, "Ġcommands": 7997, "Nullable": 7998, "most": 7999, "Parts": 8000, "ĠLT": 8001, "generator": 8002, "ifications": 8003, "Ġfails": 8004, "Ġcop": 8005, "sim": 8006, "ĠLine": 8007, "related": 8008, "ĠRegExp": 8009, "Fd": 8010, "Ġkw": 8011, "peated": 8012, "Pref": 8013, "COMPARE": 8014, "oct": 8015, "((*": 8016, "zalloc": 8017, "illis": 8018, "wire": 8019, "asy": 8020, "indices": 8021, "Ġ'/'": 8022, "tid": 8023, "Defaults": 8024, "ErrUnexpectedEOF": 8025, "Ġexplode": 8026, "onal": 8027, "rgb": 8028, "ores": 8029, "icator": 8030, "radio": 8031, "atient": 8032, "Master": 8033, "Ġmaster": 8034, "Chart": 8035, "Ġtyp": 8036, "Ġtre": 8037, "127": 8038, "Series": 8039, "ĠSave": 8040, "ĠERR": 8041, "ially": 8042, "GroupName": 8043, "mg": 8044, "WM": 8045, "BAD": 8046, "Absolute": 8047, "Canvas": 8048, "ĠGenerate": 8049, "erialize": 8050, "Ġinterval": 8051, "Ġindices": 8052, "ĉĉĉĉĠĠĠĠĠĠ": 8053, "bum": 8054, "ĠPack": 8055, "Weight": 8056, "Ġfuture": 8057, "789": 8058, "Ġdes": 8059, "Perform": 8060, "Ġauthor": 8061, "generic": 8062, "ĉĉĠĠĠĠĠ": 8063, "ANGE": 8064, "xD": 8065, "multip": 8066, "ï¿½": 8067, "lev": 8068, "uby": 8069, "BUS": 8070, "setText": 8071, "ĠSL": 8072, "MBB": 8073, "Reply": 8074, "agraph": 8075, "history": 8076, "ĠDocument": 8077, "basic": 8078, "Ġannot": 8079, "Ġcv": 8080, "\"])": 8081, "download": 8082, "AIL": 8083, "PG": 8084, "hour": 8085, "Writ": 8086, "tooltip": 8087, "Small": 8088, "getNum": 8089, "Inte": 8090, "Low": 8091, "lv": 8092, "Shell": 8093, "Ġrand": 8094, "ynth": 8095, "ATH": 8096, "wt": 8097, "xb": 8098, "locked": 8099, "Println": 8100, "Ġforward": 8101, "FLOAT": 8102, "ĠPromise": 8103, "æī": 8104, "Ġtransfer": 8105, "Zip": 8106, "sector": 8107, "ĠPos": 8108, "ano": 8109, "Final": 8110, "allen": 8111, "provide": 8112, "Customer": 8113, "ateway": 8114, "uncate": 8115, "VERIFY": 8116, "ORE": 8117, "Ġsummary": 8118, "Shadow": 8119, "ByteArray": 8120, "prod": 8121, "icense": 8122, "canvas": 8123, "Ġpeer": 8124, "ka": 8125, "reason": 8126, "EDIT": 8127, "Completed": 8128, "STREAM": 8129, "RB": 8130, "erase": 8131, "Endian": 8132, "Ġ\"{": 8133, "Margin": 8134, "FilePath": 8135, "regist": 8136, "Ġdf": 8137, "Ġplay": 8138, "running": 8139, "reverse": 8140, "Compiler": 8141, "eno": 8142, "mid": 8143, "oring": 8144, "Upload": 8145, "ä»¶": 8146, "amma": 8147, "Ġcleanup": 8148, "Pag": 8149, "Ġexternal": 8150, "RG": 8151, "parentNode": 8152, "ĠNow": 8153, "Allowed": 8154, "Ġassum": 8155, "ĠSign": 8156, "ism": 8157, "ENODEV": 8158, "Ġgenerator": 8159, "Power": 8160, "ĠInd": 8161, "Holder": 8162, "reflect": 8163, "best": 8164, "iding": 8165, "Ġpref": 8166, "Disable": 8167, "ĠLocal": 8168, "stit": 8169, "decimal": 8170, "Scheme": 8171, "aise": 8172, "You": 8173, "ĠContent": 8174, "AIN": 8175, "activity": 8176, "Members": 8177, "vr": 8178, "East": 8179, "Ġgets": 8180, "Ġdi": 8181, "topic": 8182, "Unique": 8183, "Ġimmediate": 8184, "processor": 8185, "Ġgoogle": 8186, "Ġlocale": 8187, "ĠEditor": 8188, "Ġsuccessful": 8189, "Ġjo": 8190, "nx": 8191, "(\",": 8192, "915": 8193, "Ġord": 8194, "ĠKEY": 8195, "ilation": 8196, "APP": 8197, "carousel": 8198, "FROM": 8199, "IndexOf": 8200, "SSAGE": 8201, "Org": 8202, "EF": 8203, "Ġeval": 8204, "sun": 8205, "Dll": 8206, "TypeId": 8207, "POINT": 8208, "ĠMain": 8209, "Ġ^=": 8210, "ifact": 8211, "ĠUTF": 8212, "Ġextends": 8213, "tagName": 8214, "Wnd": 8215, "fit": 8216, "Ġseries": 8217, "IsTrue": 8218, "present": 8219, "\"><": 8220, "AAAAAAAAAAAAAAAA": 8221, "vention": 8222, "Ġcreating": 8223, "192": 8224, "Ġnd": 8225, "Ġsoft": 8226, "Sm": 8227, "MONTH": 8228, "Ġpp": 8229, "Regex": 8230, "ĠARRAY": 8231, "Quote": 8232, "character": 8233, "Ġreceive": 8234, "moment": 8235, "Ġdisk": 8236, "Ġautomatic": 8237, "wind": 8238, "saved": 8239, "Paint": 8240, "Ġ]);": 8241, "Shift": 8242, "rain": 8243, "')])": 8244, "TabIndex": 8245, "////////////////////////////////////////////////////////////////": 8246, "ĠINT": 8247, "Lua": 8248, "ctr": 8249, "sWith": 8250, "Seq": 8251, "Fetch": 8252, "dataset": 8253, "Ġissue": 8254, "LK": 8255, "IsNullOrEmpty": 8256, "pdf": 8257, "Cho": 8258, "Curve": 8259, "Ġredirect": 8260, "[])": 8261, "ĠPage": 8262, "CEPT": 8263, "Ġclosed": 8264, "calc": 8265, "details": 8266, "Ġreading": 8267, "éĢ": 8268, "gered": 8269, "OPTION": 8270, "Ġdataset": 8271, "scheme": 8272, ")]],": 8273, "ToolStripMenuItem": 8274, "ĠNext": 8275, "mul": 8276, "Ġbitmap": 8277, "\\.": 8278, "Ġul": 8279, "ĠVerify": 8280, "ĠRect": 8281, "ĠGroup": 8282, "Ġusername": 8283, "_);": 8284, "Ġdot": 8285, "ĉĉĉĉĠĠĠĠĠ": 8286, "Ġest": 8287, "vered": 8288, "WOR": 8289, "Ġ}).": 8290, "INPUT": 8291, "ĠĠĠĊ": 8292, "Visibility": 8293, "SUPPORT": 8294, "Ġtouch": 8295, "ericht": 8296, "Ġextern": 8297, "Jl": 8298, "Ġhit": 8299, "mux": 8300, "ope": 8301, "grp": 8302, "________": 8303, "RES": 8304, "/\",": 8305, "0627": 8306, "}).": 8307, "quivalent": 8308, "rief": 8309, "MAN": 8310, "Ã¡": 8311, "cour": 8312, "Ġparsing": 8313, "More": 8314, "mv": 8315, "Ġconv": 8316, "home": 8317, "ligh": 8318, "ĠOR": 8319, "cesses": 8320, "FUNC": 8321, "bank": 8322, "lems": 8323, "ĠUINT": 8324, "ĠAb": 8325, "asing": 8326, "ĠFrame": 8327, "White": 8328, "âĢĶâĢĶ": 8329, "0000000000000000000000000000000000000000000000000000000000000000000000000000000000000000000000000000000000000000000000000000000000000000000000000000000000000000000000000000000000000000000000000000000000000000000000000000000000000000000000000000000000000000": 8330, "å½": 8331, "Coord": 8332, "ĠMT": 8333, "Ġreply": 8334, "ORDER": 8335, "binding": 8336, "EqualTo": 8337, "Indices": 8338, "Reason": 8339, "Ġ31": 8340, "GetString": 8341, "popover": 8342, "/*!": 8343, "FG": 8344, "Ġready": 8345, "Ġcalculate": 8346, "ĠIEnumerable": 8347, ".%": 8348, "uf": 8349, "urnal": 8350, "ĠModule": 8351, "Ġmemcpy": 8352, "lared": 8353, "Ġturn": 8354, "istri": 8355, "ĠEntity": 8356, "wg": 8357, "Ġpartition": 8358, "destination": 8359, "Ġsamples": 8360, "Download": 8361, "Ġgroups": 8362, "FILTER": 8363, "ĠBIT": 8364, "ĠclassName": 8365, "may": 8366, "Ġlin": 8367, "ĠMin": 8368, "SCII": 8369, "Compute": 8370, ".)": 8371, "ç½": 8372, "iggered": 8373, "suite": 8374, "Unmarshaller": 8375, "Ġic": 8376, "UPDATE": 8377, "Ġcar": 8378, "ĠGlobal": 8379, "iffies": 8380, "dep": 8381, "posite": 8382, "Ġcause": 8383, "Ġ23": 8384, "series": 8385, "Ġremo": 8386, "ARCH": 8387, "amage": 8388, "ĠAny": 8389, "ĠPh": 8390, "tolower": 8391, "Li": 8392, "DX": 8393, "llvm": 8394, "cores": 8395, "Listeners": 8396, "Tip": 8397, "Press": 8398, "\"){": 8399, "animation": 8400, "(`": 8401, "Capture": 8402, "OLD": 8403, "capture": 8404, "vg": 8405, "RETURN": 8406, "Running": 8407, "abort": 8408, "Hello": 8409, "101": 8410, "stringify": 8411, "VS": 8412, "ĠApplication": 8413, "æį®": 8414, "Ġreceiver": 8415, "Feed": 8416, "archive": 8417, "Ġchecked": 8418, "BITS": 8419, "ĠBig": 8420, "å¯": 8421, "TIMEOUT": 8422, "Ġweight": 8423, "bundle": 8424, "trfs": 8425, "ĠĠĠĠĠĠĠĠĠĠĠĠĠĠĠĠĠĠĠĠĠĠĠĠĠĠĠĠĠĠĠĠĠĠĠĠĠĠĠĠĠĠ": 8426, "Ġ\"(": 8427, "Ġaccording": 8428, "Ġallows": 8429, "services": 8430, "Clause": 8431, "aling": 8432, "Ġ~(": 8433, "Users": 8434, "Talk": 8435, "Ġsuffix": 8436, "Ġlarge": 8437, "adjust": 8438, "sources": 8439, "ĠNe": 8440, "addEventListener": 8441, "[_": 8442, "ĠCustom": 8443, "Flush": 8444, "ĠMAC": 8445, "Pur": 8446, "Ġvisible": 8447, "Ġtick": 8448, "Ġoverflow": 8449, "Percent": 8450, "Ġabsolute": 8451, "Algorithm": 8452, "ä¸Ģ": 8453, "Ġdx": 8454, "Commit": 8455, "ĠAST": 8456, "dummy": 8457, "Initial": 8458, "PROM": 8459, "guid": 8460, "[[": 8461, "ĠLong": 8462, "Ġaudio": 8463, "decoder": 8464, "Ġcomponents": 8465, "Ġrepresenting": 8466, "}{": 8467, "Css": 8468, "ĠTX": 8469, "baz": 8470, "Forward": 8471, "Ġnorm": 8472, "Ġwriting": 8473, "iface": 8474, "TM": 8475, "valueOf": 8476, "ampler": 8477, "ENTRY": 8478, "idual": 8479, "ARM": 8480, "Ġfl": 8481, "Partial": 8482, "ĠSND": 8483, "Ġnested": 8484, "Ġ\"</": 8485, "erived": 8486, "missing": 8487, "inator": 8488, "Rotation": 8489, "gem": 8490, "generated": 8491, "ained": 8492, "BasicBlock": 8493, "ANY": 8494, "Ġds": 8495, "Schedule": 8496, "pref": 8497, "CURRE": 8498, "Io": 8499, "Pin": 8500, "Ġinvok": 8501, "ĉĉĉĉĉĠ": 8502, "acl": 8503, "HANDLE": 8504, "identity": 8505, "0000000": 8506, ")\");": 8507, ">\");": 8508, "Ġprimary": 8509, "Ġaround": 8510, "Ġcrypto": 8511, "ĠCR": 8512, "Ġgeneric": 8513, "ĠCentral": 8514, "updated": 8515, "Tim": 8516, "cture": 8517, "dll": 8518, "Ġcoll": 8519, "Ġnumpy": 8520, "ajor": 8521, "'d": 8522, "Loading": 8523, "Patch": 8524, "ĠLLVM": 8525, "============": 8526, "IOType": 8527, "'][$": 8528, "Keep": 8529, "Ġproc": 8530, "aking": 8531, "Ġsecurity": 8532, "Ġanything": 8533, "Ġ??": 8534, "white": 8535, "Ġmultip": 8536, "Mg": 8537, "band": 8538, "BS": 8539, "iq": 8540, "TestMethod": 8541, "getClass": 8542, "validator": 8543, "ĠBasic": 8544, "INST": 8545, "Ġsuite": 8546, "ros": 8547, "ĠDraw": 8548, "ĠRed": 8549, "SEP": 8550, "Ġdecimal": 8551, "Hz": 8552, "bio": 8553, "/'": 8554, "ĠHas": 8555, "have": 8556, "detail": 8557, "INTE": 8558, "ĠVM": 8559, "WAIT": 8560, "wi": 8561, "667": 8562, "ĠVersion": 8563, "Ġphy": 8564, "devices": 8565, "NEW": 8566, "ĠMVT": 8567, "usr": 8568, "disp": 8569, "Ġfilters": 8570, "iov": 8571, "Ġ'&": 8572, "vcpu": 8573, "lan": 8574, "CID": 8575, "Ġwalk": 8576, "km": 8577, "validation": 8578, "æĸĩ": 8579, "Ġssize": 8580, "xfer": 8581, "Ġib": 8582, "Ġinstances": 8583, "Ġdue": 8584, "ĠFilter": 8585, "('-": 8586, "visit": 8587, "Brush": 8588, "xfs": 8589, "Ġlim": 8590, "Retry": 8591, "lemented": 8592, "Mutex": 8593, "jb": 8594, "threshold": 8595, "åį": 8596, "ĠDictionary": 8597, "SizeInGB": 8598, "LEMENT": 8599, "//-----------------------------------------------------------------------------": 8600, "-%": 8601, "ably": 8602, "perm": 8603, "mous": 8604, "connector": 8605, "BAB": 8606, "Ġframes": 8607, "sembler": 8608, "anchor": 8609, "NOWN": 8610, "Install": 8611, ";)": 8612, "ensity": 8613, "Ġzone": 8614, "Ġhandled": 8615, "ĠHex": 8616, "failure": 8617, "getNode": 8618, "Enumerator": 8619, "Pane": 8620, "Ġ[]*": 8621, "umbn": 8622, "efficient": 8623, "strong": 8624, "Calendar": 8625, "FACE": 8626, "ĠMemory": 8627, "Keyword": 8628, "crease": 8629, "Ġchannels": 8630, "Ġrelated": 8631, "startswith": 8632, "LF": 8633, "Ġcomments": 8634, "ĠInsert": 8635, "insic": 8636, "Ġscalar": 8637, "Ġarchive": 8638, "finity": 8639, "ONT": 8640, "minor": 8641, "TMP": 8642, "ĠGUI": 8643, "ILD": 8644, "errupts": 8645, "Tasks": 8646, "ĠAlloc": 8647, "Ġminimum": 8648, "ters": 8649, "qr": 8650, "opcode": 8651, "BP": 8652, "ĠExp": 8653, "Accessor": 8654, "onymous": 8655, "CTOR": 8656, "Sim": 8657, "Many": 8658, "800": 8659, "Ġmodify": 8660, "ĠGraph": 8661, "registry": 8662, "ityEngine": 8663, "ically": 8664, "ograph": 8665, "framework": 8666, "Tmp": 8667, "AAA": 8668, "Ġconstruct": 8669, "Hub": 8670, "Ġfeatures": 8671, "Ġmet": 8672, "Ġcomm": 8673, "small": 8674, "Ġrec": 8675, "Ġpsz": 8676, "Round": 8677, "sensor": 8678, "anization": 8679, "lee": 8680, "1024": 8681, "EIO": 8682, "mine": 8683, "Popup": 8684, "Ġallocated": 8685, "servable": 8686, "ĠSymbol": 8687, "Tables": 8688, "BN": 8689, "digest": 8690, "Ġqual": 8691, "ilar": 8692, "SESSION": 8693, "GIN": 8694, "scalar": 8695, "ErrorCode": 8696, "ĠRecord": 8697, "Ã©": 8698, "=\"'": 8699, "Ġ'.$": 8700, "typeparam": 8701, "Ðº": 8702, "oline": 8703, "worker": 8704, "Two": 8705, "regmap": 8706, "inherits": 8707, "LEFT": 8708, "lator": 8709, "ToArray": 8710, "aves": 8711, "Ġkeyword": 8712, "ĠACE": 8713, "Ġctrl": 8714, "Ġvf": 8715, "CLO": 8716, "aaaaaaaaaaaaaaaa": 8717, "viders": 8718, "uk": 8719, "ĠPost": 8720, "library": 8721, "DWORD": 8722, "Ġagg": 8723, "atter": 8724, "Lex": 8725, "EMP": 8726, "Ġva": 8727, "achable": 8728, "ĠRange": 8729, "Matches": 8730, "cid": 8731, "Horizontal": 8732, "Particle": 8733, "LM": 8734, "Changes": 8735, "major": 8736, "linear": 8737, "Ġ!$": 8738, "(\"{": 8739, "Ġdeep": 8740, "oi": 8741, "ndef": 8742, "Rout": 8743, "Ġconverted": 8744, "Ġcnt": 8745, "Ġcanvas": 8746, "Theme": 8747, "Ġdestroy": 8748, "dif": 8749, "Clock": 8750, "uzz": 8751, "Qk": 8752, "Ġpol": 8753, "ĠwireType": 8754, "Ġhidden": 8755, "Ġprom": 8756, "xA": 8757, "ĠcancellationToken": 8758, "ulse": 8759, "forward": 8760, "Ġexport": 8761, "UNIT": 8762, "reserved": 8763, "Nl": 8764, "__)": 8765, "Ġplot": 8766, "TW": 8767, "hip": 8768, "Destination": 8769, "Ġtp": 8770, "ReadOnly": 8771, "Ġmachine": 8772, "lambda": 8773, "Ġring": 8774, "Ġ_.": 8775, "Example": 8776, "ctype": 8777, "Ġfactor": 8778, "AUTH": 8779, "DataType": 8780, "ĠTYPE": 8781, "Jy": 8782, "Ġabort": 8783, "ĠAL": 8784, "Eq": 8785, "PCI": 8786, "Ġ$('#": 8787, "jquery": 8788, "MESSAGE": 8789, "tools": 8790, "AUTO": 8791, "aX": 8792, "icast": 8793, "Score": 8794, "\",{": 8795, "incipal": 8796, "green": 8797, "FoldMode": 8798, "Kernel": 8799, "Ġ22": 8800, "Iss": 8801, "Ġspan": 8802, "Ġ----------------------------------------------------------------": 8803, "Ġblob": 8804, "Without": 8805, "ĠDeepCopy": 8806, "CREATE": 8807, "Sender": 8808, "(\"$": 8809, "bounds": 8810, "agento": 8811, "Ġ=================": 8812, "Ġsupplied": 8813, "targets": 8814, "062": 8815, "Partition": 8816, "javascript": 8817, "ĠBuilder": 8818, "|\"": 8819, "pod": 8820, "Defined": 8821, "promise": 8822, "orph": 8823, "\\\\\\\\": 8824, "[:,": 8825, "percent": 8826, "added": 8827, "Ġassume": 8828, "Than": 8829, "Ġdy": 8830, "brief": 8831, "Prepare": 8832, "LIMIT": 8833, "Analy": 8834, "VICE": 8835, "Mult": 8836, "ĠLO": 8837, "Utility": 8838, "ÑĮ": 8839, "Requests": 8840, "ampoline": 8841, ":\",": 8842, "IFI": 8843, "Multiple": 8844, "\\\":\\\"": 8845, "å°": 8846, "specific": 8847, "Js": 8848, ",_": 8849, "Throws": 8850, "Primitive": 8851, "South": 8852, "ĠCompute": 8853, "Conflict": 8854, "ĠSP": 8855, "2000": 8856, "Ġomp": 8857, "ZIP": 8858, "ARY": 8859, "('%": 8860, "ä¿": 8861, "Ġcharset": 8862, "lementation": 8863, "arb": 8864, "åĨ": 8865, "Ġvp": 8866, "Ġclip": 8867, "SOCK": 8868, "Ġphys": 8869, "allocate": 8870, "Ġcompleted": 8871, "ENCE": 8872, "Ġsuccessfully": 8873, "HD": 8874, "Implemented": 8875, "Ġoperand": 8876, "quant": 8877, "Ġimple": 8878, "Seg": 8879, "Ġæ": 8880, "Ġautorest": 8881, "mlink": 8882, "partition": 8883, "erms": 8884, "AMETER": 8885, "IDs": 8886, "Ġ!!": 8887, "ynchronous": 8888, "blog": 8889, "Fake": 8890, "sqrt": 8891, "Ġpriority": 8892, "ants": 8893, "erName": 8894, "éĩ": 8895, "Ġ*,": 8896, "inate": 8897, "toBe": 8898, "serted": 8899, "PLL": 8900, "CLE": 8901, "actor": 8902, "imize": 8903, "aring": 8904, "Ġverbose": 8905, "Ġgoog": 8906, "Colors": 8907, "_->": 8908, "Ġnetdev": 8909, "Ġprepare": 8910, "Ġ[{": 8911, "utation": 8912, "Ġbp": 8913, "LIB": 8914, "getC": 8915, "Wire": 8916, "Ġscore": 8917, "Outdent": 8918, "Ġops": 8919, "Azure": 8920, "Handlers": 8921, "rank": 8922, "Vol": 8923, "Ġmb": 8924, "Ġdiag": 8925, "ĠDec": 8926, "ĠMon": 8927, "Unicode": 8928, "(?=": 8929, "Ġpd": 8930, "DW": 8931, "Ġstdout": 8932, "Ġhandling": 8933, "Ġce": 8934, "foot": 8935, "tables": 8936, "åĩ": 8937, "OKEN": 8938, "gi": 8939, "Ġleg": 8940, "Disabled": 8941, "rss": 8942, "Nested": 8943, "Pt": 8944, "Ġsym": 8945, "ĠCO": 8946, "unicode": 8947, "localhost": 8948, "Ġimplemented": 8949, "(.": 8950, "osed": 8951, "Tools": 8952, "ĠEC": 8953, "Ġgreater": 8954, "Complex": 8955, "deepEqual": 8956, "Dump": 8957, "aper": 8958, "vie": 8959, "Ġworks": 8960, "1111": 8961, "oth": 8962, "Ġfinish": 8963, "stor": 8964, "Ġcommit": 8965, "monitor": 8966, "Ġ80": 8967, "ĠIllegalArgumentException": 8968, "EEK": 8969, "Ġbuffers": 8970, "EA": 8971, "ĠOffset": 8972, "Dat": 8973, "plus": 8974, "lazz": 8975, "written": 8976, "intel": 8977, ">)": 8978, "Ġacpi": 8979, "Ġattempt": 8980, "Ġlarg": 8981, "Ġinitialized": 8982, "ALIGN": 8983, "union": 8984, "ĠHeader": 8985, "Ġda": 8986, "ĠPTR": 8987, "ĠEqual": 8988, "diag": 8989, "('[": 8990, "Ġmlx": 8991, "NORM": 8992, "scene": 8993, "Ġpkg": 8994, "\"%": 8995, "Ġrespon": 8996, "Ġsubject": 8997, "pared": 8998, "phone": 8999, "ĠGame": 9000, "virt": 9001, "ĠDef": 9002, "Entities": 9003, "cepted": 9004, "sip": 9005, "repo": 9006, "ucer": 9007, "Threshold": 9008, "ĠsetTimeout": 9009, "Sem": 9010, "áŀ": 9011, "PIN": 9012, "ĠTag": 9013, "mn": 9014, "fA": 9015, "Ġhardware": 9016, "Pages": 9017, "UF": 9018, "Ġgood": 9019, "xp": 9020, "construct": 9021, "ĠInstruction": 9022, "TON": 9023, "()]": 9024, "?\\": 9025, "Ġschedule": 9026, "BF": 9027, "ious": 9028, "alg": 9029, "Extended": 9030, "extensions": 9031, "more": 9032, "boost": 9033, "TransitionEnd": 9034, "ĠNET": 9035, "ĠDevice": 9036, "DV": 9037, "python": 9038, "Ø±": 9039, "Ġproblem": 9040, "ĠDEFAULT": 9041, "ifs": 9042, "DESC": 9043, "archy": 9044, "TEMP": 9045, "cepts": 9046, "QUI": 9047, "PRI": 9048, "GP": 9049, "Ġbehavior": 9050, "Ġmt": 9051, "xffff": 9052, "commands": 9053, "ĠSO": 9054, "?.": 9055, "WER": 9056, "ĠThrow": 9057, "Ġactivity": 9058, "ĠCl": 9059, "ï¿½ï¿½": 9060, "aken": 9061, "Hit": 9062, "Ġmade": 9063, "Ġsqlite": 9064, "Collision": 9065, "YP": 9066, "variables": 9067, "aker": 9068, "Ġembed": 9069, "affix": 9070, "OutOf": 9071, "Ġunicode": 9072, "Ġstrconv": 9073, "Ġfast": 9074, "Ġactions": 9075, "ä¸į": 9076, "ç½®": 9077, "Filters": 9078, "RUN": 9079, "MULT": 9080, ")((": 9081, "ordered": 9082, "Ġ'+": 9083, "atibility": 9084, "Ġear": 9085, "\"};": 9086, "ogram": 9087, "views": 9088, "structure": 9089, "Dependency": 9090, "Ġnb": 9091, "agation": 9092, "ACH": 9093, "ISD": 9094, "ĠEnsure": 9095, "WIDTH": 9096, "mob": 9097, "getContext": 9098, "Ġstrip": 9099, "REC": 9100, "ĠPHPUnit": 9101, "Actor": 9102, "FMT": 9103, "OUTPUT": 9104, "Quest": 9105, "Ġpairs": 9106, "DIV": 9107, "ention": 9108, "RESOURCE": 9109, "Ġdevices": 9110, "remarks": 9111, "NEXT": 9112, "iomem": 9113, "TODO": 9114, "Ġdc": 9115, "ieee": 9116, "Ġuid": 9117, "shader": 9118, "ĠSouth": 9119, "colors": 9120, "Ġ{$": 9121, "ĠSkip": 9122, "=_": 9123, "STOP": 9124, "NAL": 9125, "modified": 9126, "CONNECT": 9127, "cdev": 9128, "ffffff": 9129, "NON": 9130, "Matcher": 9131, "Ġfeed": 9132, "Components": 9133, "Ste": 9134, "RATE": 9135, "prog": 9136, "resume": 9137, "Ġroutine": 9138, "VV": 9139, "(/^": 9140, "Ġmarker": 9141, "Ġ'*": 9142, "Ġsupports": 9143, "NotFoundException": 9144, "emu": 9145, "ĠComponent": 9146, "ĠIE": 9147, "ÐµÐ½": 9148, "ĠCommon": 9149, "decor": 9150, "(':": 9151, "Records": 9152, "upted": 9153, "associ": 9154, "Ġupdates": 9155, "anging": 9156, "uages": 9157, "ste": 9158, "iso": 9159, "mime": 9160, "Subscription": 9161, "Ġchan": 9162, "Measure": 9163, "cmV": 9164, "usic": 9165, "uggest": 9166, ".')": 9167, "onom": 9168, "Ġfall": 9169, "ĠQCOMPARE": 9170, "Units": 9171, "Cnt": 9172, "vor": 9173, "ĠSI": 9174, "posed": 9175, "Ġ*)&": 9176, "smarty": 9177, "Suppress": 9178, "Ġcorrectly": 9179, "kb": 9180, "__.": 9181, "Ġ00": 9182, "Ġmult": 9183, "Ops": 9184, "DIRECT": 9185, "splice": 9186, "ITEM": 9187, "Ġdownload": 9188, "nel": 9189, "ONLY": 9190, "Ratio": 9191, "Ġweights": 9192, "PEG": 9193, "getKey": 9194, "Ġ500": 9195, "FORMATS": 9196, "~~~~": 9197, ")}}": 9198, "CNT": 9199, "Ġcompiler": 9200, "ATED": 9201, "crc": 9202, "Alert": 9203, "Comparison": 9204, "åŃĹ": 9205, "dh": 9206, "fm": 9207, "Ġ21": 9208, "tol": 9209, "Ġpanel": 9210, "Leg": 9211, "ĠfileName": 9212, "Closed": 9213, "uZ": 9214, "Consumer": 9215, "getElementById": 9216, "scriber": 9217, "ÙĦ": 9218, "LOCAL": 9219, "WF": 9220, "/',": 9221, "IsValid": 9222, "Updated": 9223, "attachment": 9224, "ARGET": 9225, "Ġpartic": 9226, "Behavior": 9227, "Chan": 9228, "absolute": 9229, "listen": 9230, "evaluate": 9231, "Ġpm": 9232, "<>();": 9233, "compos": 9234, "UC": 9235, "ĠAMD": 9236, "illa": 9237, "'>": 9238, "must": 9239, "ĠOK": 9240, "atar": 9241, "ĉĉĉĉĉĠĠĠ": 9242, "COMMAND": 9243, "Ġmx": 9244, "ä¸º": 9245, "CASE": 9246, "&&!": 9247, "ifndef": 9248, "BOOL": 9249, "atie": 9250, "TEXTURE": 9251, "separator": 9252, "ivot": 9253, "Ġexpand": 9254, "ĠInst": 9255, "'ve": 9256, "wards": 9257, "ĠPers": 9258, "Ġcr": 9259, "æķ°æį®": 9260, "CONF": 9261, "Ġconnected": 9262, "cognized": 9263, "2012": 9264, "Variables": 9265, "Ġ28": 9266, "Att": 9267, "Ġtargets": 9268, "Calling": 9269, "Ġappear": 9270, "Clone": 9271, "external": 9272, "conditions": 9273, ":])": 9274, "Configure": 9275, "Stub": 9276, "Ġdescribe": 9277, "Visitor": 9278, "'\"": 9279, "TRANS": 9280, "Ġfragment": 9281, "phase": 9282, "PREFIX": 9283, "rsp": 9284, "gICAg": 9285, "usters": 9286, "kill": 9287, "UTTON": 9288, "Ġparallel": 9289, "csv": 9290, "compressed": 9291, "Ġcompile": 9292, "Ġchars": 9293, "erial": 9294, "HZ": 9295, "Contain": 9296, "getProperty": 9297, "ATURE": 9298, "GPU": 9299, "()},": 9300, "Ġtesting": 9301, "ĠAnd": 9302, "aux": 9303, "Ġcapture": 9304, "Ġden": 9305, "Ġscpexpr": 9306, "reject": 9307, "Ġath": 9308, "DISABLE": 9309, "curl": 9310, "alancer": 9311, "Ġdesired": 9312, "SEC": 9313, "ĠConnection": 9314, "eat": 9315, "gSize": 9316, "Ġleading": 9317, "SIG": 9318, "ĠCount": 9319, "States": 9320, "ĠStack": 9321, "Ġsf": 9322, "qs": 9323, "Credentials": 9324, "SCA": 9325, "drm": 9326, "Ġdummy": 9327, "revision": 9328, "asci": 9329, "La": 9330, "Ġpur": 9331, "legacy": 9332, "vZ": 9333, "Ġfc": 9334, "ĠIB": 9335, "Operations": 9336, "ĠConfiguration": 9337, "Po": 9338, "Ġreally": 9339, "(\"_": 9340, "Ġfake": 9341, "ĠDouble": 9342, "Gr": 9343, "Pub": 9344, "unre": 9345, "Ġreverse": 9346, "Ġsin": 9347, "issue": 9348, "renderer": 9349, "Ġregular": 9350, "hz": 9351, "ante": 9352, "ons": 9353, "ĉĉĉĉĉĠĠ": 9354, "ssid": 9355, "tcbiAg": 9356, "iance": 9357, "posts": 9358, "Ġmodules": 9359, "Ġboot": 9360, "statement": 9361, "Ġimplode": 9362, "Ġdispatch": 9363, "Tracker": 9364, "ĠRet": 9365, "MR": 9366, "handlers": 9367, "Ġblk": 9368, "EW": 9369, "Constraints": 9370, "Kit": 9371, "lso": 9372, "rash": 9373, "ĠStop": 9374, "ium": 9375, "strn": 9376, "Ġtables": 9377, "trampoline": 9378, "ĠFloat": 9379, "buffers": 9380, "Translation": 9381, "../../": 9382, "ĠSSL": 9383, "hcd": 9384, "iness": 9385, "itter": 9386, "]}": 9387, "ĠĠĠĠĠĠĠĠĠĠĠĠĠĠĠĠĠĠĠĠĠĠĠĠĠĠĠĠĠĠĠĠĠĠĠĠĠĠĠĠĠĠĠĠ": 9388, "Ġlonger": 9389, "atest": 9390, "StackTrace": 9391, "ĠStore": 9392, "UNKNOWN": 9393, "room": 9394, "ĠExit": 9395, "æĿ": 9396, "Ġincrement": 9397, "DataSource": 9398, "datepicker": 9399, "inger": 9400, "Ġsynchronized": 9401, "Multip": 9402, "ĠWP": 9403, "ipv": 9404, "QUF": 9405, "istogram": 9406, "Ġinstructions": 9407, "retry": 9408, "_[": 9409, "umbnail": 9410, "Ġinitialization": 9411, "unpack": 9412, "Ġ'.'": 9413, "ĠDescription": 9414, "Ġcss": 9415, "getTime": 9416, "slave": 9417, "ACTIVE": 9418, "@@@@@@@@": 9419, "Ġprocessed": 9420, "magic": 9421, "udc": 9422, "Ġinstalled": 9423, "REL": 9424, "isode": 9425, "HashCode": 9426, "æŀ": 9427, "ĠDI": 9428, "closed": 9429, "Ġradius": 9430, "ĠRender": 9431, "ĠRX": 9432, "Analysis": 9433, "Am": 9434, "Ġboost": 9435, "aps": 9436, "Catalog": 9437, "Diagnostics": 9438, "Sent": 9439, "UTC": 9440, "Observer": 9441, "Ġix": 9442, "unset": 9443, "(\"+": 9444, "parseInt": 9445, "isa": 9446, "lr": 9447, "\\\",\\\"": 9448, "Ep": 9449, "Combine": 9450, "SRC": 9451, "Ġve": 9452, "limiter": 9453, "glyph": 9454, "Ġuseful": 9455, "Ġseparator": 9456, "Ġbug": 9457, "ĠDEF": 9458, "ContentType": 9459, ",&": 9460, "Ġsurface": 9461, "Ġhalf": 9462, "Previous": 9463, "0001": 9464, "states": 9465, "aria": 9466, "calculate": 9467, "cost": 9468, "ACCESS": 9469, "Enc": 9470, "Ġliteral": 9471, "ĠCalculate": 9472, "Prototype": 9473, "nbsp": 9474, "uart": 9475, "ĠDest": 9476, "Ġbundle": 9477, "Models": 9478, "Ġadmin": 9479, "Ġhdr": 9480, "digit": 9481, "asmine": 9482, "veloper": 9483, "amaz": 9484, "Ġversions": 9485, "ĠDes": 9486, "ĠLen": 9487, "ĠAlso": 9488, "threads": 9489, "MPLE": 9490, "ientation": 9491, "Permissions": 9492, "Ndb": 9493, "ĠSetup": 9494, "[^\\": 9495, "ĠMust": 9496, "ĠSyntax": 9497, "vif": 9498, "CLI": 9499, "functions": 9500, "checkbox": 9501, "/\"": 9502, "TV": 9503, "Redirect": 9504, "covers": 9505, "Ġwon": 9506, "Ġsvn": 9507, "valuation": 9508, "HED": 9509, "Ġretrieve": 9510, "ĠClo": 9511, "prot": 9512, "avail": 9513, "ĠPop": 9514, "backend": 9515, "members": 9516, "called": 9517, "atable": 9518, "Ġglyph": 9519, "minInt": 9520, "heap": 9521, "svc": 9522, "Modifier": 9523, "Zoom": 9524, "[],": 9525, "Ġfw": 9526, "PublicKey": 9527, "maxFrac": 9528, "RIGHT": 9529, "posPre": 9530, "minFrac": 9531, "Reflection": 9532, "Known": 9533, "ĠTw": 9534, "ÙĨ": 9535, "named": 9536, "lgSize": 9537, "posSuf": 9538, "negPre": 9539, "negSuf": 9540, "Attachment": 9541, "MEMORY": 9542, "/^": 9543, "etype": 9544, "qt": 9545, "crypto": 9546, "Ġcy": 9547, "Ġ/=": 9548, "bw": 9549, "ĠPlugin": 9550, "ampling": 9551, "intf": 9552, "ables": 9553, "xE": 9554, "åĲį": 9555, "webkit": 9556, "?)": 9557, "camera": 9558, "ĠIEEE": 9559, "ational": 9560, "Expand": 9561, "Ġfit": 9562, "Matching": 9563, "NA": 9564, "Ġcf": 9565, "Hours": 9566, "ĠProject": 9567, "anted": 9568, "course": 9569, "Ġipv": 9570, "Preview": 9571, "Ġcout": 9572, "Ġalt": 9573, "Images": 9574, "fname": 9575, "unce": 9576, "XF": 9577, "Capacity": 9578, "rient": 9579, "Ġxxx": 9580, "closest": 9581, "PASS": 9582, "ĠJavaScript": 9583, "ĠACPI": 9584, "material": 9585, "Escape": 9586, "shouldReceive": 9587, "ĠUnknown": 9588, "xattr": 9589, "CTX": 9590, "123456789": 9591, "Ġnl": 9592, "THREAD": 9593, "returnValue": 9594, "Ġids": 9595, "Ġloader": 9596, "Ġmemset": 9597, "Ġdays": 9598, "ĠAccess": 9599, "Au": 9600, "PIPE": 9601, "ĠMark": 9602, "existing": 9603, "Ġcycle": 9604, "ĠParameter": 9605, "Ġsending": 9606, "ĠTree": 9607, "ĠSmall": 9608, "Using": 9609, "acpi": 9610, "aging": 9611, "regexp": 9612, "TD": 9613, "TypeName": 9614, "ĠTI": 9615, "èİ": 9616, "initialized": 9617, "Topic": 9618, "Features": 9619, "Ġvisit": 9620, "eg": 9621, "Cost": 9622, "Ġexecuted": 9623, "UCT": 9624, "objWriter": 9625, "Ġreturning": 9626, "250": 9627, "MG": 9628, "poch": 9629, "Fac": 9630, "och": 9631, "Design": 9632, "Asm": 9633, "ĠExecute": 9634, "mov": 9635, "Team": 9636, ">().": 9637, "bble": 9638, "Ġthreshold": 9639, "bined": 9640, "Intent": 9641, "Pad": 9642, "hover": 9643, "Must": 9644, "Creates": 9645, "IGH": 9646, "Ġautomatically": 9647, "urity": 9648, "Ġeq": 9649, "Days": 9650, "MU": 9651, "'m": 9652, "THER": 9653, "ascii": 9654, "Ġloading": 9655, "Spell": 9656, "ZS": 9657, "leaf": 9658, "shutdown": 9659, "Ġstarted": 9660, "Ġpan": 9661, "Ġmiddle": 9662, "Debugger": 9663, "Ġlists": 9664, "innerHTML": 9665, "CQ": 9666, "vendor": 9667, "riev": 9668, "amazon": 9669, "Ġsat": 9670, "ĠEmit": 9671, "stroke": 9672, "Ġ201": 9673, "Ġ*)(": 9674, "Glyph": 9675, "ĠCache": 9676, "machine": 9677, "cedure": 9678, "sTo": 9679, "Ġ'');": 9680, "rtlpriv": 9681, "hint": 9682, "Ġnotification": 9683, "bridge": 9684, "sil": 9685, "Management": 9686, "Sink": 9687, "idle": 9688, "ĠdomainObject": 9689, "Ġ-------": 9690, "Ġhide": 9691, "ĠGPIO": 9692, "abstract": 9693, "puts": 9694, "SED": 9695, "Rectangle": 9696, "à¦": 9697, "]|": 9698, "Super": 9699, "hold": 9700, "ĠNOTE": 9701, "Ġregs": 9702, "kl": 9703, "Compile": 9704, "IEW": 9705, "Ġserial": 9706, "Ġtransport": 9707, "extent": 9708, "Millis": 9709, "plural": 9710, "Jan": 9711, "cairo": 9712, ";',": 9713, "untu": 9714, "Ġthrown": 9715, "))))": 9716, "ROOT": 9717, "Ġpix": 9718, "iki": 9719, "ience": 9720, "Ġfold": 9721, "InstanceOf": 9722, "ĠFree": 9723, "eline": 9724, "tls": 9725, "syscall": 9726, "ĠHW": 9727, "Central": 9728, "hY": 9729, "Ġoutputs": 9730, "filepath": 9731, "ĠMove": 9732, "izing": 9733, "ĠDecode": 9734, "ifetime": 9735, "Unix": 9736, "Ġcomplex": 9737, "å®ļ": 9738, "Checks": 9739, "ighe": 9740, "èİ·": 9741, "wifi": 9742, "chk": 9743, "*>": 9744, "+\")": 9745, "vlan": 9746, "mapper": 9747, "iration": 9748, "Ġpick": 9749, "willReturn": 9750, "gether": 9751, "unexpected": 9752, "TagName": 9753, "RegExp": 9754, "Samples": 9755, "Ġ@\"": 9756, "Vars": 9757, "Ġtemporary": 9758, "Di": 9759, "etermine": 9760, "Decor": 9761, "ĠCS": 9762, "ĠMatrix": 9763, "payment": 9764, "Ġouter": 9765, "dap": 9766, "Illegal": 9767, "RA": 9768, "Ġcredentials": 9769, "Started": 9770, "ComboBox": 9771, "WITH": 9772, "Ġenc": 9773, "Ġupload": 9774, "VIS": 9775, "Ġinvoke": 9776, "Ġworker": 9777, "ratio": 9778, "Ġscheme": 9779, "Ġchecking": 9780, "202": 9781, "upal": 9782, "gK": 9783, "Ġincluding": 9784, "Ġreferences": 9785, "Person": 9786, "subdev": 9787, "ĠComple": 9788, "ALLOC": 9789, "ĠSTAT": 9790, "leave": 9791, "Hide": 9792, "UK": 9793, "Ġconfigure": 9794, "Ġatt": 9795, "hal": 9796, "deprecated": 9797, "Tw": 9798, "Ġ__(": 9799, "Commands": 9800, "Invariant": 9801, "Ġwhose": 9802, "Ġgoogleapi": 9803, "collect": 9804, "ĠCSS": 9805, "ĠBack": 9806, "fds": 9807, "MAL": 9808, "nV": 9809, "Ð¼": 9810, "Ġ'@": 9811, "Structure": 9812, "stub": 9813, "Ġtm": 9814, "Ġcamera": 9815, "zoom": 9816, "TT": 9817, "Ġchart": 9818, "ropped": 9819, "Ġtd": 9820, "ĠAuto": 9821, "Ġmembers": 9822, "calendar": 9823, "Associ": 9824, "abric": 9825, "boxes": 9826, "Ġutf": 9827, "Front": 9828, "Ġdrag": 9829, "bfa": 9830, "ini": 9831, "Authentication": 9832, "models": 9833, "Special": 9834, "ught": 9835, "ĠColumn": 9836, "Shown": 9837, "Dispatcher": 9838, "ĠThese": 9839, "exe": 9840, "Ġlat": 9841, "setTimeout": 9842, "Backend": 9843, "ĠArgumentNullException": 9844, "VC": 9845, "Ġcmp": 9846, "Ġfb": 9847, "uffle": 9848, "dddddddddddddddddddddddddddddddddddddddddddddddddddddddddddddddddddddddddddddddddddddddddddddddddddddddddddddddddddddddddddddddddddddddddddddddddddddddddddddddddddddddddddddddddddddddddddddddddddddddddddddddddddddddddddddddddddddddddddddddddddddddddddddddddddddddddddddddddddddddddddddddddddddddddddddddddddddddddddddddddddddddddddddddddddddddddddddddddddddddddddddddddddddddddddddddddddddddddddddddddddddddddddddddddddddddddddddddddddddddddddddddddddddddddddddddddddddddddddddddddddddddddddddddddddddddddddddddd": 9849, "uess": 9850, "ĠAWS": 9851, "Disp": 9852, "dash": 9853, "complex": 9854, "ADDRESS": 9855, "getDefault": 9856, "Ġbeginning": 9857, "windows": 9858, "BOX": 9859, "Printer": 9860, "Ġii": 9861, "\"',": 9862, "many": 9863, "Completion": 9864, "maps": 9865, "Ġpixels": 9866, "LV": 9867, "Ġregistry": 9868, "ioctl": 9869, "ĠControl": 9870, "urope": 9871, "TOKEN": 9872, "PARATOR": 9873, "IES": 9874, "iet": 9875, "Added": 9876, "å¾": 9877, "$(": 9878, "Band": 9879, "GUID": 9880, "XP": 9881, "Ġmail": 9882, "Regs": 9883, "gain": 9884, "WORK": 9885, "ä¸ª": 9886, "trinsic": 9887, "ISC": 9888, "ĠVER": 9889, "IMAGE": 9890, "Ġcos": 9891, "svg": 9892, "funcs": 9893, "Dem": 9894, "Ġlogin": 9895, "Ġthreads": 9896, "Ġdm": 9897, "Share": 9898, "CONTEXT": 9899, "FIRST": 9900, "builtin": 9901, ")&": 9902, "steps": 9903, "\")),": 9904, "EFAULT": 9905, "Ġocfs": 9906, "Ġcalcul": 9907, "mq": 9908, "Frames": 9909, "tz": 9910, "opacity": 9911, "xFE": 9912, "Sibling": 9913, "tempts": 9914, "Oc": 9915, "Ġdl": 9916, "`)": 9917, "Ġ(__": 9918, "getInt": 9919, "ctp": 9920, "Modules": 9921, "fragment": 9922, "Ġpg": 9923, "dai": 9924, "ana": 9925, "Ġnotify": 9926, "FIFO": 9927, "Ġpi": 9928, "Ġopcode": 9929, "Ġprecision": 9930, "Ġdim": 9931, "DAG": 9932, "ĠEntry": 9933, "ĠShow": 9934, "crete": 9935, "Ġcli": 9936, "fun": 9937, "Ġhint": 9938, "ĉĉĉĉĉĉĉĉĉĉ": 9939, "Ġvs": 9940, "Cond": 9941, "Marshaller": 9942, "-.": 9943, "aled": 9944, "FullName": 9945, "imag": 9946, "Ġenter": 9947, "GLOBALS": 9948, "ĠEventArgs": 9949, "preter": 9950, "outputs": 9951, "hicle": 9952, "Quick": 9953, "UA": 9954, "Ġtranslate": 9955, "ENTER": 9956, "Ġwaiting": 9957, "ĠPointer": 9958, "pacity": 9959, "anitize": 9960, "star": 9961, "Ġrank": 9962, "Ġflat": 9963, "Ġsi": 9964, "Ġlinks": 9965, "ĠSup": 9966, "ĠĠĠĠĠĠĠĠĠĠĠĠĠĠĠĠĠĠĠĠĠĠĠĠĠĠĠĠĠĠĠĠĠĠĠĠĠĠĠĠĠĠĠĠĠ": 9967, "lica": 9968, "expanded": 9969, "Ġgpio": 9970, "Ġpositive": 9971, "Ġentire": 9972, "RR": 9973, "IgnoreCase": 9974, "BG": 9975, "Ġanim": 9976, "Ġbetter": 9977, "Ġaddresses": 9978, "unded": 9979, "Ġfocus": 9980, "ĠHH": 9981, "Ġdescri": 9982, "unused": 9983, "share": 9984, "===\"": 9985, "ech": 9986, "Infos": 9987, "ASS": 9988, "Tok": 9989, "Ġec": 9990, "preview": 9991, "POWER": 9992, "PD": 9993, "ĠSIGN": 9994, "NU": 9995, "IDX": 9996, "ĠSH": 9997, "ĠparseInt": 9998, "Vy": 9999, "ĠFrom": 10000, "Ġcoordinates": 10001, "PCM": 10002, "Ġhandlers": 10003, ")'": 10004, "uge": 10005, "ABA": 10006, "Rx": 10007, "icture": 10008, "gz": 10009, "multiple": 10010, "Published": 10011, "?:": 10012, "arf": 10013, "ListView": 10014, "åĢ": 10015, "Ġmargin": 10016, "Ġincluded": 10017, "ĠSp": 10018, "configure": 10019, "WU": 10020, "Ġproperly": 10021, "scriptions": 10022, "Ġtypedef": 10023, "commended": 10024, "æľī": 10025, "PAD": 10026, "Sep": 10027, "]',": 10028, "ĠFunc": 10029, "nable": 10030, "ĠRuntimeException": 10031, "SPI": 10032, "dirs": 10033, "Magento": 10034, "Ġutils": 10035, "hostname": 10036, "Increment": 10037, "assoc": 10038, "Ġtol": 10039, "OVER": 10040, "Ġty": 10041, "LX": 10042, ",%": 10043, "Live": 10044, "Ġ\"\\\"": 10045, "CSR": 10046, "[%": 10047, "ĠUnicode": 10048, "Ġsucce": 10049, "Ġalong": 10050, "WT": 10051, "caption": 10052, "flatten": 10053, "vma": 10054, "(\"\",": 10055, "Ġchr": 10056, "Ġteam": 10057, "Ġoccurred": 10058, "10000": 10059, "ĠClean": 10060, "ĠMode": 10061, "Ġscene": 10062, "Authorization": 10063, "à¤¾": 10064, "')).": 10065, "ĠUri": 10066, "Ġmonitor": 10067, "ISTER": 10068, "ito": 10069, "Ġgoing": 10070, "CONST": 10071, "999": 10072, "Ġlogic": 10073, "soap": 10074, "2016": 10075, "Ġloss": 10076, "striction": 10077, "ĠAmazon": 10078, "andsh": 10079, "Ġnormalize": 10080, "lated": 10081, "LAB": 10082, "android": 10083, "ĠHexagon": 10084, "Fast": 10085, "Ġimmediately": 10086, "mes": 10087, "MOVE": 10088, "slug": 10089, "Ġ))": 10090, "Ġub": 10091, "ATT": 10092, "PARAMETER": 10093, "ĠĠĠĠĠĠĠĠĠĠĠĠĠĠĠĠĠĠĠĠĠĠĠĠĠĠĠĠĠĠĠĠĠĠĠĠĠĠĠĠĠĠĠĠĠĠĠĠĠĠĠ": 10094, "Ġfinished": 10095, "Ġkzalloc": 10096, "dentry": 10097, "Ġ].": 10098, "Dead": 10099, "'=>'": 10100, "Ġsnapshot": 10101, "obile": 10102, "Regist": 10103, "Future": 10104, "usted": 10105, "nested": 10106, "Discard": 10107, "Qg": 10108, "Ġstderr": 10109, "trait": 10110, "ĠSession": 10111, "ATOM": 10112, "ĠsetUp": 10113, "PATTER": 10114, "Plain": 10115, "ĠHow": 10116, "cipient": 10117, "Overlay": 10118, "ĠDAG": 10119, "ndev": 10120, "strictEqual": 10121, "deg": 10122, "::$_": 10123, "Ġspi": 10124, "Ùħ": 10125, "æİ": 10126, "Under": 10127, "pic": 10128, "aligned": 10129, "notification": 10130, "ĠProto": 10131, "Have": 10132, "ToList": 10133, "vanced": 10134, "\")));": 10135, "Dock": 10136, "reduce": 10137, "iny": 10138, "Connected": 10139, "ĠRaise": 10140, "IsNotNull": 10141, "HAL": 10142, "Ġtasks": 10143, "Bin": 10144, "Ġstarts": 10145, "nameof": 10146, "Uniform": 10147, "çĽ": 10148, "ĠCL": 10149, "dojo": 10150, "DllImport": 10151, "AttributeValue": 10152, "Ġeverything": 10153, "éĻ": 10154, "secure": 10155, "ĠPHY": 10156, "ĠSDL": 10157, "}\");": 10158, "Ġtty": 10159, "Ġoccurs": 10160, "enumer": 10161, "except": 10162, "lbl": 10163, "etween": 10164, "pZ": 10165, "ĠDWORD": 10166, "æĹ¶": 10167, "Ġdead": 10168, "Ġtail": 10169, "ATTRIB": 10170, "Ġshell": 10171, "XXX": 10172, "increment": 10173, "Mer": 10174, "nes": 10175, "subscribe": 10176, "Ġfac": 10177, "Modal": 10178, "Cat": 10179, "Ġsleep": 10180, "Buttons": 10181, "Visit": 10182, "ceptor": 10183, "Ġmaybe": 10184, "æľĪ": 10185, "Soft": 10186, "XC": 10187, "ToInt": 10188, "ĠWhether": 10189, "protobuf": 10190, "Ui": 10191, "fac": 10192, "ahead": 10193, "333": 10194, "ĠLabel": 10195, "LASH": 10196, "rsa": 10197, "ĠEnv": 10198, "8000": 10199, "acon": 10200, "Prob": 10201, "Ġ[%": 10202, "adev": 10203, "instruction": 10204, "anim": 10205, "ĠBinary": 10206, "velope": 10207, "posing": 10208, "Ġadds": 10209, "ICAgICAgICAgICAg": 10210, "Ġ[])": 10211, "Ġpercent": 10212, "east": 10213, "Hidden": 10214, "IOException": 10215, "rcu": 10216, "adap": 10217, "Stage": 10218, "Slider": 10219, "Calculation": 10220, "Compact": 10221, "QP": 10222, "ned": 10223, "ĠEND": 10224, "Comments": 10225, "OTHER": 10226, "lighter": 10227, "pca": 10228, "den": 10229, "Polygon": 10230, "Ġspaces": 10231, "Ġapplied": 10232, "Ġfi": 10233, "basename": 10234, "Ġvery": 10235, "Ġrelation": 10236, "supp": 10237, "UnityEngine": 10238, "IDEO": 10239, "nf": 10240, "Ġdetect": 10241, "åĮ": 10242, "Ġomap": 10243, "Ġservices": 10244, "Phase": 10245, "WP": 10246, "Ġallocation": 10247, "NumberOf": 10248, "Fire": 10249, "iation": 10250, "Ġdelegate": 10251, "ÙĬ": 10252, "Ġmaterial": 10253, "Ġsem": 10254, "EDITOR": 10255, "Ġ26": 10256, "detach": 10257, "Amazon": 10258, "CU": 10259, "getContent": 10260, "OPY": 10261, "ĠMD": 10262, "Ġwhole": 10263, "yes": 10264, "otg": 10265, ")(\\\\": 10266, "mium": 10267, "Comm": 10268, "mixed": 10269, "quent": 10270, "à´": 10271, "hard": 10272, "XB": 10273, "aming": 10274, "instr": 10275, "KET": 10276, "Orient": 10277, "BBB": 10278, "NORMAL": 10279, "Conversion": 10280, "May": 10281, "hh": 10282, "Ġrefresh": 10283, "erance": 10284, "Ġatomic": 10285, "roker": 10286, "nop": 10287, "Ġsur": 10288, "Plot": 10289, "Ġunpack": 10290, "Ġinterrupts": 10291, "ĠPK": 10292, "Ġ\"*": 10293, "mbed": 10294, "qq": 10295, ":],": 10296, "ISO": 10297, "Ġ}));": 10298, "ongo": 10299, "Ġoct": 10300, "WC": 10301, "Ġgive": 10302, "Warnings": 10303, "atype": 10304, "GD": 10305, "ERY": 10306, "(\\\\": 10307, "jk": 10308, "]-": 10309, "Ġfrag": 10310, "Ġrgb": 10311, "ĠEm": 10312, "è§": 10313, "maximum": 10314, "rotation": 10315, "Ġedges": 10316, "Velocity": 10317, "Ġdistribution": 10318, "FM": 10319, "Ġconfigured": 10320, "Deployment": 10321, "XV": 10322, "ENO": 10323, "Finished": 10324, "ĠLay": 10325, "PEND": 10326, "Ñĭ": 10327, "asis": 10328, "Ġsources": 10329, "Ġadding": 10330, "ICATION": 10331, "Linear": 10332, "CHANNEL": 10333, "secs": 10334, "NL": 10335, "SEPARATOR": 10336, "Plane": 10337, "DEFAULTS": 10338, "REST": 10339, "Archive": 10340, "Ġintel": 10341, "UserId": 10342, "ĠTemplate": 10343, "BIN": 10344, "FileInfo": 10345, "through": 10346, "snprintf": 10347, "ĠArgumentError": 10348, "kv": 10349, "leter": 10350, "ĠBy": 10351, "peek": 10352, "Ġhistory": 10353, "Ġ>>=": 10354, "onomy": 10355, "())->": 10356, "tage": 10357, "TIMER": 10358, ")};": 10359, "Ġ&',": 10360, "completion": 10361, "Ġsg": 10362, "':'": 10363, "ILL": 10364, "Weapon": 10365, "Adjust": 10366, "Ġresolved": 10367, "Ġable": 10368, "OBJ": 10369, "keydown": 10370, "quired": 10371, "Ġcolors": 10372, "ĠOperation": 10373, "ĠSql": 10374, "Ġfrequency": 10375, "closing": 10376, "asset": 10377, "ĠEast": 10378, "tasks": 10379, "ZSB": 10380, "Ñĩ": 10381, "èİ·åıĸ": 10382, "+\\": 10383, "TCP": 10384, "TOP": 10385, "Ġdisp": 10386, "Health": 10387, "Mar": 10388, "ĠDisplay": 10389, "Ġplane": 10390, "uting": 10391, "gm": 10392, "DLL": 10393, "ĠRo": 10394, "Ġsyntax": 10395, "Ġtopic": 10396, "Ġnumeric": 10397, "Geo": 10398, "Ġtrailing": 10399, "MessageWindow": 10400, "################################": 10401, "åŃĺ": 10402, "etic": 10403, "angles": 10404, "Vertices": 10405, "Ġfig": 10406, "ĠImm": 10407, "WINDO": 10408, "Ġmakes": 10409, "zeros": 10410, "land": 10411, "Ġplt": 10412, "live": 10413, "ctxt": 10414, "+/": 10415, "ĠRelease": 10416, "atial": 10417, "ĠĠĠĠĠĠĠĠĠĠĠĠĠĠĠĠĠĠĠĠĠĠĠĠĠĠĠĠĠĠĠĠĠĠĠĠĠĠĠĠĠĠĠĠĠĠ": 10418, "sch": 10419, "Ġri": 10420, "ĠSrc": 10421, "ENV": 10422, "Ġanchor": 10423, "iment": 10424, "Dirty": 10425, "MAIN": 10426, "ĠReact": 10427, "Ġcurl": 10428, "ĠSTR": 10429, "mmc": 10430, "umes": 10431, "ĠChange": 10432, "Ġdp": 10433, "EXIT": 10434, "ĠSince": 10435, "ĠReplace": 10436, "ANK": 10437, "'},": 10438, "Ġalignment": 10439, "Ġformatted": 10440, "WH": 10441, "LLVM": 10442, "Ġwhitespace": 10443, "icted": 10444, "optParams": 10445, "ĠTABLE": 10446, "OV": 10447, "æĶ": 10448, "Ġthings": 10449, "ongs": 10450, "pur": 10451, "ĠRFC": 10452, "black": 10453, "ĠtestGet": 10454, "åľ¨": 10455, "omial": 10456, "mapped": 10457, "è¡¨": 10458, "ĠEach": 10459, "Ġcertificate": 10460, "Ġrepository": 10461, "ENABLED": 10462, "Ġindicating": 10463, "hot": 10464, "mirror": 10465, "Ġperf": 10466, "Ġpod": 10467, "à¤°": 10468, "Pipeline": 10469, "remaining": 10470, "vertices": 10471, "sound": 10472, "isDefault": 10473, "ildcard": 10474, "weights": 10475, "Cmp": 10476, "Ġrr": 10477, "moz": 10478, "Quant": 10479, "yb": 10480, "stage": 10481, "ä¼": 10482, "Links": 10483, "Ġobt": 10484, "WL": 10485, "toArray": 10486, "ĠMA": 10487, "disc": 10488, "country": 10489, "Ġdecoder": 10490, "shell": 10491, "OIN": 10492, "outb": 10493, "Ġphase": 10494, "literal": 10495, "Digest": 10496, "]])": 10497, "()+": 10498, "ulong": 10499, "Prom": 10500, "ĠAD": 10501, "Ġcodec": 10502, "adr": 10503, "Ġreserved": 10504, "ife": 10505, "Ġ*/\\": 10506, "PROC": 10507, "ÑģÑĤ": 10508, "flex": 10509, "paint": 10510, "exclude": 10511, "netif": 10512, "readl": 10513, "Ġextensions": 10514, "Ġkwargs": 10515, "0631": 10516, "ãģ®": 10517, "libc": 10518, "hid": 10519, "Ġserialized": 10520, "apache": 10521, "Ġfilepath": 10522, "Wallet": 10523, "Toggle": 10524, "Seek": 10525, "PIX": 10526, "EXP": 10527, "Ġcost": 10528, "Ġcompletion": 10529, ".*]]": 10530, "uman": 10531, "ĠSettings": 10532, "Mono": 10533, "DY": 10534, "rab": 10535, "Ġfreq": 10536, "Annotations": 10537, "WriteString": 10538, "logical": 10539, "QUEUE": 10540, "ĠExpr": 10541, "FULL": 10542, "Ġevt": 10543, "Persistent": 10544, "AUD": 10545, "asses": 10546, "Ġ/^": 10547, "Callbacks": 10548, "edges": 10549, "Ġmalloc": 10550, "ĠDATA": 10551, "--------------------------------------------------------": 10552, "[\\\\": 10553, "Ð´": 10554, "encrypt": 10555, "zc": 10556, "Ġboundary": 10557, "ĠOne": 10558, "quot": 10559, "Ġ512": 10560, "Ġextend": 10561, "Ġmid": 10562, "')],": 10563, "HASH": 10564, "Ġmount": 10565, "ĠChr": 10566, "Ġaggreg": 10567, "Ġfire": 10568, "ĠTool": 10569, "sx": 10570, "ACPI": 10571, "defineProperty": 10572, "<>": 10573, "retty": 10574, ")&&": 10575, "Vk": 10576, "Ġstates": 10577, "TextBox": 10578, "urable": 10579, "Ġidentity": 10580, "manual": 10581, "apsed": 10582, "WO": 10583, "110": 10584, "Ġsil": 10585, "elf": 10586, "ea": 10587, "unlink": 10588, "North": 10589, "Ġmk": 10590, "('--": 10591, "}:": 10592, "catalog": 10593, "ĠButton": 10594, "formed": 10595, ")];": 10596, "Ġblank": 10597, "Ġmuch": 10598, "(\":": 10599, "Diag": 10600, "inject": 10601, "Manifest": 10602, "whitespace": 10603, "Ordinal": 10604, "ä¸Ń": 10605, "pwr": 10606, "Ġflash": 10607, "Ġmetric": 10608, "Ġparticular": 10609, "verity": 10610, "Ġast": 10611, "ighest": 10612, "åī": 10613, "Ġbtrfs": 10614, "sprite": 10615, "esis": 10616, "PF": 10617, "Ġmapped": 10618, "Socklen": 10619, "Inf": 10620, "Star": 10621, "urls": 10622, "Joint": 10623, "Void": 10624, "ĠNull": 10625, "Ġut": 10626, "Ġ27": 10627, "overlay": 10628, "/\\": 10629, "ĠReference": 10630, "ĠInstance": 10631, "Termin": 10632, "amel": 10633, "snapshot": 10634, "ĠSPI": 10635, "fid": 10636, "formats": 10637, "Mount": 10638, "Ġdecor": 10639, "Cons": 10640, "ĠLogger": 10641, "OrDefault": 10642, "getS": 10643, "backup": 10644, "arante": 10645, ")/,": 10646, "Ġpast": 10647, "Retrieve": 10648, "ffic": 10649, "æĪĲ": 10650, "Ġrepo": 10651, "Ġseparate": 10652, "é¡": 10653, "(\"../../": 10654, "INTR": 10655, "andshake": 10656, "Logic": 10657, "records": 10658, "metric": 10659, "microsoft": 10660, "ĠNUM": 10661, "=\"\"": 10662, "Resize": 10663, "Ġ\\'": 10664, "ĠEV": 10665, "UMENT": 10666, "ICK": 10667, "categories": 10668, "Ġequivalent": 10669, "Ġ\"&": 10670, "SQ": 10671, "Ġstmt": 10672, "Ġ&(": 10673, "TableName": 10674, "cinfo": 10675, "ĠExec": 10676, "Serialization": 10677, "geometry": 10678, "ENU": 10679, "Ġ'?": 10680, ")\\\\": 10681, "Mime": 10682, "Da": 10683, "TEX": 10684, "Ġswap": 10685, "åĽŀ": 10686, "tures": 10687, "urlParams": 10688, "defaultToken": 10689, "Ġbtn": 10690, "Ġpreviously": 10691, "']:": 10692, "offsets": 10693, "Ġcontact": 10694, "former": 10695, "analy": 10696, "celer": 10697, "ffected": 10698, "Attrs": 10699, "FLOW": 10700, "Bag": 10701, "Ġtoggle": 10702, "ĠMicrosoft": 10703, "\")},": 10704, "Vertical": 10705, "getItem": 10706, "rott": 10707, "ĠDL": 10708, "eros": 10709, "ERTY": 10710, "imply": 10711, "Ġindicates": 10712, "Ġtor": 10713, "csr": 10714, "Ġencoder": 10715, "ĠRule": 10716, "Gateway": 10717, "ĠIgnore": 10718, "ĠLast": 10719, "inted": 10720, "||\"": 10721, "ĠDisable": 10722, "Ġart": 10723, "HAS": 10724, "Ġagent": 10725, "ierarchy": 10726, "+-+-": 10727, "Ġseen": 10728, "omap": 10729, "cha": 10730, "Ġ[$": 10731, "Unsupported": 10732, "ĠHost": 10733, "iate": 10734, "Layers": 10735, "operand": 10736, "Ġlight": 10737, "Ġclause": 10738, "AsString": 10739, "Ġshader": 10740, "Prevented": 10741, "SZ": 10742, "await": 10743, "<?>": 10744, "ĠRel": 10745, "ĠPart": 10746, "Ġsigned": 10747, "elseif": 10748, "ĠVariable": 10749, "Ġlex": 10750, "repository": 10751, "look": 10752, "getReg": 10753, "dq": 10754, "kcontrol": 10755, "ĠGets": 10756, "Criteria": 10757, "XJ": 10758, "avg": 10759, "MEDI": 10760, "ĠQue": 10761, "Cycle": 10762, "Bericht": 10763, "Ġtriggered": 10764, "zen": 10765, "Ġtraining": 10766, "Stri": 10767, "Navigation": 10768, "')[": 10769, "ĠSm": 10770, "ĠCK": 10771, "coun": 10772, "0430": 10773, "Ġwa": 10774, "ĠDescribe": 10775, "ä¹": 10776, "Hi": 10777, "Ġmetrics": 10778, "slash": 10779, "frequency": 10780, "vv": 10781, "OSI": 10782, "Ġpie": 10783, "Ġmix": 10784, "Undefined": 10785, "ĠCloseMessageWindow": 10786, "Sleep": 10787, "æĮ": 10788, "Img": 10789, "Signed": 10790, "ĠSLOT": 10791, "logging": 10792, "compatible": 10793, "Chat": 10794, "PN": 10795, "ĠMIN": 10796, "Emitter": 10797, "Translate": 10798, "PTX": 10799, "Does": 10800, "\"===": 10801, "strpos": 10802, "Ġreplacement": 10803, "Ġoutside": 10804, "Ġcross": 10805, "éĹ": 10806, "ICAL": 10807, "})},": 10808, "confirm": 10809, "igen": 10810, "Until": 10811, "under": 10812, "Swap": 10813, "ensupport": 10814, "detect": 10815, "Ġstrpos": 10816, "Predicate": 10817, "Bridge": 10818, "ĠAF": 10819, "Ġrg": 10820, "ĠĠĠĠĉ": 10821, "Words": 10822, "ĠHashMap": 10823, "Ġfront": 10824, "getElements": 10825, "Premium": 10826, "EXEC": 10827, "~\\": 10828, "ROG": 10829, "Ġenumerate": 10830, "($\"": 10831, "olicies": 10832, "................": 10833, "iving": 10834, "based": 10835, "Ġ*>(": 10836, "BJ": 10837, "ĠCP": 10838, "iframe": 10839, "TU": 10840, "nullptr": 10841, "Ġ'-'": 10842, "Sur": 10843, "Projects": 10844, "stand": 10845, "Ġdetected": 10846, "Ġthree": 10847, "EMPTY": 10848, "SEND": 10849, "Ġtex": 10850, "Ġdimensions": 10851, "GM": 10852, "Propagation": 10853, "chat": 10854, "Ġunexpected": 10855, "Ġiteration": 10856, "Ġunmarshal": 10857, "yd": 10858, "Lim": 10859, "Ġoffsets": 10860, "Numeric": 10861, "Ġcps": 10862, "Ġboard": 10863, "ĠDescriptor": 10864, "Ġworking": 10865, "STEM": 10866, "VOID": 10867, "IPS": 10868, "resolved": 10869, "è¡Į": 10870, "pitch": 10871, "processing": 10872, "dns": 10873, "},\"": 10874, "=='": 10875, "ĠDecl": 10876, "Aut": 10877, "Maximum": 10878, "cannot": 10879, "Deserialize": 10880, "Username": 10881, "FoldWidget": 10882, "what": 10883, "Helpers": 10884, "adv": 10885, "Ġbb": 10886, "scrollTop": 10887, "scr": 10888, "Ġdeprecated": 10889, "statusCode": 10890, "@@@@@@": 10891, "gbe": 10892, "oney": 10893, "RAM": 10894, "Ġci": 10895, "Restore": 10896, "ĠOUT": 10897, "010": 10898, "ication": 10899, "Ð¿": 10900, "ACKET": 10901, "Once": 10902, "Plus": 10903, "roken": 10904, "hwnd": 10905, "Keyboard": 10906, "å¯¹": 10907, "latest": 10908, "Ġtogether": 10909, "Ġrhs": 10910, "Locked": 10911, "ĠCreates": 10912, "ĠNetwork": 10913, "reed": 10914, "Cached": 10915, "Too": 10916, "Ġmeasure": 10917, "}</": 10918, "Preferences": 10919, "))]": 10920, ")\";": 10921, "jpg": 10922, "inheritDoc": 10923, "lun": 10924, "Getter": 10925, "LER": 10926, "Ġlinear": 10927, "sorted": 10928, "ji": 10929, "Ġprod": 10930, "Ġunits": 10931, "disconnect": 10932, "Ġcreation": 10933, "Directive": 10934, "Creation": 10935, "FREE": 10936, "Ġcopying": 10937, "Ġcomparison": 10938, "Ġrotation": 10939, "filer": 10940, "Channels": 10941, "logs": 10942, "uda": 10943, "ĠMedia": 10944, "ooter": 10945, "404": 10946, "Logging": 10947, "Ġpw": 10948, ":%.*]]": 10949, "Ġones": 10950, "zM": 10951, "Ġ[-": 10952, "Ġassigned": 10953, "Ġbuilt": 10954, "UUID": 10955, "UBLE": 10956, "ĠLua": 10957, "iph": 10958, "Zm": 10959, "Ġplain": 10960, "Btn": 10961, "Oct": 10962, "($.": 10963, "Collector": 10964, "mainder": 10965, "Mix": 10966, "$\",": 10967, "REGISTER": 10968, "Ġ48": 10969, "Ġcallable": 10970, "}\")": 10971, "months": 10972, "ada": 10973, "ĠInternal": 10974, "ĠWorld": 10975, "ĠContainer": 10976, "URATION": 10977, "ĠExpected": 10978, "uY": 10979, "ostream": 10980, "Ġscsi": 10981, "ĠScript": 10982, "Ġcallbacks": 10983, "mber": 10984, "Ġvariant": 10985, "Ġbackend": 10986, "Collections": 10987, "paramref": 10988, "gspca": 10989, "avigator": 10990, "Orientation": 10991, "criteria": 10992, "zb": 10993, "ĠRandom": 10994, "dims": 10995, "Arrays": 10996, "SCSI": 10997, "HIGH": 10998, "pfn": 10999, "forms": 11000, "Ġ(\\": 11001, "VIEW": 11002, "Ġradeon": 11003, "ç¼": 11004, "Ġinv": 11005, "esture": 11006, "ĠPred": 11007, "Convention": 11008, "Resume": 11009, "Ġalert": 11010, "=[],": 11011, "standard": 11012, "INET": 11013, "xFFFF": 11014, "mag": 11015, "Ġsel": 11016, "errupted": 11017, "Colour": 11018, "Ġwrites": 11019, "Ġhour": 11020, "Indicator": 11021, "ĠLoop": 11022, "Cfg": 11023, "ĠIndia": 11024, "ĠMF": 11025, "AML": 11026, "MAG": 11027, "Rpb": 11028, "Ġ\"/\"": 11029, "anceled": 11030, "Ġsr": 11031, "Ġdeterministic": 11032, "Utilities": 11033, "getFoldWidget": 11034, "setProperty": 11035, "Preference": 11036, "servers": 11037, "Ġunderlying": 11038, "Ġ%[": 11039, "___": 11040, "Ġcairo": 11041, "}',": 11042, "Ġ':'": 11043, "grpc": 11044, "metrics": 11045, "(\"\");": 11046, "UpperCase": 11047, "\">'": 11048, "vlet": 11049, "Ġsector": 11050, "Ġdidn": 11051, "Buffers": 11052, "inuation": 11053, "Ġdatetime": 11054, "ĠSIGNAL": 11055, "Ġ');": 11056, "hn": 11057, "BEGIN": 11058, "ads": 11059, "ScriptValue": 11060, "(${": 11061, "epoch": 11062, "Ġsecret": 11063, "ĠEurope": 11064, "MALL": 11065, "busy": 11066, "LET": 11067, "router": 11068, "ĠCalling": 11069, "today": 11070, "cross": 11071, "nonce": 11072, "Serial": 11073, "Ġplan": 11074, "\"'": 11075, "DK": 11076, "\")[": 11077, "NR": 11078, "Ġtheme": 11079, "Ġgc": 11080, "ĠAzure": 11081, "userId": 11082, "SECON": 11083, "ceed": 11084, "HC": 11085, "+(": 11086, "Ġleave": 11087, "Zl": 11088, "asd": 11089, "\"]);": 11090, "æ³": 11091, "andbox": 11092, "istor": 11093, "units": 11094, "ibly": 11095, "Finish": 11096, "dayNames": 11097, "TB": 11098, "AQ": 11099, "receive": 11100, "ASN": 11101, "VK": 11102, "suspend": 11103, "mooth": 11104, "âĶ": 11105, "Ġhad": 11106, "Ġ400": 11107, "handled": 11108, "120": 11109, "ĠArguments": 11110, "INTEGER": 11111, "Ġattached": 11112, "UNUSED": 11113, "Calls": 11114, "Ġvertices": 11115, "Ġstuff": 11116, "Ġdocumentation": 11117, "coord": 11118, "rcv": 11119, "placeholder": 11120, "rotate": 11121, "ĠFix": 11122, "Ġhandles": 11123, "Ġfallback": 11124, "ĠPr": 11125, "ĠOptions": 11126, "\")}": 11127, "Dataset": 11128, "POL": 11129, "polation": 11130, "REQUI": 11131, "antic": 11132, "Ġdoing": 11133, "Ġdigits": 11134, "Ġgetting": 11135, "\"}],": 11136, "Acc": 11137, "Ġpermissions": 11138, "Toolbar": 11139, "150": 11140, "Ġcopied": 11141, "Ġpkt": 11142, "dog": 11143, "',$": 11144, "ViewModel": 11145, "Ġperm": 11146, "Ġdevm": 11147, "dependent": 11148, "Ġrecv": 11149, "ĠQueue": 11150, "Operands": 11151, "Mul": 11152, "Hdr": 11153, "UMN": 11154, "Ġdependency": 11155, "\\\"\\": 11156, "duced": 11157, "Closing": 11158, "hit": 11159, "Ġserialize": 11160, "Ġxfs": 11161, "inct": 11162, "ĠAppend": 11163, "MOT": 11164, "æĸĩä»¶": 11165, "TRA": 11166, "CWE": 11167, "0645": 11168, "buttons": 11169, "puted": 11170, "RESP": 11171, "160": 11172, "nm": 11173, "TARGET": 11174, "via": 11175, "Ġpk": 11176, "Ġmc": 11177, "GS": 11178, "LB": 11179, "enticate": 11180, "Abb": 11181, "formatter": 11182, "INF": 11183, "ĠIL": 11184, "rum": 11185, "ĠImport": 11186, "è¾": 11187, "Globals": 11188, "Revision": 11189, "arest": 11190, "Za": 11191, "0648": 11192, "Ġcurve": 11193, "segments": 11194, "/(": 11195, "WD": 11196, "raises": 11197, "()){": 11198, "Ġtcp": 11199, "mtd": 11200, "Ġclosing": 11201, "lax": 11202, "]'": 11203, "projects": 11204, "dget": 11205, "Stroke": 11206, "PROPERTY": 11207, "svn": 11208, "Ġpermission": 11209, "rename": 11210, "Lm": 11211, "hdev": 11212, "Home": 11213, "ĠFe": 11214, "ari": 11215, "Ġ_(\"": 11216, "Ġmv": 11217, "Ġimplements": 11218, "dv": 11219, "CXX": 11220, "paign": 11221, "IsPremium": 11222, "PublisherName": 11223, "xB": 11224, "ems": 11225, "ĠBB": 11226, "ĠDirectory": 11227, "Payment": 11228, "frontend": 11229, "LABEL": 11230, "MV": 11231, "bulk": 11232, "spe": 11233, "Ġextent": 11234, "counts": 11235, "HQ": 11236, "SYM": 11237, "Sockaddr": 11238, "gui": 11239, "Stamp": 11240, "iguous": 11241, "ÙĪ": 11242, "Ġpublish": 11243, "finite": 11244, "ĠChrTalk": 11245, "CString": 11246, "flip": 11247, "()-": 11248, "Requested": 11249, "ErrCode": 11250, "_%": 11251, "Exact": 11252, "LastError": 11253, "OLE": 11254, "kp": 11255, "lint": 11256, "INITION": 11257, "Ġhy": 11258, "è½": 11259, "Resolution": 11260, "ĠSDValue": 11261, "Ġpag": 11262, "cwd": 11263, "lists": 11264, "tabs": 11265, "Tax": 11266, "ĠGe": 11267, "Ġtb": 11268, "EOL": 11269, "herit": 11270, "Nav": 11271, "Ġsymbols": 11272, "Ġpointers": 11273, "Ġmodels": 11274, "enant": 11275, "ushort": 11276, "slots": 11277, "environ": 11278, "mbus": 11279, "Age": 11280, "Modify": 11281, "gY": 11282, "Ġsockaddr": 11283, "Ġcinfo": 11284, "Alt": 11285, "readable": 11286, "stral": 11287, "Gradient": 11288, "]\"": 11289, "geo": 11290, "Ġpaint": 11291, "{\\": 11292, "abcdef": 11293, "ourse": 11294, "Chr": 11295, "CLIENT": 11296, "ĠfileDescriptor": 11297, "wpdb": 11298, "Ġstub": 11299, "ĠADD": 11300, "todo": 11301, "Ġcollect": 11302, "MLE": 11303, "Feb": 11304, "Pe": 11305, "mysql": 11306, "unshift": 11307, "Bracket": 11308, "ople": 11309, "possible": 11310, "getPath": 11311, "isDefaultPrevented": 11312, "zh": 11313, "revi": 11314, "ĠAllocate": 11315, "encil": 11316, "Ġbel": 11317, "reat": 11318, "Ġreadl": 11319, "azy": 11320, "WI": 11321, "ĠChannel": 11322, "going": 11323, "ĠAllow": 11324, "ELEMENT": 11325, "Ġinf": 11326, "DEP": 11327, "textarea": 11328, "âĢ¦": 11329, "CONTENT": 11330, "rink": 11331, "ĠPM": 11332, "ĠBinding": 11333, "moves": 11334, "Ġ\"-\",": 11335, "rieves": 11336, "Fs": 11337, "Ġsprite": 11338, "pie": 11339, "Assignment": 11340, "ĠAbstract": 11341, "FFFFFF": 11342, "retch": 11343, "yl": 11344, "Ġwhite": 11345, "Ġsteps": 11346, "KT": 11347, "Ġwrapped": 11348, "reshape": 11349, "CultureInfo": 11350, "Patient": 11351, "Ġstage": 11352, "vertical": 11353, "Deep": 11354, "pull": 11355, "Cross": 11356, "lw": 11357, "fixture": 11358, "fv": 11359, "Verbose": 11360, "ĠLP": 11361, "Ġurb": 11362, "ĠLE": 11363, "*,": 11364, "isk": 11365, "ĠTensor": 11366, "Ġauthentication": 11367, "iagnostic": 11368, "ĠdAtA": 11369, "Dif": 11370, "Spy": 11371, "HM": 11372, "Latin": 11373, "ĠPort": 11374, "IOC": 11375, "dating": 11376, "Ġshadow": 11377, "Ġhi": 11378, "Ġband": 11379, "ĠPut": 11380, "registered": 11381, "Ġbook": 11382, "urther": 11383, "Ġff": 11384, "perf": 11385, "dismiss": 11386, "Ġangular": 11387, "Ġincludes": 11388, "]];": 11389, "GUILayout": 11390, "une": 11391, "096": 11392, "elif": 11393, "ĠSM": 11394, "xuICAg": 11395, "Pol": 11396, "Ġroom": 11397, "Construct": 11398, "Submit": 11399, "Backup": 11400, "weak": 11401, "Milliseconds": 11402, "111": 11403, "CAST": 11404, "Ġresulting": 11405, "quoted": 11406, "Ġmi": 11407, "iry": 11408, "atern": 11409, "ĠVK": 11410, "mmio": 11411, "ĠEnum": 11412, "Ġcomput": 11413, "Jul": 11414, "ĠDet": 11415, "pte": 11416, "ĠSome": 11417, "ĠDispose": 11418, "Ġcoordinate": 11419, "uck": 11420, "uniform": 11421, "ĠMan": 11422, "BAR": 11423, "sur": 11424, "nan": 11425, "rength": 11426, "Ġol": 11427, "'}": 11428, "Macro": 11429, ":\"\\": 11430, "Jap": 11431, "Ġsimply": 11432, "ĠWord": 11433, "delegate": 11434, "ĠInfo": 11435, "DONE": 11436, "Met": 11437, "è¦": 11438, "softc": 11439, "KV": 11440, "ĠEnvironment": 11441, "ZV": 11442, "Ġprobably": 11443, "Ġconstants": 11444, "Ġexplicitly": 11445, "Ġ?>": 11446, "SERVICE": 11447, "vdev": 11448, "Ġmismatch": 11449, "CHANGE": 11450, "bootstrap": 11451, "rieved": 11452, "IconUri": 11453, "ĠSets": 11454, "Caching": 11455, "Ġdependencies": 11456, "Invok": 11457, "BYTES": 11458, "BM": 11459, "ĠPAR": 11460, "Registration": 11461, "InvalidArgumentException": 11462, "ĠTrace": 11463, "Ġreadonly": 11464, "wheel": 11465, "Ł¥": 11466, "irc": 11467, "ĠCURL": 11468, "adj": 11469, "mbox": 11470, "Ġcipher": 11471, "ĠUInt": 11472, "ĠIPv": 11473, "ssh": 11474, "lst": 11475, "QW": 11476, "Ġchecksum": 11477, "æģ": 11478, "Deleted": 11479, "Negative": 11480, "oauth": 11481, "andReturn": 11482, "ĠWebInspector": 11483, "ĠCM": 11484, "InlineData": 11485, "trip": 11486, "half": 11487, "hasNext": 11488, "Minutes": 11489, "åħ¥": 11490, "andidates": 11491, "Ġquant": 11492, "iA": 11493, "iline": 11494, "ĠSchema": 11495, "visitor": 11496, "ĠAsia": 11497, "ĠStep": 11498, "YPT": 11499, "ABC": 11500, "Ġrevision": 11501, "ĠProperties": 11502, "ĠISD": 11503, "coin": 11504, "Substring": 11505, "templates": 11506, "allenge": 11507, "ZXJ": 11508, "bx": 11509, "React": 11510, "cart": 11511, "anned": 11512, "GBE": 11513, "Ġconditions": 11514, "emy": 11515, "LIT": 11516, "buted": 11517, "instances": 11518, "_'": 11519, "Look": 11520, "Ġide": 11521, "Phone": 11522, "ĠMOD": 11523, "KeyValue": 11524, "DH": 11525, "Large": 11526, "getObject": 11527, "isShown": 11528, "Computed": 11529, "Middle": 11530, "styles": 11531, "isNull": 11532, "SUM": 11533, ")?)|": 11534, ".<": 11535, "Ġcomputed": 11536, "umps": 11537, "[]{": 11538, "drive": 11539, "*)&": 11540, "ĠApply": 11541, "Ġrather": 11542, "Formats": 11543, "ĠUnmarshal": 11544, "night": 11545, "ĠCE": 11546, "Prod": 11547, "environment": 11548, "FileSystem": 11549, "Updates": 11550, "Ġthing": 11551, "ĠGrid": 11552, "timezone": 11553, "padapter": 11554, "References": 11555, "nod": 11556, "Maps": 11557, "ializes": 11558, "Room": 11559, "0644": 11560, "132": 11561, "vx": 11562, "ners": 11563, "eeprom": 11564, "Ġndarray": 11565, "ropy": 11566, "dprintk": 11567, "utter": 11568, "balance": 11569, "ĠĠĠĠĠĠĠĠĠĠĠĠĠĠĠĠĠĠĠĠĠĠĠĠĠĠĠĠĠĠĠĠĠĠĠĠĠĠĠĠĠĠĠĠĠĠĠĠ": 11570, "Ġ-->": 11571, "Ġbc": 11572, "Ġduplicate": 11573, "Streams": 11574, "Currency": 11575, "Ġexactly": 11576, "Asc": 11577, "paque": 11578, "//================================================================": 11579, "ofs": 11580, "matcher": 11581, "Ġescaped": 11582, "102": 11583, "loads": 11584, "æĢ": 11585, "ased": 11586, "Ġcare": 11587, "Ul": 11588, "ĠDb": 11589, "}|": 11590, "exc": 11591, "scratch": 11592, "ĠUsed": 11593, "Ġsubscription": 11594, "Behaviour": 11595, "sumed": 11596, "Processing": 11597, "Kill": 11598, "Ġlayers": 11599, "ĠCMD": 11600, "Insensitive": 11601, "SDL": 11602, "384": 11603, "Ġsound": 11604, "CheckBox": 11605, "fieldName": 11606, "PRIV": 11607, "ĠTCP": 11608, "Ġdigest": 11609, "Ġpub": 11610, "restart": 11611, "Idle": 11612, "Ġdirectories": 11613, "assertEqual": 11614, "Ġasset": 11615, "Lists": 11616, "Ġrepresents": 11617, "VD": 11618, "contain": 11619, "ĠUtils": 11620, "Ġ}),": 11621, "Ð°Ð½": 11622, "Paren": 11623, "Viewer": 11624, "Ġresize": 11625, "syntax": 11626, "}()": 11627, "HDR": 11628, "Ġpoll": 11629, "3333": 11630, "edium": 11631, "qc": 11632, "SEQ": 11633, "NING": 11634, "ĠSTATUS": 11635, "ĠETH": 11636, "curacy": 11637, "Minimum": 11638, "ĠActive": 11639, "Ġdeclaration": 11640, "perform": 11641, "adc": 11642, "charCode": 11643, "Blue": 11644, "ĠMS": 11645, "coped": 11646, "terms": 11647, "Dim": 11648, "ĠVT": 11649, ";'": 11650, "ç§": 11651, ",(": 11652, "Nb": 11653, "Ġlive": 11654, "Picker": 11655, "Ø¨": 11656, "Symbols": 11657, "NY": 11658, "olation": 11659, ">');": 11660, "Ġcodes": 11661, "Ġamd": 11662, "SetValue": 11663, "ĠPyObject": 11664, "crop": 11665, "Ġasc": 11666, "dater": 11667, "curve": 11668, "kd": 11669, "Integr": 11670, "ĠDBG": 11671, "Rew": 11672, "attrib": 11673, "ADER": 11674, "za": 11675, "capacity": 11676, "Ġentities": 11677, "chemas": 11678, "Wifi": 11679, "ena": 11680, "åĬł": 11681, "Ġpot": 11682, "Actual": 11683, "getParam": 11684, "Sy": 11685, "??": 11686, "enus": 11687, "ĠDS": 11688, "Templ": 11689, "ĠLevel": 11690, "Ġ90": 11691, "Statistics": 11692, "Brace": 11693, ":-": 11694, "Dr": 11695, "Ġsensor": 11696, "Eval": 11697, "Ġnfs": 11698, "Coverage": 11699, "jar": 11700, "Car": 11701, "Ġguarante": 11702, "aud": 11703, "middle": 11704, "-'": 11705, "ĠFailed": 11706, "ĠRET": 11707, "Sat": 11708, "bias": 11709, "ĠDrop": 11710, "toUpperCase": 11711, "FROG": 11712, "filtered": 11713, "ç±": 11714, "();\");": 11715, "lications": 11716, "Fmt": 11717, "setData": 11718, "EAR": 11719, "Ġgid": 11720, "laps": 11721, "CORE": 11722, "Launch": 11723, "PublishedDate": 11724, "Ġpredicate": 11725, "illing": 11726, "Ġexclude": 11727, "Ġinject": 11728, "serialized": 11729, "Ġpay": 11730, "XN": 11731, "Triple": 11732, "Dial": 11733, "ĉĉĉĉĉĠĠĠĠ": 11734, "Ġranges": 11735, "Ġpackets": 11736, "Ġkeywords": 11737, "Respon": 11738, "RSA": 11739, "Ġputs": 11740, "Ġextended": 11741, "outine": 11742, "ivers": 11743, "Japan": 11744, "ju": 11745, "deleted": 11746, "ĠSecurity": 11747, "Ġheap": 11748, "Ġtrying": 11749, "ĠCF": 11750, "Embed": 11751, "getB": 11752, "outline": 11753, "Ġrd": 11754, "CY": 11755, "Exchange": 11756, "Ġrenderer": 11757, "TK": 11758, "Ġmagic": 11759, "RANGE": 11760, "changes": 11761, "Ġsizes": 11762, "agger": 11763, "LASS": 11764, "044": 11765, "Austral": 11766, "additional": 11767, "mtime": 11768, "Ġcoefficient": 11769, "->__": 11770, "wchar": 11771, "matched": 11772, "parents": 11773, "requests": 11774, "CLOSE": 11775, "ĠCompare": 11776, "Ġunused": 11777, "Ġprior": 11778, "ĠPRI": 11779, "ternate": 11780, "arc": 11781, "ATIVE": 11782, "ializing": 11783, "ĠMP": 11784, "Ġeps": 11785, "Cls": 11786, "ĠSort": 11787, "Ġ\"#{": 11788, "Ġsolution": 11789, "WW": 11790, "ĠÐ¿": 11791, "MOV": 11792, "opa": 11793, "STATIC": 11794, "ynomial": 11795, "tableName": 11796, "without": 11797, "prompt": 11798, "Ġinvoked": 11799, "PY": 11800, "grees": 11801, "uw": 11802, "Ġwm": 11803, "popup": 11804, "sizes": 11805, "Oneof": 11806, "aggreg": 11807, "180": 11808, "gif": 11809, "dyn": 11810, "Ġ(!_": 11811, "Ġssl": 11812, "Ġresolution": 11813, "tribs": 11814, "mtu": 11815, "Plural": 11816, "ImageFamily": 11817, "Ġsip": 11818, "Ġ\".\"": 11819, "keyCode": 11820, "Ġinstr": 11821, "anning": 11822, "sections": 11823, "2017": 11824, "orrow": 11825, "Flat": 11826, "')),": 11827, "Ġpython": 11828, "AU": 11829, "Ġrepeat": 11830, "ĠTIM": 11831, "Ġcut": 11832, "dead": 11833, "enticated": 11834, "ERAL": 11835, "nodeName": 11836, "SURE": 11837, "RuntimeException": 11838, "Ġlisteners": 11839, "cw": 11840, "BUTTON": 11841, "nvar": 11842, "Ġ}.": 11843, "Ġeth": 11844, "Need": 11845, "ĠRectangle": 11846, "++);": 11847, "ĠRC": 11848, "Ġpres": 11849, "ĠFill": 11850, "EG": 11851, "Scenario": 11852, "Ġtranslation": 11853, "Ġpow": 11854, "plug": 11855, "was": 11856, "ValueOf": 11857, "ĠSingle": 11858, "tokenize": 11859, "Privacy": 11860, "Ġws": 11861, "åīį": 11862, "Ġmarshal": 11863, "Versions": 11864, "CIMAL": 11865, "ç±»": 11866, "animate": 11867, "visibility": 11868, "uni": 11869, "æģ¯": 11870, "Ln": 11871, "Ġsheet": 11872, "Ġresc": 11873, "Ġanaly": 11874, "filePath": 11875, "Ġintegr": 11876, "ĠObj": 11877, "BufferSize": 11878, "bars": 11879, "ĠHowever": 11880, "Den": 11881, "ĠFLAG": 11882, "getState": 11883, "aternion": 11884, "ToLower": 11885, "Ġindicate": 11886, "Await": 11887, "Sizes": 11888, "dsp": 11889, "Ġvars": 11890, "entities": 11891, "Ġmonths": 11892, "ause": 11893, "PROTO": 11894, "annotation": 11895, "Ġie": 11896, "Ġrune": 11897, "Ġoverr": 11898, "Define": 11899, "les": 11900, "?|": 11901, "Executor": 11902, "]\");": 11903, "anity": 11904, "Ġbot": 11905, "reload": 11906, "processed": 11907, "ĠBT": 11908, "ĠRece": 11909, "assets": 11910, "footer": 11911, "((\"": 11912, "VOL": 11913, "ĠTop": 11914, "ĠSNDRV": 11915, "FORE": 11916, "fony": 11917, "popr": 11918, "serve": 11919, "JK": 11920, "dataProvider": 11921, "ĠNotImplemented": 11922, "SCAN": 11923, "xxxx": 11924, "Ġratio": 11925, "Some": 11926, "Offsets": 11927, "ĠWR": 11928, "Ġglob": 11929, "getElementsBy": 11930, "Ġtell": 11931, "Australia": 11932, "linux": 11933, "Ġanswer": 11934, "Encrypt": 11935, "DeepCopy": 11936, "ĠEXT": 11937, "ĠNormal": 11938, "levels": 11939, "Foreign": 11940, "rightness": 11941, "NF": 11942, "marshall": 11943, "Country": 11944, "Issue": 11945, "QQ": 11946, "']),": 11947, "Refs": 11948, "ĠPlease": 11949, "STRUCT": 11950, "RELE": 11951, "SAFE": 11952, "rena": 11953, "ĠME": 11954, "VoCollection": 11955, "Inv": 11956, "Ġinstanti": 11957, "/?": 11958, "Ġsha": 11959, "periment": 11960, "xyz": 11961, "mobile": 11962, "NB": 11963, "mdev": 11964, "Based": 11965, "ĠSection": 11966, "yield": 11967, "QUERY": 11968, "orders": 11969, ".'/": 11970, "Ġbg": 11971, "Ġsoftware": 11972, "RegisterType": 11973, "iser": 11974, "bufs": 11975, "Ġslave": 11976, "}\";": 11977, "Ġuv": 11978, "ErrorMessage": 11979, "calls": 11980, "does": 11981, "ruby": 11982, "Shutdown": 11983, "Diagnostic": 11984, "Sharp": 11985, "timing": 11986, "Ġ\\\\": 11987, "documentElement": 11988, "USY": 11989, "ĠUART": 11990, "Ġdecoded": 11991, "JavaScript": 11992, "]()": 11993, "ĠCre": 11994, "Radio": 11995, "ĠDIS": 11996, "Targets": 11997, "Ġconnections": 11998, "GridView": 11999, "Ġreads": 12000, "Tracking": 12001, "Ġruns": 12002, "Fprintf": 12003, "HCI": 12004, "Ġbs": 12005, "ighbor": 12006, "Ġtaken": 12007, "LES": 12008, "formatted": 12009, "rammar": 12010, "Pan": 12011, "Pdf": 12012, "limits": 12013, "OME": 12014, "CLOCK": 12015, "Ġwarn": 12016, "Ġwarnings": 12017, "Ġfully": 12018, "ASCII": 12019, "STER": 12020, "scripts": 12021, "trail": 12022, "FOUND": 12023, ":#": 12024, "VIDEO": 12025, "expectedException": 12026, "Ġaccum": 12027, "imm": 12028, "domainObject": 12029, "NX": 12030, "Ġreplaced": 12031, "ĠExtract": 12032, "ĠLocation": 12033, "aches": 12034, "ansion": 12035, "åĪĨ": 12036, "Fil": 12037, "Lambda": 12038, "hba": 12039, "ĠTy": 12040, "CLR": 12041, "ĠĠĠĠĠĠĠĠĠĠĠĠĠĠĠĠĠĠĠĠĠĠĠĠĠĠĠĠĠĠĠĠĠĠĠĠĠĠĠĠĠĠĠĠĠĠĠĠĠ": 12042, "how": 12043, "Drawable": 12044, "ipt": 12045, "fy": 12046, "Ġ300": 12047, "mtx": 12048, "PHPExcel": 12049, "ĠVisit": 12050, "Pen": 12051, "Ġmerged": 12052, "getUser": 12053, "sbi": 12054, "istribute": 12055, "wpa": 12056, "Ġspecifies": 12057, "ObjectMeta": 12058, "Ġlarger": 12059, "ĠStringRef": 12060, "journal": 12061, "measure": 12062, "Rpc": 12063, "ssibly": 12064, "luent": 12065, "']->": 12066, "Testing": 12067, "coords": 12068, "Ġvisitor": 12069, "Removed": 12070, "ĠNon": 12071, "setName": 12072, "ARE": 12073, "Detect": 12074, "take": 12075, "querySelector": 12076, "qe": 12077, "Ġsom": 12078, "Pix": 12079, "HttpRequest": 12080, "Gh": 12081, "Ġ'__": 12082, "Ġasynchronous": 12083, "Walk": 12084, "xuICAgICAg": 12085, "Fixture": 12086, "ĠNative": 12087, "=/": 12088, "CancellationToken": 12089, "ĠPI": 12090, "General": 12091, "Dimensions": 12092, "frm": 12093, "Ġfar": 12094, "ĠStandard": 12095, "Workflow": 12096, "Attrib": 12097, "etter": 12098, "Less": 12099, "EventType": 12100, "Ġfirmware": 12101, "noConflict": 12102, "Ġbfd": 12103, "ĠExamples": 12104, "Pixels": 12105, "ih": 12106, "Inventory": 12107, "bone": 12108, "AnchorStyles": 12109, "ĠUns": 12110, "ContainsKey": 12111, "Composite": 12112, "Plugins": 12113, "ĠGC": 12114, "Fl": 12115, "ĠFail": 12116, ",\"\\": 12117, "scrollspy": 12118, "åĢ¼": 12119, "OSImage": 12120, "\")))": 12121, "ä¸Ĭ": 12122, "Ġformats": 12123, "Blend": 12124, "SYSTEM": 12125, "prox": 12126, "expires": 12127, "Vz": 12128, "Ġcandidate": 12129, "Addresses": 12130, "googleapi": 12131, "modify": 12132, "ĠAtom": 12133, "bios": 12134, "Cam": 12135, "AVE": 12136, "firstChild": 12137, "2014": 12138, "Ġrescue": 12139, "Ġreinterpret": 12140, "0628": 12141, "Ġimplicit": 12142, "READY": 12143, "sol": 12144, "Ġshare": 12145, "Est": 12146, "ĠRPC": 12147, "ĠgetName": 12148, "park": 12149, "printLine": 12150, "hdmi": 12151, "Ġwindows": 12152, "0646": 12153, "Ġcompatibility": 12154, "getNext": 12155, "consumer": 12156, "cade": 12157, "rees": 12158, "ĠEncode": 12159, "checksum": 12160, "DNS": 12161, "sequent": 12162, "***": 12163, "Ġfiltered": 12164, "Continue": 12165, "Ġ/\\": 12166, "PACK": 12167, "LogicalSizeInGB": 12168, "permission": 12169, "Specific": 12170, "terminal": 12171, "cookies": 12172, "Adds": 12173, "ĠTri": 12174, "'<": 12175, "Ġmaps": 12176, "Ø¯": 12177, "ĠSYS": 12178, "Definitions": 12179, "ĠFUN": 12180, "Ġunion": 12181, "itr": 12182, "MATCH": 12183, "ĠWin": 12184, "DECIMAL": 12185, "Ġindexes": 12186, "Skill": 12187, "\")).": 12188, "blur": 12189, "klass": 12190, "fff": 12191, "RTC": 12192, "ĠDEFINITION": 12193, "UU": 12194, "smp": 12195, "Ġplugins": 12196, "Sq": 12197, "pany": 12198, "getAll": 12199, "negative": 12200, "rowse": 12201, "ValueType": 12202, "(\"--": 12203, "Ġconstraints": 12204, "Ġjasmine": 12205, "Øª": 12206, "ĉĉĉĉĉĠĠĠĠĠ": 12207, "Ġrestart": 12208, "Singleton": 12209, "ĠTO": 12210, "hooks": 12211, "VA": 12212, "ĠQVERIFY": 12213, "getField": 12214, "XR": 12215, "ĠFoo": 12216, "Ġperformance": 12217, "Ġpv": 12218, "cular": 12219, "ç¬": 12220, "oned": 12221, "Aggregate": 12222, "Ġblack": 12223, "pectrum": 12224, "versions": 12225, "letter": 12226, "Ġepoch": 12227, "Ġquoted": 12228, "Ġxmlns": 12229, "Ġ10000": 12230, "IOS": 12231, "Conditional": 12232, "Ġinserted": 12233, "CodeMirror": 12234, "rollers": 12235, "CMP": 12236, "ĠONE": 12237, "ä¿¡": 12238, "ibr": 12239, "DOUBLE": 12240, "DisplayName": 12241, "Ġrpc": 12242, "204": 12243, "izations": 12244, "ĠDatabase": 12245, "Ġannotation": 12246, "MetaData": 12247, "ĠAudio": 12248, "Ġ$\"": 12249, "Implementation": 12250, "Balancer": 12251, "Ġpx": 12252, "outil": 12253, "Palette": 12254, "Ġcam": 12255, "ĠĠĠĠĠĠĠĠĠĠĠĠĠĠĠĠĠĠĠĠĠĠĠĠĠĠĠĠĠĠĠĠĠĠĠĠĠĠĠĠĠĠĠĠĠĠĠĠĠĠ": 12256, "ality": 12257, "PubKey": 12258, "Ġcapacity": 12259, "ĠUs": 12260, "Indexes": 12261, "WINDOW": 12262, "INTERFACE": 12263, "Ġreduce": 12264, "DAT": 12265, "ĠCloud": 12266, "Unsigned": 12267, "Ġlisten": 12268, "è®¾": 12269, "PropertyName": 12270, "Ġsegments": 12271, "Îµ": 12272, "around": 12273, "Ġnormalized": 12274, "fld": 12275, "UGIN": 12276, "Ġnn": 12277, "SPEED": 12278, "ĉĠĠĠĠĠĠĠĠĠĠĠ": 12279, "recursive": 12280, "ĠRoute": 12281, "DRM": 12282, "valueObject": 12283, "phrase": 12284, "Ill": 12285, "fatal": 12286, "æŃ": 12287, ",.": 12288, "includes": 12289, "OWN": 12290, "boundary": 12291, "ftp": 12292, "WEEK": 12293, "glob": 12294, "sas": 12295, "};\\": 12296, "Encoded": 12297, "offsetWidth": 12298, "unity": 12299, "Ġexceptions": 12300, "Needed": 12301, "Rank": 12302, "Ġcred": 12303, "GetName": 12304, "([^": 12305, "Ġdigit": 12306, "getOpcode": 12307, "Repo": 12308, "strcpy": 12309, "(&$": 12310, "EK": 12311, "syn": 12312, "vity": 12313, "Ġrendered": 12314, "vk": 12315, "Ġder": 12316, "Ġbank": 12317, "Apr": 12318, "Cipher": 12319, "]):": 12320, "0440": 12321, "åĲ¦": 12322, "IPv": 12323, "audit": 12324, "tfm": 12325, "')));": 12326, "ĠRaises": 12327, "packets": 12328, "Logs": 12329, "MessageBox": 12330, "icons": 12331, "cursively": 12332, "tour": 12333, "toEqual": 12334, "iggers": 12335, "Inputs": 12336, "izard": 12337, "ĠNAME": 12338, "Ġshouldn": 12339, "ĠProtoMessage": 12340, "Hard": 12341, "Ġincorrect": 12342, "//----------------------------------------------------------------": 12343, "ĠMOZ": 12344, "Finder": 12345, "BIG": 12346, "à¹": 12347, "ĠSys": 12348, "Mismatch": 12349, "ĠDomain": 12350, "algorithm": 12351, "anger": 12352, "ĠCPL": 12353, "Spe": 12354, ");}": 12355, "Ġfloor": 12356, "amps": 12357, "=\\": 12358, "orthand": 12359, "ĠLength": 12360, "Ġchunks": 12361, "atory": 12362, "ĠEquals": 12363, "Frequency": 12364, "While": 12365, "Ġgetattr": 12366, "Î±": 12367, "Nz": 12368, "inite": 12369, "Ġsmaller": 12370, "MY": 12371, "Ġincoming": 12372, "Scheduler": 12373, "ĠFS": 12374, "\"][\"": 12375, "Boundary": 12376, "Ġterms": 12377, "always": 12378, "ĠAss": 12379, "Delim": 12380, "ĠCalled": 12381, "Ġfew": 12382, "264": 12383, "CAN": 12384, "esting": 12385, "Ġaff": 12386, "Repeat": 12387, "joint": 12388, "Ġdash": 12389, "Ġaddition": 12390, "ĠÃ": 12391, "itable": 12392, "sched": 12393, "ĠĠĠĠĠĠĠĠĠĠĠĠĠĠĠĠĠĠĠĠĠĠĠĠĠĠĠĠĠĠĠĠĠĠĠĠĠĠĠĠĠĠĠĠĠĠĠĠĠĠĠĠĠĠĠ": 12394, "Ġrem": 12395, "Ġ\\\"%": 12396, "bracket": 12397, "DELAY": 12398, "ĠSmallVector": 12399, "Ġmoment": 12400, "ups": 12401, "GetInstance": 12402, "REEN": 12403, "finished": 12404, "Ġ36": 12405, "minimum": 12406, "Ø³": 12407, "ArrayList": 12408, "ĠGot": 12409, "ocab": 12410, "bbox": 12411, "aven": 12412, "misc": 12413, "NoError": 12414, "Router": 12415, "ĠTx": 12416, "JJ": 12417, "Ġfollowed": 12418, "ĠAnal": 12419, "COR": 12420, "EH": 12421, "Sources": 12422, "yB": 12423, "Ġcounts": 12424, "ĠGeneric": 12425, "OPCODE": 12426, "Ġboxes": 12427, "could": 12428, "ĠPosition": 12429, "ĠRow": 12430, "Timeval": 12431, "follow": 12432, "ining": 12433, "docker": 12434, "translation": 12435, "[][]": 12436, "PB": 12437, "Ġminor": 12438, "ĠCodeMirror": 12439, "DATETIME": 12440, "vq": 12441, "Ġgradient": 12442, "ĠassertFalse": 12443, "Ġminutes": 12444, "xi": 12445, "Ġcalc": 12446, "è¦ģ": 12447, "ĠMay": 12448, "aliases": 12449, "TextString": 12450, "Flash": 12451, "proj": 12452, "Ġdeferred": 12453, "ĠNdb": 12454, "ĠCV": 12455, "Ġassembly": 12456, "ĠWIN": 12457, "opaque": 12458, "dividual": 12459, "inside": 12460, "!--": 12461, "IQ": 12462, "isFunction": 12463, "dark": 12464, "Views": 12465, "ticks": 12466, "RESH": 12467, "ĠSDK": 12468, "thisfile": 12469, "?>": 12470, "large": 12471, "ANG": 12472, "dependencies": 12473, "ĠGuid": 12474, "CEPTION": 12475, "Solver": 12476, "udelay": 12477, "Hy": 12478, "Connector": 12479, "Ġlocked": 12480, "Ġ++$": 12481, "Ġsimilar": 12482, "Additional": 12483, "separ": 12484, "epi": 12485, "controls": 12486, "564": 12487, "INTERNAL": 12488, "uer": 12489, "1010": 12490, "beat": 12491, "Wx": 12492, "Ġoverwrite": 12493, "ĉĉĉĉĉĊ": 12494, "ĠOrder": 12495, "_*": 12496, "ĠCWE": 12497, "Ġask": 12498, "enerated": 12499, "Confirm": 12500, "INSTANCE": 12501, "Wa": 12502, "ghi": 12503, "SAMPLE": 12504, "WithError": 12505, "ADC": 12506, "Ġscratch": 12507, "Ġhappens": 12508, "ATOMIC": 12509, "Ġslash": 12510, "ternative": 12511, "ĠDefaults": 12512, "Ub": 12513, "AJ": 12514, "ĠVal": 12515, "ĠPerform": 12516, "Ġ**/": 12517, "STORE": 12518, "Boot": 12519, "prise": 12520, "aat": 12521, "Ġ])": 12522, "mkdir": 12523, "lations": 12524, "------------------------------------------------": 12525, "nfs": 12526, "DROP": 12527, "Pressed": 12528, "Tabs": 12529, "Glvb": 12530, "ĠInvoke": 12531, "Initialized": 12532, "queues": 12533, "POLL": 12534, "keywords": 12535, "chunks": 12536, "Ġbi": 12537, "$/,": 12538, "Dependencies": 12539, "FIN": 12540, "ingerprint": 12541, "EXPECT": 12542, "Review": 12543, "NAMESPACE": 12544, "palette": 12545, "(!(": 12546, "Ġstyles": 12547, "Ġconsider": 12548, "(?:[": 12549, "Ġgeneral": 12550, "Ġevaluate": 12551, "Aq": 12552, "DiscardUnknown": 12553, "ALPH": 12554, "Typed": 12555, ")==": 12556, "ÃŃ": 12557, "FEATURE": 12558, "CURRENT": 12559, "KB": 12560, "Ġiv": 12561, "Ġti": 12562, "OID": 12563, "square": 12564, "Ġgetter": 12565, "ĠPlayer": 12566, "æŀľ": 12567, "Na": 12568, "wall": 12569, "nth": 12570, "Ranges": 12571, "jit": 12572, "DAC": 12573, "sat": 12574, "125": 12575, "Ġkvm": 12576, "Slide": 12577, "air": 12578, "Union": 12579, "ETH": 12580, "Creature": 12581, "fallback": 12582, "çī": 12583, "ĠVec": 12584, "Ġhasattr": 12585, "ĠTemp": 12586, "rn": 12587, "elding": 12588, "122": 12589, "asList": 12590, "Ġsvc": 12591, "Ġ%(": 12592, "ERIC": 12593, "ĠMB": 12594, "Projection": 12595, "SUPPORTED": 12596, "Norm": 12597, "Accessible": 12598, "Ġ%%": 12599, "Ġreached": 12600, "pick": 12601, "ĠGoString": 12602, "RING": 12603, "<>(": 12604, "Ġmicro": 12605, "Ġimpl": 12606, "groupBox": 12607, "Ġhigher": 12608, "TING": 12609, "ĠMM": 12610, "cells": 12611, "ĉĉĉĉĉĉĉĉĉĉĉ": 12612, "ĠSocket": 12613, "Ġstrtolower": 12614, "************************": 12615, "Utf": 12616, "Minus": 12617, "Ġconcat": 12618, "constants": 12619, "jiffies": 12620, "pal": 12621, "alignment": 12622, "lparen": 12623, "Ġprovides": 12624, "startsWith": 12625, "did": 12626, "NCY": 12627, "SOR": 12628, "URIComponent": 12629, "^^": 12630, "credentials": 12631, "Ġtxt": 12632, "Ġdentry": 12633, "KG": 12634, "Ġdr": 12635, "Ġdirty": 12636, "Ġfurther": 12637, "osen": 12638, "Ġali": 12639, "ango": 12640, "Ġformatter": 12641, "Ġ%.": 12642, "ards": 12643, "autorest": 12644, ",\\\"": 12645, "Ġans": 12646, "compar": 12647, "rtw": 12648, "pairs": 12649, "Terminal": 12650, "CEE": 12651, "general": 12652, "inical": 12653, "ĠCore": 12654, "ĠNPT": 12655, ">());": 12656, "ker": 12657, "mw": 12658, "Ġaligned": 12659, "Fy": 12660, "å¼ı": 12661, "ele": 12662, "paused": 12663, "Upgrade": 12664, "('./": 12665, "00000000000000000000000000000000000000000000000000000000000000000000000000000000000000000000000000000000000000000000000000000000000000000000000000000000000000000000000000000000000000000000000000000000000000000000000000000000000000000000000000000000000000000000000000000000000000000000000000000000000000000000000000000000000000000000000000000000000000000000000000000000000000000000000000000000000000000000000000000000000000000000000000000000000000000000000000000000000000000000000000000000000000000000000000000000": 12666, "ĠAv": 12667, "ĠBytes": 12668, "103": 12669, "IEnumerable": 12670, "ZG": 12671, "Vl": 12672, "ĠSupport": 12673, "Ð±": 12674, "Ġxs": 12675, "pcie": 12676, "resolver": 12677, "Exceptions": 12678, "ĠRequired": 12679, "ĠOTHER": 12680, "ZU": 12681, "callbacks": 12682, "Existing": 12683, "STACK": 12684, "ĠVirtual": 12685, "bos": 12686, "icip": 12687, "!\",": 12688, "modifier": 12689, "Mappings": 12690, "ĠLinux": 12691, "ACTIV": 12692, "esp": 12693, "EBUSY": 12694, "ĠThen": 12695, "rates": 12696, "ĠDel": 12697, "verts": 12698, "ĠFound": 12699, "Ġchecker": 12700, "Blank": 12701, "Ġvi": 12702, "Cells": 12703, "BackColor": 12704, "Lun": 12705, "Immediate": 12706, "ĠPur": 12707, "ĠBLOCK": 12708, "about": 12709, "vey": 12710, "ACL": 12711, "descr": 12712, "Ġcontained": 12713, "DQ": 12714, "fan": 12715, "urst": 12716, "Ġcomedi": 12717, "printStackTrace": 12718, "TREE": 12719, "emulate": 12720, "VERT": 12721, "Ġrev": 12722, "assertInstanceOf": 12723, "Locations": 12724, "Viewport": 12725, "indio": 12726, "Reserved": 12727, "åĳ": 12728, "Ġsnprintf": 12729, "ieve": 12730, "gfx": 12731, "ĠFont": 12732, "Ġdisplayed": 12733, "Ġvolatile": 12734, "specified": 12735, "Ġack": 12736, "Dao": 12737, "thenReturn": 12738, "ĠMulti": 12739, "Infinity": 12740, "ellow": 12741, "lavor": 12742, "Ġcompression": 12743, "Ġleaf": 12744, "Ġlatest": 12745, "StartTime": 12746, "Bg": 12747, "locations": 12748, "Listen": 12749, "Positions": 12750, "Arn": 12751, "\"/": 12752, "exceptions": 12753, "sidered": 12754, "StateException": 12755, ".*?": 12756, "removeChild": 12757, "ĠMBB": 12758, "ĠLib": 12759, "adget": 12760, "versal": 12761, "Ġvc": 12762, "POINTER": 12763, "Calculate": 12764, "Ġfamily": 12765, "ĠDT": 12766, "Capabilities": 12767, "xmit": 12768, "Ġsrv": 12769, "getFile": 12770, "ĠPrepare": 12771, "erce": 12772, "vY": 12773, ")],": 12774, "ĠBE": 12775, "Ġdifference": 12776, "bss": 12777, "cov": 12778, "writable": 12779, "DURATION": 12780, "ĠConfigure": 12781, "Ġfr": 12782, "childNodes": 12783, "016": 12784, "åĪ°": 12785, "Ã¤": 12786, "Ġevalu": 12787, "mmetric": 12788, "gree": 12789, "Aug": 12790, "Ġ'&#": 12791, "_]+": 12792, "Ġels": 12793, "lencode": 12794, "ĠBody": 12795, "operations": 12796, "Ġ<<=": 12797, "./": 12798, "Ġjiffies": 12799, "ĠCOL": 12800, "Ġintent": 12801, "Ġapr": 12802, "DOC": 12803, "person": 12804, "nodeType": 12805, "Roles": 12806, "à¥į": 12807, "Bindings": 12808, "arity": 12809, "ObjC": 12810, "qb": 12811, "ĠTimeSpan": 12812, "ĠSQLException": 12813, "wrong": 12814, "gf": 12815, "Ġcertain": 12816, "Ġtid": 12817, "Ġretrieved": 12818, "inspect": 12819, "SuppressWarnings": 12820, "getRequest": 12821, "ĠPO": 12822, "Steps": 12823, "numpy": 12824, "Ġuuid": 12825, "Ġuc": 12826, "ENSION": 12827, "Ġmarked": 12828, "jpeg": 12829, "LAST": 12830, "levant": 12831, "âĢĶâĢĶâĢĶâĢĶ": 12832, "Hour": 12833, "Assertion": 12834, "ools": 12835, "xpath": 12836, "getM": 12837, "Jax": 12838, "initializer": 12839, "Geom": 12840, "directive": 12841, "Cols": 12842, "ï¼ļ": 12843, "Parallel": 12844, "Ġautog": 12845, "lcd": 12846, "upported": 12847, "EXIST": 12848, "getTarget": 12849, "Ġ(++": 12850, "STATS": 12851, "Ġaddrlen": 12852, "ĠEmpty": 12853, "WithContext": 12854, "Rune": 12855, "xor": 12856, "Ġprobe": 12857, "Arrow": 12858, ")&&(": 12859, "SID": 12860, "icates": 12861, "tras": 12862, "lements": 12863, "CAL": 12864, "LCB": 12865, "LR": 12866, "ĠDetermine": 12867, "inet": 12868, "ceeded": 12869, "->$": 12870, "TypeOf": 12871, "å·": 12872, "offs": 12873, "Ġ'=": 12874, "fence": 12875, "udev": 12876, "Ġexc": 12877, "setEnabled": 12878, "supports": 12879, "wdt": 12880, "Android": 12881, "ĠReport": 12882, "Ġ*>": 12883, "BUILD": 12884, "Damage": 12885, "Cb": 12886, "Pie": 12887, "COLUMN": 12888, "ĠATA": 12889, "Illum": 12890, "Spacing": 12891, "Threads": 12892, "ently": 12893, "IsEmpty": 12894, "inity": 12895, "Ġmanaged": 12896, "escaped": 12897, "oe": 12898, "Ġtrunc": 12899, "wiki": 12900, "Lexer": 12901, "\")){": 12902, "Ġthough": 12903, "Ġrecent": 12904, "delayed": 12905, "Ġgeometry": 12906, "éĶ": 12907, "COPY": 12908, "Ġdirective": 12909, "rans": 12910, "ircular": 12911, "Ġcrc": 12912, "Tail": 12913, "thumb": 12914, "Ġpositions": 12915, "ĠParser": 12916, "Canonical": 12917, "GetCurrent": 12918, "PrivateKey": 12919, "Ġhaving": 12920, "ki": 12921, "ĠpostIndex": 12922, ",!": 12923, "Ġsolid": 12924, "srv": 12925, "Ġconflict": 12926, "getChild": 12927, "ĠPRO": 12928, "bra": 12929, "Ġtv": 12930, "cod": 12931, "manifest": 12932, "Bra": 12933, "xffffffff": 12934, "Cred": 12935, "éĿ": 12936, "Ġletter": 12937, "needs": 12938, "allocated": 12939, "ĠEOF": 12940, "PageToken": 12941, "mii": 12942, "+)": 12943, "Cleanup": 12944, "Ġ\"__": 12945, "StringRef": 12946, "Uses": 12947, "EXPORT": 12948, "die": 12949, "but": 12950,
[...]
