#version: 0.2
Ġ Ġ
ĠĠ ĠĠ
ĠĠ Ġ
ĠĠĠĠ ĠĠĠĠ
r e
i n
e r
o n
s t
a t
Ġ =
e n
t h
) ;
ĉ ĉ
o r
a r
a l
s e
ĠĠĠĠ ĠĠĠ
l e
c t
i on
d e
Ġ {
Ġ (
u r
i s
a n
Ġ c
e t
i f
t e
- >
a m
u n
ĠĠĠĠĠĠĠĠ ĠĠĠ
Ġ f
Ġ th
/ /
- -
Ġ n
r o
c e
in g
re t
i t
Ġ t
ur n
en t
Ġ }
Ġ *
ret urn
Ġ p
( )
in t
Ġ s
u e
s s
Ġ a
i d
l o
Ġ "
e d
i c
Ġ $
p e
Ġ b
d d
c h
u l
Ġ m
at e
Ġth e
t r
u t
Ġ o
b b
ct ion
am e
st r
i l
e l
a g
g et
Ġ v
Ġ 0
Ġ if
c k
Ġ '
0 0
ĠĠĠĠĠĠĠĠ ĠĠĠĠĠĠĠ
p t
* *
c o
e x
a d
i g
ĠĠĠĠ Ġ
u m
" ,
i m
Ġ w
-- --
Ġ re
Ġ d
I n
e s
Ġ return
er r
o l
y pe
l a
Ġ in
e w
th is
se t
un ction
r i
ĠĠĠĠĠĠĠĠ ĠĠĠĠĠĠĠĠ
o de
r a
u b
at a
= =
: :
an d
o t
( "
i z
o m
Ġ S
i st
Ġt o
) )
al ue
ĉĉ ĉ
R e
Ġ +
a b
Ġ T
u s
Ġ <
Ġ //
Ġ &
i le
at ion
a s
( );
Ġ 1
c on
h e
er t
a se
en d
v e
a p
Ġ C
bb bb
' ,
ag e
e ct
iz e
u p
Ġ l
pt ion
ar am
ul t
e m
f f
Ġ :
o d
Ġth is
Ġ i
Ġc on
Ġ= =
l ic
Ġ !
Ġ A
Ġ int
Ġ is
) ,
ab le
Ġ st
C on
er s
al l
( '
Ġf or
m ent
b j
Ġ h
S t
** **
( $
k e
str ing
Ġ e
Ġ err
E x
q u
o w
Ġ de
i r
Ġn ew
---- ----
Ġ -
re n
f o
ul l
b u
ĉĉ ĉĉ
re s
t er
t o
te x
Ġ N
o id
ĠĠĠĠĠĠĠĠ ĠĠĠĠĠĠĠĠĠĠĠ
E R
Ġo f
ub lic
u ct
a ck
at h
v i
p aram
or t
Ġf unction
ra y
ar t
m p
Ġ I
in e
dd dd
N ame
Ġ g
tr ing
el se
Ġ D
Ġ P
n ame
l i
f unction
o p
Ġ! =
bj ect
f or
Ġ _
f a
tex t
Ġ [
str uct
im e
Ġ r
ex t
Ġt r
Ġ u
p ut
Ġ* /
Ġ M
d ata
00 00
h t
q ue
in d
T ype
/ *
un t
p ro
an g
v er
Ġ ar
) );
Ġ |
s c
I N
Ġ F
p ublic
o s
p a
lo ck
o ut
G et
" );
Ġv ar
Ġb e
al se
o c
ss ert
E n
a in
de x
bbbb bbbb
Ġ else
a ch
ke y
ig n
) .
a dd
D e
i th
ren t
o ur
Ġ ex
r r
R E
i p
t ype
S tring
or d
un c
T o
Ġ 2
at ch
ro m
te st
l en
v ent
3 2
la ss
de v
V alue
Ġ& &
== ==
Ġn ull
v ar
E rr
v al
P ro
Ġre s
Ġ and
' ]
que st
Ġ se
te m
Ġ >
O N
le ment
at ic
ro w
Ġ: =
S T
u re
Ġ B
s h
A T
vi ce
Ġv oid
Ġ string
e ss
Ġ %
our ce
on e
de f
y te
g th
l y
Ġc h
it y
o int
a k
[ '
R es
a ct
p er
an ce
i re
Ġ )
Ġ get
I d
Ġ .
Ġ L
E N
il d
a x
s er
e st
p ort
ig ht
f ig
i al
o f
m o
] ,
L L
p on
v alue
f unc
el d
an s
Ġf alse
Ġv alue
**** ****
Ġtr ue
ce ption
Ġ= >
ri te
a y
o re
i ve
Ġp ro
re ate
p r
< /
co de
i eld
g s
for m
' )
// /
ĠĠĠĠĠĠĠĠ Ġ
Ġn ame
lo c
l l
Ġ O
e th
ce ss
Err or
un d
i x
ar y
s ize
b o
u le
Ġn ot
fa ult
Ġ( !
= "
o st
I D
re ak
" )
it ion
k en
ĠĠĠĠĠĠĠĠ ĠĠĠĠĠĠĠĠĠĠĠĠĠĠĠ
D ata
ption s
" :
re ad
S et
re ss
Ġ an
+ +
ct ed
-------- --------
Ġ R
i v
] ;
f ile
or y
L E
Ġ set
p p
A r
Ġ #
dddd dddd
at or
ess age
Ġ U
Ġ it
eth od
um ent
C om
O R
qu al
L ist
C h
Ġerr or
ad er
Ġn il
b er
f e
6 4
A L
te d
Ġ un
la y
Ġ| |
Ġ on
Ġ G
Ex ception
Ġ );
re g
] .
Ġ E
u st
( &
a il
} ,
o g
Ġar ray
c l
Ġ x
Ġd ata
ri v
i de
Ġ or
p l
at us
l ag
_ _
p h
Ġb o
S E
Ġa s
Ġw h
re d
Ġc ase
Ġc om
p le
ang e
S e
Ġ W
Ġt ype
Ġ @
// //
I T
() ,
n ew
v oid
lo g
ff er
D E
se d
r y
p tr
p ath
re f
() .
O bject
ur rent
K e
ap p
M A
U LL
tr i
ff set
Ġ j
o unt
d ate
@ @
as k
Ġw ith
or m
pon se
a c
Ġth at
p ert
lo w
Ġcon st
. .
Ke y
il l
Con t
() );
c ase
st atic
re am
li ent
co l
ar get
Ġw e
re e
S ize
y n
Ġu int
b ack
st ance
m l
ro up
at ed
i es
) {
Ġo ut
an t
Ġs h
bbbbbbbb bbbbbbbb
) :
co m
en er
F ile
er y
A t
con t
s ign
t p
a st
in fo
Ġ test
U n
Ġ H
Ġ y
he ck
ĠĠĠĠ ĠĠ
' );
Ġ< <
A dd
A R
i b
B u
o k
len gth
o ck
() )
0000 0000
in k
l ist
r c
us er
o le
In fo
on g
Ġa ssert
C ol
Ġcon t
i o
ar d
Ġ al
bu te
Ġ 3
p riv
" ;
ode l
Ġ ?
Ġd o
pe c
or k
tri bute
um ber
p ar
C T
le ct
ĠN ULL
a ve
Ġ V
T r
Ġf ile
Ġ end
Ġs ize
Ġl en
ow n
Ġ /
S er
e c
ers ion
l f
Ġ Ċ
Ġ In
T ime
s g
ar g
1 6
==== ====
Ġf rom
lo ad
u se
ĠĠĠĠĠĠĠĠĠĠĠĠĠĠĠĠ ĠĠĠĠĠĠĠĠĠĠĠĠĠĠĠĠ
Ġb u
O M
Ġ at
s um
N ode
\ \
[ ]
pr int
ul d
if i
d er
ĠT he
Ġ Re
Ġres ult
g er
co unt
T est
en s
m ap
In dex
lag s
Ġ+ =
o uld
y st
l ine
S S
r ame
p os
H E
de d
id th
od ule
m d
I C
Ġ /*
: "
ĉĉ ĉĉĉ
a v
lo at
T ext
. _
Ġ( $
e p
in dex
yst em
s p
H e
Ġ 4
it er
err or
1 0
n e
Ġ k
St ate
pert y
A n
E vent
b e
bu f
mo ve
1 2
st art
u te
E qual
P oint
M E
Ġ en
n ode
sign ed
in al
Ġa dd
I tem
ir st
b yte
] )
Ġch ar
ind ow
con st
Ġ im
w rite
Ġ str
as h
an n
ri pt
S h
b ase
P ath
m and
a ke
A A
n o
pt y
res ult
st ate
Ġb reak
C lass
Ġ key
i ew
and le
th er
Con text
A N
co mp
pe cted
Ġo bject
S c
um n
m in
us h
u g
ach e
I s
pa ce
P aram
Ġa re
******** ********
c lass
E lement
A C
Ġ Q
c ur
O T
A D
c p
val id
and l
C ode
y le
g e
I S
t ing
Re quest
O P
Ġ le
ĠS tring
m ary
dddddddd dddddddd
ar ray
a ssert
( (
E D
In t
s ub
Ġst atic
' ;
fa ce
p s
ra w
t ime
Ġl ist
ur l
B o
Ġth row
" "
F F
' :
b reak
et urn
la ce
T R
Ġ he
is p
es c
" >
il ter
C ount
L en
u d
Ġre g
T h
ct x
it s
le te
te mp
u th
all back
S I
Ar ray
Ġ id
L O
c cess
Ġ Get
ire ct
Ġ \
f t
u al
Ġ( (
Re g
F orm
Ġ `
Ġbo ol
P E
sum mary
la b
d b
m b
o bject
le ction
on t
++ )
n um
Ġ ret
m t
U N
al id
Ġar g
m a
Ġp ublic
Ġuint ptr
in it
Ġb y
o ptions
Con fig
Ġ= ==
c reate
p re
# #
con fig
s a
r int
Ġc ol
Ġ up
Ġ} ,
la st
Ġp aram
andl er
i se
ĠĠĠĠĠĠĠĠĠĠĠĠĠĠĠĠ ĠĠĠĠĠĠĠĠĠĠĠ
od y
M essage
i tem
ist er
ro ll
", "
Ġ_ _
y s
p c
Res ult
i te
am ple
yn c
t on
Q u
U R
Ġ struct
m ax
v el
lo b
M ap
d ir
qu ire
Ġs c
ch ar
U T
w ord
lo se
ER R
1 1
add r
v err
ar ch
Ġre quest
ter n
Ġw ill
bu g
f s
l d
m em
Ġ} );
oc ument
. $
G E
Ġp a
//// ////
O f
w ork
s on
ub le
con d
ent ry
n ext
re quest
Ġ[ ]
verr ide
P I
ar k
j ect
Ġn ode
it ch
Ġ J
F I
ol d
A B
---------------- ----------------
L oc
if y
ro l
p lace
qu ery
O r
o und
] );
priv ate
V iew
g r
de fault
U p
' t
e e
Ġt ime
( ?
ren ce
Ġ all
ord er
Ġc an
ĠT h
an ag
0 1
Res ponse
Ġ X
F ield
A s
ar gs
L ine
e vent
Ġse lf
ĠI f
ut ton
Ġde fault
a it
to ken
loc al
Ġ 5
st atus
To ken
a pe
O ut
Ġp ar
F rom
f ield
0 2
p i
Ġn o
in put
fe rence
l ink
p oint
T E
s k
Ġc heck
L o
e lement
w itch
Ser vice
bbbbbbbbbbbbbbbb bbbbbbbbbbbbbbbb
[ "
t able
p ress
Ġp ath
em pty
Ġu se
o ffset
a ction
n s
c ord
Ġe lement
I ON
de vice
ect or
ur ation
En d
Ġst ate
r l
-> _
a re
in ed
ĠĠĠĠĠĠĠĠ ĠĠĠĠĠ
P a
00000000 00000000
at tr
n ull
ole an
Ġs er
ch e
U E
At tribute
P R
tr ans
Ġs pec
it le
L og
' s
int er
e b
i a
s pace
Ġ ro
f d
le d
P os
t ot
Ġc urrent
yte s
ann el
Ġst art
\ "
et er
d o
} ;
Ġin dex
lab el
d r
t x
u int
t tp
C E
anag er
i ct
Ġ> =
C K
Ġa pp
Ġm ethod
L e
Ġ us
Tr ans
p en
F or
pe ct
m atch
fo re
Len gth
(? :
m s
Ġo ptions
v ert
ut o
ag es
in s
che ck
Ġn e
W ith
p y
U S
Pro perty
n et
form at
re q
] [
print f
Ġ} ;
Ġ 8
ot o
N ot
g roup
ain er
Ġe vent
0 4
ation s
at ure
Point er
M odel
ĠC on
en ame
b s
ting s
O n
con text
& &
b lock
C H
Ġc lass
ifi ed
> <
2 5
at ive
I m
P tr
o bj
A pp
n d
St ream
Ġ z
a pt
Ġs ub
ic k
t ag
if ic
lob al
m ethod
ĠT HE
00 0
c urrent
Ġst d
m at
ild er
un signed
M ethod
Ġ< /
ne ction
Ġ( )
A l
Ġl ong
N ew
St atus
Ġ> >
Qu ery
Ġp re
l ate
B y
p o
)) ,
c le
ic h
C lient
a ce
t arget
i able
f lags
Ġde f
Ġcon text
> (
N D
tr y
i e
Ġre ad
m sg
Ġh as
ht tp
ile d
In stance
ens ion
S tr
ĠĠĠĠĠĠĠĠ ĠĠĠĠ
ri ption
pa rent
Ġtr y
able d
Ġsh ould
B e
ĠS et
Ġi tem
de sc
ust om
" ),
Ġh ave
al e
Bu ffer
Ġf ield
et ers
B lock
Ġl ine
() {
T he
Ġin put
= '
T able
app end
c lient
L A
Ġ log
tr ue
[ $
W rite
sa fe
D ate
Ġin stance
( _
ĠTh is
bu ffer
p ush
e qual
it or
is s
M L
m odule
m on
m essage
In ter
C reate
T Y
Equal s
Ġc all
j o
Re ad
que ue
D esc
co pe
IN T
Ġm ax
r iter
' ),
param s
G roup
ig h
m ode
St art
lay er
A g
Ġ" \
c y
i ce
n ot
Ġn umber
c s
press ion
Ġ" ""
ref ix
en u
Ġ Ex
n er
O D
Ġp rint
et a
Cont ent
V AL
t il
M ode
Ġn um
M P
B U
O per
f ree
Ġm atch
S C
p age
ĠA r
te cted
Form at
l s
I G
Ġ lo
pon ent
======== ========
in ue
P ar
ĠD e
h as
IN G
isp lay
Ġwh en
Ġ text
AT E
R eturn
E m
c md
Ġint er
Ġcon fig
U ser
il ename
S ub
bo ol
ad ers
W indow
id er
I O
Ġtr ans
I P
. </
f ter
all y
ex pected
: //
Ġ user
2 0
S U
Col or
en ce
M anager
n ing
ch em
Ġ ->
Ġp oint
c all
( *
ĉĉĉĉ ĉĉ
cont ent
op y
Ġsize of
ib le
Ġb ase
V ar
u de
ument s
E X
Ġc ode
EN T
st ream
} )
Ġout put
ial iz
om ain
v ersion
Re f
f rom
pt s
st d
w idth
w h
C ON
Ġp os
se lf
Ġ_ ,
te ger
Tr ue
B ase
Ġc reate
Ar g
f ind
pl it
O DE
re move
Ġt arget
Ġwh ile
r t
O L
Ġ q
C heck
im it
Ġto ken
Ġc ount
p ack
T H
Res ource
() ->
g in
c c
S Y
dddddddddddddddd dddddddddddddddd
se s
b l
De fault
He ader
ra ph
Ġs up
f n
S ource
Ġs o
or ted
N o
ar sh
ic s
Ġ 6
d is
f loat
F unction
q l
el l
Ġr ange
F A
P re
par se
f alse
" ).
ĠS ystem
Ġ one
out put
Ġn ext
a a
vi ew
s rc
n ect
d ing
er o
Ġin it
lo t
T ag
D B
Ġan y
is h
ic al
F rame
g oto
Ġo ffset
Ġf irst
h w
O ptions
al loc
ifi er
ss ion
L T
ĉ ĠĠĠ
Ġu sed
ĠĠĠĠĠĠĠĠ ĠĠ
h ost
ĠA ssert
Ġb lock
S H
( {
Ġ* )
Ġar gs
++ ;
ĠS t
u ccess
Ġ< =
p end
Ġ// /
b ar
he re
A P
Ġun signed
res ponse
In put
Ġm em
ra p
Ġn s
Ġa ct
Ġwh ich
ht ml
Ġm essage
Ġf loat
m u
s ource
Ġon ly
L ay
ent ity
N ull
bo x
TY PE
W idth
ce pt
co re
U til
g o
in es
up date
)) )
Im age
un k
tot ype
m it
Ġbu ffer
ial ize
Ġ1 0
O verride
ate g
irect ory
ir q
ĠF I
pert ies
y mb
d iv
1 5
A ME
C o
V ersion
Ch ild
u id
a iled
ro p
if t
P C
O ffset
port s
o b
ymb ol
A ction
ir t
M em
iv en
p ost
9 9
" ]
Q U
( [
Ġs ource
* /
col or
return s
Ġvalue s
Ġ| =
Bo x
ĠĠĠĠĠĠĠĠĠĠĠĠĠĠĠĠ ĠĠĠĠĠĠĠĠĠĠĠĠĠĠĠ
H andler
row s
m od
ct or
Z E
Ġm ap
st at
Ġc o
c a
y sc
I F
m m
am p
st ore
Ġv al
Ġf inal
Ġp er
b it
St yle
orm al
Ġres ponse
ain s
ock et
ĠR eturn
T ra
li b
w e
Ġ+ +
pro tected
N umber
re place
I mp
lic ation
ĠN one
lect or
N E
lic k
B B
Ġre f
ing le
) (
Ġo ther
ĠI S
v m
ERR OR
to p
t mp
ĠĠĠĠĠĠĠĠĠĠĠĠĠĠĠĠ ĠĠ
V ER
l at
E d
0 6
ysc all
p an
ĠT est
Ġa d
S ystem
he ader
c lose
A ll
0 9
f rame
cl ude
m ask
( !
f irst
c ache
SE T
ist s
ap i
le cted
Ġv alid
Ġlen gth
ĠN OT
apt er
ch ild
A M
c i
Com mand
N um
F act
T arget
end er
Ġde vice
v ed
m odel
R ow
le ase
c b
w ait
b ody
Ġc al
temp late
el per
o u
l t
Bu ilder
Ġm ake
le m
H T
om e
def ined
} }
ate s
" ))
De f
im age
op en
v o
Ġh ttp
ĠP ro
Ġm ust
ro ot
'] ,
Ġ ,
ang ed
Ġfor mat
ab el
Ġ last
ĠA T
V alid
Ġt able
RE G
Col umn
pro totype
En t
R O
roll er
Ch ar
C all
Add ress
**************** ****************
s up
D I
ut ion
1 3
Ġdo uble
Ex t
A ct
K E
m ark
## ##
he ight
Ġex pected
type of
2 4
8 0
R o
v ider
ri x
P er
Up date
st yle
Ġf lags
ER T
Ġreturn s
ĠĠĠĠĠĠĠĠ ĠĠĠĠĠĠ
ro und
En try
li ce
M ax
n t
ment s
ĠL ist
Ġm in
Ġo per
G ener
d own
fo o
Ġr un
x y
Ġg iven
() :
Ġ! ==
A d
o us
id get
co ding
Ġt ra
at er
at tern
ĠC om
} );
, "
SI ZE
i str
c ast
Ġc atch
.. .
ĠĠĠĠ Ċ
An d
ug in
| |
im er
V E
He ight
n own
x x
d oc
Ġst atus
Ġne ed
Ġt ag
Ġb ut
id x
ol der
col umn
1 4
act ive
w ith
chem a
//////// ////////
Ġbo olean
ĠC OM
in stance
Ġm ode
P age
P O
res ent
Ġ[ '
B utton
reg ex
Ġ 7
Ġo bj
ĠT r
Ġdo es
r ag
In it
a w
h andle
Ġb yte
o ption
m e
and om
T P
" },
Param s
3 3
s witch
ĠT H
Ġre quire
R ule
Ġint o
I L
r id
" ));
ad ata
l ang
U rl
M M
Ġs k
o te
Ġ( *
Em pty
re en
ix ed
S ON
Ser ver
Ġde sc
at tribute
ow er
p orted
Ġm e
res ource
5 5
h er
if f
Ġw as
t itle
X X
S P
Ġp art
D R
f ilter
ER AT
Ġs rc
ript or
MA ND
cp u
F O
et adata
p art
j s
Ġa c
L abel
pa re
st ant
u ction
is ion
or age
s ole
de bug
T em
ĠB Y
Ġm odule
arsh al
Ġbu f
Ġpa rent
Ġg ener
Out put
Ġcom p
f g
Ġf ore
Ġ el
Pos ition
unt ime
Ġ1 6
x ml
ĠD O
O K
@@ @@
Ġo s
de st
ut il
ec ute
h ash
jo in
end if
ĠFI LE
le g
Cont rol
iz ed
0000000000000000 0000000000000000
a uth
R ange
Ġv ersion
OR T
Ġus ing
Ġc ur
C urrent
Ġc lient
3 4
tr act
b t
D IT
Ġst ream
B ytes
um e
ay s
1 8
BU G
SY S
im ple
D is
c m
m iss
Ġw rite
3 0
ĠU n
L I
ri ver
i ent
' ))
reg ister
M D
app ing
le t
Ġcom mand
Ġ ext
T I
Ġcont ent
t ach
Ġc allback
p th
Ent ity
Ġf ail
Ġth en
loc ation
um p
1 9
F ilter
le ft
O p
ĠA dd
ĠO bject
c re
Ġn et
Ġin fo
le ar
pro cess
V ector
Inter face
o ol
A ssert
Ar gs
5 6
Com ponent
read y
Ġf ound
S K
) |
Ġd is
struct or
Ġo ption
tern al
A G
un safe
res h
Ġb ytes
Ġp age
u res
ĠC reate
m ed
_ ,
Ġup date
ĠG EN
Ġp ack
m y
ol ic
g ine
Ġspec ified
Ġfore ach
C ache
j son
n al
Ġ ra
S pec
r un
sh ow
Ġthrow s
o pt
n umber
ĠTH IS
irt ual
p u
t y
il ity
at al
P ack
ser ver
Ġ{ }
at ing
En um
u i
s or
/ **
ERAT ED
Ġerr no
ĠI N
ĠT OP
ĠCOM MAND
Ġm sg
P l
u age
el p
B O
Ġpro cess
R L
A re
M in
d uct
se e
ĠE DIT
ĉ Ċ
Ġm odel
ig inal
r x
s plit
av a
U P
' ).
co der
u ch
in ition
ĠGEN ERATED
ĠW e
ig ger
r it
an k
in ce
it ies
w o
Lay out
Ġres ource
C ase
Ġim age
Sc ript
U M
C A
Ġt mp
Ġh andle
Ġ entry
en v
Ġg roup
H ash
N one
M atch
t om
P art
M o
ult ip
N ext
Ġw ork
AB LE
form ation
se lect
byte s
bbbbbbbbbbbbbbbbbbbbbbbbbbbbbbbb bbbbbbbbbbbbbbbbbbbbbbbbbbbbbbbb
w w
D ir
H andle
g g
Ġ ]
M S
f low
IN VAL
s o
o se
s d
Ġa b
s end
2 8
Ġat tribute
Ġcont inue
ss ign
ss word
r ight
ph p
s pec
C OM
C P
Ġb ack
tr a
5 0
Le vel
ar ning
at rix
D raw
B ack
com mand
Ġo ld
Ġre p
Ġo verride
l ight
co py
h a
E T
AA AA
re ct
Lo ad
Ġs witch
id d
d a
u ff
U I
1 7
e ar
C R
Ġ Z
Ġc l
le vel
Ġ local
l ong
Ġin d
sk b
c ry
ch ed
olic y
i ction
th e
HE CK
o ver
he ad
Ġpar se
ail able
D o
u a
il t
H P
f ilename
De vice
ateg ory
Ġ ;
N O
et r
B A
t s
Ġ ed
ial og
2 2
* )
MA X
List ener
b ind
to col
op s
Ġ" %
R un
{ }
Ġa fter
Ġe ach
ent er
[ :
o ok
op er
b y
se cond
re quire
V al
str uction
Loc ation
ch annel
C L
qu ence
1 00
GE T
Col lection
P A
a int
Ġ url
Ġn on
s m
cle ar
T O
UR L
IC Ag
c al
d ma
E M
Ġf ind
N AME
Ġerrno Err
re l
4 0
) ->
ST AT
Ġ( "
Type s
b r
Value s
In valid
M enu
ĠF ile
ĠReturn s
', '
un lock
Fact ory
ĠC heck
O ption
m ain
ĠI D
assert Equals
ot al
V is
ex p
R ole
Ġthe re
ST R
ĠT ype
EN D
of t
Set tings
E E
à ¤
A c
8 6
f er
F B
Ġ row
V er
se ssion
C ur
ĠĠĠĠĠĠĠĠĠĠĠĠĠĠĠĠ Ġ
s b
Ġf rame
C C
Ġch ild
O bj
ug h
Ġp ort
pos ition
ens or
g round
T ask
W riter
c ul
B ody
L ink
c ard
Ġ K
Ġm ay
er ge
F alse
Ġde st
ĠC h
ific ation
s n
Ġcol umn
C allback
Ġde v
M odule
Ġb it
A uth
O F
p x
M od
ip p
B yte
de lete
Ġro ot
C I
s ert
n g
d ocument
Ġex p
ff ect
s i
Pro cess
w indow
Ġ load
do uble
As ync
Ġ query
AT A
Ġ ],
t d
c d
Ġo k
Ġbe fore
value s
Ġc or
ice s
ess ion
s ave
a red
Pro vider
; \
ang le
H elper
N et
o ff
Ġadd ress
in ary
Ġ em
Ex pression
g ress
Ġs ign
Ġs ame
Cont ainer
' .
Ġ Y
Pa rent
Ġd ocument
M I
y y
Ġ label
ann ot
se arch
A ccess
vi de
Ġ Exception
Ġhe ader
D O
Ġa ction
en cy
Ġarg uments
com ment
Com p
p op
ix el
W R
ĠAr ray
Ġf unc
S A
2 3
y m
Ġ empty
Name s
" ],
ot tom
dddddddddddddddddddddddddddddddd dddddddddddddddddddddddddddddddd
an y
ud io
mu tex
Ġo p
og le
Ġm o
Ġo ver
miss ion
Ġm od
ck et
Ġg o
c or
SS ERT
0 3
T op
D ocument
be gin
Re ader
add ress
Ġn p
AC E
se c
ä ¸
> </
Error f
Ġser ver
(" %
bu ild
Param eter
ol ve
sp in
o ther
Ġpro perty
act er
d st
'] )
Re ct
Ġh ash
Ġy ou
con nect
vi ous
Ġf ailed
Ġo pen
ĠN ew
C S
gr am
c allback
P rint
F lags
ĉĉĉĉ ĉĉĉ
O S
Ġm ore
Re cord
g n
Ġa v
g ener
AL SE
ent ifier
or g
Ġw idth
" .
ct rl
Ġ 9
u sed
( /
li p
pl ate
mo te
u c
Ġw indow
2 7
Ġapp end
ok up
un ter
s cope
U LT
e v
F D
ire ction
C B
P T
O pen
KE Y
W eb
ce s
Ġ* *
G L
Un it
Ġpos ition
> >
To ol
b utton
St ore
n il
ast er
d omain
Ġf mt
0 8
sc ript
F S
Ġ' /
V M
De cl
ct l
r ate
Loc al
Ġcol or
Ġre q
Oper ation
K ind
) ]
he aders
wh ile
Ġ" "
Con nection
S ign
Par se
Ġ En
d ition
H ost
to String
Arg ument
Ġparam s
Ġit er
o o
I ter
Ġp l
Ġ} )
Ġ temp
e ach
ail s
p b
Ġin st
Ex p
s w
m i
Ġ Error
as ic
Ġc opy
key s
I f
s ys
ul ar
De bug
r ule
st ack
Ġde lete
6 6
r ange
t ab
St ack
F loat
pro perty
et ch
ch ip
ĉĉ Ċ
im um
is set
w n
ro y
A Y
Q L
Ġ' \
c ap
ust er
str aint
ĠH T
ri es
De lete
C opy
c mp
Config uration
la s
Ġ Value
ĠRe g
Ġ --
c ss
ser vice
Return s
iv ity
a uto
Ġa uto
d f
s l
Ġv iew
cont rol
ac cess
Ġreturn ed
A S
b a
iz ation
Ġf ilter
ĉ Ġ
up le
x ff
i ag
H as
ss oc
w ise
T ree
re set
er n
] ))
ĠO n
Ġ. ..
S up
S B
Ġreg ister
Util s
C O
N ULL
ex ception
w ard
') :
2 9
) ?
ĠT R
f ull
Ġc ache
l n
Ġth an
L ock
item s
ur i
Ð °
par ser
0 5
t ask
Th read
Ġs end
Ġl ink
and ard
ĠD E
P AR
ins ert
Ġcont ain
S ession
Ġparam eter
cont inue
c r
Ġ qu
Ġal ready
Ġ ~
t ml
Ġ. =
im es
. \
Ġv er
or ld
8 8
ch o
sh ould
AN D
p refix
' ));
Ġal low
Re ference
an e
ON E
Ġo pt
] +
t en
ach ine
es h
h andler
p ri
ĠĠĠĠĠĠĠĠ Ċ
p ol
Ġser vice
s ing
Ġhe re
Con stant
Ġw ant
Ġvar iable
-------------------------------- --------------------------------
)) );
ver y
ance l
Ġcal led
L ast
r ad
ad apter
p k
t t
u x
LO CK
w eb
> ();
ign ore
Reg ister
v is
Ġfile s
Ġim p
d rop
OR D
con f
con n
Ġw here
) }
W ork
ĠS e
f mt
DE BUG
m ac
g l
ph a
OR M
Ġs uccess
Ġc re
Time out
RE AD
a ded
ult i
riv ate
Ġelement s
ĠĠĠĠĠĠĠĠĠĠĠĠĠĠĠĠ ĠĠĠĠĠĠĠĠĠĠĠĠĠĠĠĠĠĠĠ
Ġ order
ic on
f p
Ð µ
f l
k nown
st amp
ĠTr ue
ch ange
b its
low er
M ock
Le ft
Th is
Ġg lobal
Ġ1 00
Ġinter face
Ġc md
th ing
f c
file s
ã ģ
g lobal
2 00
IT E
To String
F unc
c an
le ss
I R
Ch anged
Ġbe en
Ġ" ,
'] ;
Ġ ctx
cl k
in ish
ĠI s
ĠS yscall
s z
M sg
Pro perties
Ġre move
C al
IN E
Q ue
at s
i que
in ation
Ġex ist
. ",
ind ing
Ġ 32
ir on
ĠB u
ĉĉ ĠĠĠ
an ch
LA G
Com ple
Ġparam eters
Ġcom ple
Ġinstance of
.. /
Ġtype of
rap per
P ort
Tem plate
h dr
D et
En abled
Item s
Or der
S end
ĠM ath
AC K
X T
cp y
ab s
yn am
ch r
Ġ ),
LO G
c fg
iction ary
t ree
Ġh ost
B it
ĠS er
d ay
C l
Ġ/ **
Ġhe ight
b us
@@ @
Ġra ise
he ther
n ow
. '
d isplay
Ġst ore
en c
ĠD ate
M on
r am
Ġi o
] ]
Ġd on
= %
CT ION
re gs
f inal
pro to
b ers
W idget
Ġ>> >
ol low
Ro ot
C lose
a f
F R
(" .
sh ape
w are
Ġ( '
v c
i as
ess ages
inter face
i pe
Ġex pect
Ch ange
Ġp h
3 5
Ġ{ \
cont ainer
ang es
Ġ- =
bo ard
In st
mem ber
P h
t ax
p m
Ġr c
ĠT o
ĠD ata
3 6
c ent
Ġd one
D ATA
ok ie
tot al
ve ctor
Ġle vel
Ġh andler
en e
sp an
E L
Ġfor m
er ic
Ġ" /
Param eters
W N
Ġr ight
F P
st op
Ġse ssion
d s
c at
Ġn ow
ĠC ol
set tings
Ġre ference
th read
Se lect
Ġadd r
s ide
= {
MA SK
im al
ol ume
FA ULT
Window s
la sh
O ST
M ODE
Ġc ustom
S k
G B
S R
la p
idd en
he et
Ġle ft
Ġm ain
Ġ$ .
r q
sign ature
Desc ription
K ER
+ "
Ġj son
F irst
Ġto p
Ġre l
C F
en able
Ġpa ss
ĠS h
r m
Ġt ask
2 6
Ġse cond
D own
Re move
Ġpar ser
le an
AR T
stat s
P P
Ġc ls
H ttp
ch an
il er
In teger
F e
p dev
al k
err u
ce l
Ġst yle
ri e
lat form
iz er
Ġch annel
N S
f lag
Ġcon nection
ĠF or
cur ity
en ted
Ġit s
Ġ{ @
O UT
In d
im ation
O C
B ar
c lick
l imit
l ish
3 1
ample s
== =
A LL
7 7
Ġd ate
I E
i an
to ol
App end
n p
time out
Ex pr
re c
igh light
CE SS
ph y
Ġ ent
Ġj ust
f ont
IN FO
lt a
re p
al ar
en code
Ch annel
ca use
Ġ" ",
Ġs p
ver se
Ġassert Equals
FI LE
OD O
im ension
Ġoper ation
TE ST
} \
Ġre cord
ed ia
pre v
Desc riptor
S D
Oper and
m an
Ġresult s
Se arch
las ses
s oft
'] );
ri be
ig in
( -
Ġ1 2
Ġl ib
iv ed
< <
E INVAL
Ġex ception
Ġbu ild
Ġpoint er
Ġd b
g ment
ĠU p
iter ator
in ode
pe ed
i ant
Ġm ask
x is
ex ists
st ep
po ol
vo ke
A PI
R T
Ġf e
T ER
sc roll
str act
Ð ¾
C ustom
Ġen v
inter nal
Ġst ack
r v
or ity
Are Equal
'] ['
th row
D el
8 9
d one
2 1
ĠL og
se mb
ssoc i
Ġmem ory
ĠĠĠĠĠĠĠĠĠĠĠĠĠĠĠĠ ĠĠĠĠĠ
m ake
ynam ic
v b
= >
ĠA n
Add r
U RE
ic ro
Ġs ome
Rule s
m enu
row ser
#### ####
= \"
v ers
Ġ RE
ern el
Cont roller
lay out
aa aa
gg le
c ustom
ic le
Ġim port
m eta
Ġin formation
F LAG
ex ec
Ext ension
Ġd st
var iable
C D
F ont
ultip le
"}, {
================ ================
und s
4 3
ĠF alse
type s
re r
s ql
cry pt
A X
fa il
T ab
W h
r ing
Ġun safe
Ġ( _
ist ance
d ict
th rows
J SON
field s
ĉĉĉĉ ĉĉĉĉ
an el
se q
il y
Var iable
ro ugh
P AT
Ġa g
Ġp o
re cord
ex it
et ry
app ly
Act ive
Ġre n
Attribute s
ializ ed
ĠI O
Ġo ff
in st
S pace
ent ial
ex pect
de c
r b
G R
Ġ' %
F atal
F ind
Ġun defined
ĠĠ Ċ
Ġarg ument
ar n
w ays
D irectory
us b
esc ape
F E
Ġf ilename
e k
C an
s ort
TI ME
as sed
isp atch
Ġstring s
/ >
Ġ queue
lab le
Ġb ody
Ġ/ >
ĠB yte
sh ort
size of
Ġbe cause
h s
ach ed
se ction
sh ift
w s
Ġs ys
Ġd irectory
pre c
Ġse arch
equal s
P refix
M ask
d u
z ero
test ing
Que ue
reg ion
3 9
S p
P RE
Ġ$ (
. ");
7 6
Ġal loc
Ġdef ined
L EN
ĠI t
tr igger
Ġ' <
g ing
U se
Par ser
N OT
Ġ\ "
Ġth read
Con vert
em it
am ed
pro p
d m
und le
t l
ĠF ALSE
Imp l
Ġl i
A SSERT
Ġ[ ];
Ġ2 0
or s
ub lish
P H
Ġs ingle
en um
Ġle t
Def inition
Ġ lock
point s
C lick
. "
00000000000000000000000000000000 00000000000000000000000000000000
sc ale
Ġnull ptr
as on
` `
b c
med i
val u
l ines
pos it
Ġe v
) \
ĠA R
. *
Ġm y
Ġd oc
Ġre ce
Ġat tr
if def
25 6
P r
name s
iron ment
g p
O ne
Ġa uth
O ver
Ġp ost
STAT US
S O
Com ment
Ġex ec
Field s
D isplay
m arshal
Key s
Ġ& =
i od
AT ION
in her
ĠĠĠĠĠĠĠĠĠĠĠĠĠĠĠĠ ĠĠĠĠ
R ight
id s
Ġex cept
Ġw ord
D oc
Ġs pace
ang uage
def ine
A GE
Ġerror s
() ));
Ġreg ex
er m
M T
Ġw hether
we en
Ġin valid
Ð ¸
5 4
FI G
r ary
Ġc a
im g
Pro ject
ĠRe ad
Ð ½
g en
: [
M ark
N on
desc ription
S ymbol
Ġd ir
P L
Ġch ange
ĠP HP
tr ace
P U
ter m
I M
pro ject
G lobal
con nection
T y
0 7
ĠAr g
ĠIn t
o in
O B
Ġrep resent
N T
ĠD o
5 9
Ġp refix
Ġf lag
ĠE X
Ġ' '
G U
Ġa p
t c
M etadata
Ġtype s
rom ise
Sh ow
par ator
C ell
s ync
( \
t imer
ĠP ar
ï ¼
{ "
Ġs cope
Ġ' ';
F ailed
Ġel if
J son
8 02
Ġf act
arg uments
F C
am l
end ing
R el
c lo
3 8
Ġ template
Ġt x
l im
(' .
ext end
X ml
Ñ Ĥ
f r
Ġa ccess
e red
ĠA l
Ġt wo
g b
L ong
St orage
Ġf ollow
print k
() ))
ĠC ont
T itle
ĠG L
w d
j ust
4 4
X G
Ġv is
Ġf ull
I con
( []
Ġs nd
in clude
S cope
f b
Ġstr ict
F ull
" }
Ġa wait
am b
h d
S chema
p v
on ent
EX T
M atrix
I B
S ER
S u
Ġ# #
G raph
Enum er
r s
at ures
At tr
pc i
] *
I H
B Q
Ġcont ainer
U ri
ur face
_ .
De st
Ġ' .
C ore
c nt
On ly
comp onent
] ->
Ġt otal
S L
12 8
s lice
le ep
etr ic
Reg ion
:: $
V T
Ġm ark
ing s
In ternal
Bu ild
B IT
": "
Trans form
Ġt itle
D ialog
P olicy
e ad
ee k
ĠN ame
R ender
ib ility
D S
o pts
Ġl l
Ġor iginal
P ost
&& (
arsh all
pa y
w p
ut f
3 7
Str uct
Sh ort
ide o
g t
el y
Ġg ot
d p
Ex ec
) /
bu ff
en ded
Mem ory
qu i
ç ļ
C lo
ex ports
erru pt
net work
Ġ$ _
in valid
å ı
Text ure
En gine
yn tax
bo olean
A uto
File s
çļ Ħ
c ip
ol ver
Ġp r
ol ution
ĠT ODO
M ath
Ġcont rol
P ool
istr y
Sc ale
Ġav ailable
d river
.. ..
Ġact ual
C HECK
Ġkey s
ĠL o
ĠS T
d ated
get Name
Ġb et
er a
C re
Ġo c
ce d
(" \
ĠA pp
ĠIn it
Ġo pts
Ġw ait
w ner
ĠJ SON
En v
Ġrequire d
Ġfield s
4 8
te p
ent ic
U s
ĠUp date
D b
t ip
Ġin teger
ipp et
(' /
G V
ĠW rite
B l
IC E
al low
! =
M eta
n ormal
F lag
ializ er
IN IT
S ocket
F ail
ched ule
a z
lang uage
ilt ers
Ġref lect
ĠA PI
Ġitem s
en se
Ġd isplay
F ORM
: %
P layer
Ġde bug
Se lected
ar r
f ul
d om
Ġpack et
set s
> \
ha vi
Ġcom ponent
---- -
re lease
Ġb its
ST ATE
Ġlo op
Iter ator
im ary
Ġ[ "
Ġ ^
Ġthe m
SI ON
m all
Ac count
pi pe
Ġname s
g ed
Ġs um
Re p
Z X
//////////////// ////////////////
ist ory
arg in
on ly
C ODE
d i
on ce
Se cond
def er
Ġf ree
ĠTR UE
Ġr ule
M O
i us
1 000
W e
key word
Ġal so
posit ory
im p
Ġset tings
He aders
ic ode
N d
O FF
ren der
Ġcon vert
Re ce
Ġp assed
p id
DE V
uff ix
ition al
S rc
f ix
Ġpre vious
w r
f x
am ily
Ġt ree
Tra ce
Ġpro to
Ġn ormal
---- --
` ,
Ġc pu
Bu f
Form s
OR Y
Draw ing
ĠE vent
T X
ve c
ith er
ICAg ICAg
al ign
Ġm on
Ñ Ģ
Ġsh ow
d raw
h ide
m c
le x
Ġre set
Ġc lose
v as
ff ff
index Of
Ġ 64
Ġen code
attribute s
arg v
E ach
R I
)) .
l g
ã Ĥ
Ġs ystem
B E
pa ss
un it
"" "
App lication
Ġc b
From String
0 64
de code
iter al
. __
Ġtime out
F ound
ĠC HECK
Ġz ero
Ġc lear
cur s
De c
D D
W AR
ch unk
Ġ te
P ORT
Node s
Ġid x
E V
Se ction
x u
N e
Ġc ref
G o
'] ))
l p
Ġsh ift
P ER
ĠV ector
Z W
G rid
" +
child ren
Ġs ure
TE XT
Ġse e
am era
U SE
Ġex pression
Ġsup port
] =
lic it
x FF
f ill
const ant
D omain
s v
chr on
b order
Ġ am
dr v
oper ator
lo y
Ġd if
() ).
O G
Ġ" -
p attern
Trans action
w here
Ġd own
b n
} .
at om
Role Size
s ocket
pack et
h i
Ġo ur
Ġen um
rag ment
Pack et
w in
W ORD
å Ī
ir m
l ing
Ġ' ',
ay load
ĠĠĠĠĠĠĠĠĠĠĠĠĠĠĠĠ ĠĠĠĠĠĠĠĠĠĠĠĠĠĠĠĠĠĠĠĠĠĠĠ
Element s
4 2
P S
Ġsh ort
p g
H ER
g or
ĠN o
Mem ber
Id x
Ġhe aders
SU C
Ed itor
A v
Ġconfig uration
ww w
Ġ" #
Tra ck
Ġv irtual
Ġde c
ĠT ask
ac y
X ML
R et
ĠN ot
L S
] ['
Cont ains
N UM
S ingle
Ġin clude
Ed it
w ay
U int
Ġf n
dis able
Ġb l
db g
un defined
UR I
ute s
Ġ ignore
la in
W E
set up
Ġt f
Ġ" <
ĠĠĠĠĠĠĠĠĠĠĠĠĠĠĠĠ ĠĠĠĠĠĠ
Ġ" .
t ail
ã ĥ
vi ded
sup port
p ed
Se lector
th on
ss ible
get Value
ĠT ime
L INE
Ġst ep
sh ot
ion s
d t
L ower
Ġobject s
pl ugin
Ġs ince
Ġ' ,
Ġoption al
i ted
P anel
d at
pro xy
de rer
9 6
ĠC ON
Ġ(! $
d w
ord in
pa ir
mo ved
` .
fore ach
E Q
U D
VAL UE
d c
n r
g ra
Ġsk ip
( __
U L
P UT
ex ample
Ġre place
Net work
ce ll
V o
ol y
Ġcon sole
cul ate
Ġsup er
res p
Q T
gor ith
7 5
ert ific
802 11
ire d
Re quire
ĠS ee
B its
Ġv ector
M C
__ ,
B Y
ĉĉĉ Ċ
HT TP
Ġthe y
pro duct
Ġdoes n
or ies
Ġe qual
fe rent
Nd Ex
r andom
à ¸
im s
i i
arg e
Pro p
: '
Ġ' "
t f
RE Q
dddddddddddddddddddddddddddddddddddddddddddddddddddddddddddddddd dddddddddddddddddddddddddddddddddddddddddddddddddddddddddddddddd
ĠS D
M apping
) *
St op
M B
av ed
G e
iss ing
al t
Ġsh ape
apt ure
Ġother wise
ad min
L ib
ol ute
Ġd irect
ĉĉĉ ĠĠĠ
N C
s lot
tx t
) ",
D C
ll ation
) [
http s
ializ ation
c x
Se lection
ĠO P
Ġimp lement
est ed
Ġen coding
ed it
ĠN ote
red ential
pl at
Ġcont ains
s ample
Name space
Ġ und
sc an
Lay er
OP T
Ġa ut
ke ep
in ner
dest roy
PE CT
ĠP y
Ġcre ated
ĠĠĠĠĠĠĠĠĠĠĠĠĠĠĠĠ ĠĠĠĠĠĠĠĠ
Event s
Ġ' -
ĠU RL
A pi
R aw
Ġ[ ],
yn chron
ĠĠĠĠĠĠĠĠĠĠĠĠ Ċ
A b
re ference
leg ate
Pl ugin
Ġ{ };
E CT
HT ML
Ġs ave
Ġd omain
b ed
ĠĠĠĠĠĠĠĠĠĠĠĠĠĠĠĠ ĠĠĠĠĠĠĠĠĠ
Not Null
WR ITE
ne g
Ġchar acter
pp ed
In s
Ġst op
m erge
Ġcon nect
Pro file
ip s
em ail
b ottom
Ġbe ing
2 01
CT RL
res sed
{ @
mon th
bo ok
ĠB O
Bo olean
ex ecute
4 6
B L
chem e
Ġg l
ut able
At A
ab ility
to ggle
n b
pa ssword
J ob
s ig
se lected
An y
Ġcontain ing
C ategory
S imple
Ġex it
s ystem
j Query
re al
s ince
Ġsc ript
s uccess
mo use
name space
Ġad ded
mo ck
C M
Ġ1 5
c n
F T
leg al
cont ains
ance llation
b in
v ision
pro c
Ġl ines
I I
9 7
Result s
Ġ raw
bbbbbbbbbbbbbbbbbbbbbbbbbbbbbbbbbbbbbbbbbbbbbbbbbbbbbbbbbbbbbbbb bbbbbbbbbbbbbbbbbbbbbbbbbbbbbbbbbbbbbbbbbbbbbbbbbbbbbbbbbbbbbbbb
ee ded
trans form
amb da
im port
et ime
event s
ad ow
Ġsup ported
ĠO ut
Ġact ive
M an
R ed
DE FAULT
Ġth rough
s ock
Pa ir
Ġ` `
g raph
G F
DI R
Ġpro perties
Ġ[ [
æ ľ
Ġc annot
LE CT
Mo ve
Ġdef ine
M ENT
s q
NE L
act ers
ĠS k
: {
CT L
add ing
tr l
comp lete
Ġren der
SUC CESS
con structor
com mon
Ġh elp
app lication
trans ition
') ->
S ave
8 5
Sc roll
PO ST
Ġse lect
LE D
f in
a de
D IS
Ġcol lection
B r
4 5
ĠU se
$ {
Do uble
icro soft
a fe
a fter
Sh ould
8 7
cre ment
E S
T x
f w
B inding
St andard
inher it
ĠDe fault
result s
Al ign
() ),
E C
A fter
ĠHT TP
Ġ Key
Ġ( );
de red
" />
Ġag ain
z z
4 7
t m
pro m
at tach
IT Y
Ġp attern
Bo ol
Ġcor rect
d ig
cle an
v es
Ġli ke
Ġattribute s
code c
th en
Ġwith out
A CT
Sh ape
S uccess
' re
b atch
mo unt
PAT H
Ġch unk
it ive
sc ription
tr ack
Ġx ml
******************************** ********************************
C MD
, -
Th at
J S
auth or
t a
M IN
6 0
param eters
a j
ater ial
ĠP aram
le ted
E l
P ri
Ġs b
Ġnode s
c ing
etr ics
gorith m
error s
av ig
gn ore
Ġse lector
Imp ort
ĠĠĠĠĠĠĠĠĠĠĠĠĠĠĠĠ ĠĠĠĠĠĠĠĠĠĠĠĠĠ
AD D
Ġas ync
Ġse ction
W ord
Ġpro ject
con v
De pth
h r
ator s
p d
Ġpro vided
[ ^
u ally
de lay
C ap
\ ":
C lear
Ġw riter
Con dition
Ġex ports
Ġse lected
s ymbol
MA P
valid ate
ĠT ext
Ġbe gin
bo se
Ġr andom
Ġsc ale
resh old
as ync
IN S
lo op
R X
z one
Ġb r
match es
VER SION
ap shot
Ġg oto
Ġb utton
ĠA t
s r
Ġinst ead
ĠC ode
Y X
li de
P ers
Ġi p
Date Time
W rapper
Ġc lean
Ġs ocket
Ġ entity
en abled
p ret
In sert
ac ity
ry pt
arg ument
Ġbet ween
ĠQ String
be fore
C md
b p
Data base
ĠTr ans
Ġse quence
Ġal ways
add Class
ic ate
MS G
D F
s ure
H ighlight
Ġ1 000
ĠN ode
node s
Ġinter nal
I VE
å Ĳ
ul ate
end s
c v
i k
A I
Ġw rit
(" /
pend ing
Ġex ists
d irect
---------------------------------------------------------------- --------
p loy
Ġp latform
ertific ate
s chema
Id s
F ree
A V
"> </
Ġcon f
ĠI P
sc reen
Z ero
En code
Ġin sert
Ġ location
IG N
Un known
D es
ĠCon fig
Ex pected
} ",
q p
Ġ1 1
res pon
are a
d iff
Ġ Ð
Con straint
a W
Ptr FromString
ĠEx t
res er
FB Q
Ad apter
de pth
l ush
k w
ext ension
f i
Ġc lo
Ġ ];
{ },
Con f
Se c
State ment
S ame
= (
ĠĠĠĠĠĠĠĠĠĠĠĠĠĠĠĠ ĠĠĠĠĠĠĠĠĠĠ
< ?
ĠU S
F UN
st orage
Ġname space
Ġp ut
go ogle
com m
g es
Ġext ension
ĠM ap
e er
Ġf s
Ġc ould
ra c
Ver tex
ĠW eb
M arshal
0000 00
ĠArg ument
Ġl imit
I V
ro ss
r d
s ite
fo und
word s
R untime
b i
Ġs ymbol
se lector
fo c
d ump
{ })
Ġres p
Ġh ref
P attern
Ġbo x
W S
act ual
N ormal
$ /
Pro tocol
M ain
ĠF unction
UT F
File Name
ĠByte PtrFromString
Ġp tr
j e
w idget
Ġre ader
unt il
â Ģ
Pro xy
R AY
e lem
p ad
z ip
Ñ ģ
ĠZ end
Ġ(! (
M y
t v
Ġdata base
back ground
cont roller
g id
Be gin
Al loc
Inter val
ĠG o
el lo
F older
OM EM
iv es
te red
S pan
G ame
Vis ible
Act ivity
Ġgener ate
ex pr
M OD
Str ip
Be fore
-- ;
andl ers
T imer
a ssign
ver age
ĠW h
= [
re port
rule s
L imit
rt c
ren cy
Ex cel
util s
- \
S ync
Ġ2 00
sk ip
Ġp y
um my
std err
Pro duct
S W
k free
Id entifier
ly ph
WAR N
ir r
Tem p
Ġal ign
St at
( %
T otal
l u
Fatal f
P ublic
Ġab out
en coding
semb ly
{ {
plat form
end ar
lo de
u ation
ĠIn put
oc us
Cur sor
9 0
W ait
ĠU ser
ch or
Ġm atrix
Ġ Err
print ln
v a
gp io
local e
v s
Ġper form
Ġpro b
Ġlog ger
Ġcon dition
Ġp rivate
or iginal
SE LECT
fa ct
Error s
ight s
i er
R C
li ed
A li
FORM AT
: \
æ ķ
ar m
ĠM ake
w rap
cond ition
Ġst at
S lice
] ),
F old
ĠQ u
ug ins
T C
EN OMEM
ro le
Ġe ither
Ġbu ilder
se l
AT TR
b ad
Ġfunction s
AAAA AAAA
F L
Ġstruct ure
Ġpoint s
ĠM essage
Ġex ample
r and
r al
ĠPar se
re store
CH AR
Mo use
ĠL oc
Ġen able
Ġpre v
Ġa ssoci
om etry
ick er
Ġevent s
t ails
re qu
}, {
Pack age
ur ing
ĠM AX
assert True
Ġ2 4
Ġs n
S QL
Ġinit ial
S el
or iz
D uration
Ġex ecute
mod al
P op
h ref
ON G
ac count
ĠC all
b d
w l
ĠC lass
S tep
tag s
c ategory
Ġun less
ist ent
no te
Ġis set
pe at
Ġ2 55
ter min
Ġm ixed
as m
po se
Ġs ort
Con structor
Ġreg ist
Ġre al
CON FIG
| \
sup er
Ġm ultiple
fl ush
iag n
S printf
Ġbase d
Ġcomple te
FA IL
TR UE
ĠG ener
INT ER
**** **
t BQ
ed itor
5 7
Ġdif ferent
re st
fa iled
Ġfollow ing
ST ART
c lock
ak es
M e
r untime
v ol
W arning
INVAL ID
ä »
ĠF T
J ECT
Resource s
Ġw x
STR ING
Ġm apping
ĠO ption
Ġy our
de lta
LI ST
Se curity
QU FD
foc us
ar ation
own er
y ear
Ġcom ment
Argument Exception
Ġg raph
(' #
Ġh tml
read er
Ġs w
Con n
o om
ĠĠĠĠĠĠĠĠĠĠĠĠĠĠĠĠ ĠĠĠĠĠĠĠĠĠĠĠĠĠĠ
HE AD
Ġexist ing
Lo ader
Ġtrans form
KER N
ME M
Ġs ample
Ġprint f
ĠA s
Pro to
ut ure
Re place
Ġ loc
Ġin line
cur sor
R OM
4 9
ĠN S
qu ote
Ġpa ir
a h
G UI
H tml
S um
Ġlo ok
isp ose
p ages
Ġ layer
Pro gress
D A
T ri
ĠAr gs
al le
Ġset s
second s
ag ent
ult ure
Ġi rq
bl k
C OL
Ġin struction
Gener ator
ĠEX PECT
lap se
pa dd
EN ABLE
r u
Ġ" '
En coding
de l
R ate
ch ain
, $
S ample
ĠĠĠĠĠĠĠĠĠĠĠĠĠĠĠĠ ĠĠĠĠĠĠĠĠĠĠĠĠ
x f
ĠP oint
Pa ss
ĠH andle
main ing
res olve
c ar
E OF
Ġstr len
ĠX ML
en gine
U ID
n on
con vert
O W
Log ger
var s
tBQ UN
Ġde code
O ff
Ġpro p
Ġbo und
remove Class
Sc reen
LA Y
lo okup
al pha
Ġund er
Con nect
Are a
R D
m age
AD DR
ee e
bo und
b h
ve lo
d AtA
T A
b m
i ver
( @
Ð¾ Ð
Ġset up
Ġd ict
res ize
ret val
bt n
ĠV AL
ur al
Ġ" ";
ĠD esc
Ġw ould
w arn
sub str
B asic
pro ps
Ġtrans action
ĠB ase
ĠB o
n ess
arshall er
in teger
ĠS c
Ġn eeded
or ter
Ġp lace
12 34
Ġ" );
ã Ģ
ad ing
S n
: ["
at io
} /
f etch
Ġp op
Ġd raw
a i
w arning
Write Line
ur b
ĠCon vert
col lection
as ure
vide o
Ġa xis
co unter
Se quence
Ġ( %
ol l
ĠO S
ĠIO Exception
4 1
I ST
irr or
s heet
s ingle
ĠD B
Ġf ont
ĠHT ML
5 2
l in
m etadata
D ATE
U Int
pack age
v l
log ger
ifi ers
get Type
Ġfact ory
pro perties
p layer
is on
p ted
al y
__ __
C LA
str ip
Ġch anged
T AG
m ail
f old
iagn ost
a ss
Ag ent
H S
Ġh ow
sh ared
ĠP ath
o use
è ¯
Ġnet work
k ind
UN D
Ġbo th
t n
# {
CH AN
25 5
ï¼ Į
F n
a udio
tr ain
Ġc ap
e q
class Name
Ġac count
p in
m ar
Sc alar
cb i
Ġf oo
ancellation Token
mem cpy
mem ory
B R
p ng
med ia
Ġt t
6 7
IF Y
ĠF ind
G N
s nd
redential s
> '
for ce
Ġre ct
P rivate
M edia
Ġun it
l ation
Point s
Ġ' ')
Highlight Rules
g a
W A
Child ren
ro ute
Bo und
Ġapp lication
Ġtest s
D ay
An not
MA C
ĠO pen
u ted
Per mission
Ġin te
PR O
ĠRe quest
R ad
ĠS QL
k t
ro id
Ġr v
medi ate
ĠC al
ind ent
) },
Ġdesc ription
E B
dis abled
Ġa bs
Ġb atch
Ġchar acters
th em
P y
Ġmo ve
ĠP R
Ġent ries
ĠV alid
Re set
a ff
Ġp red
Ġp ri
Ġy ield
S w
Ġa ss
Ġcon s
j ava
ĠI R
l legal
[ \
By Id
p red
inter val
C RE
g le
á ĥ
l x
M esh
QT tBQUN
pc m
En able
Det ails
check ed
ĠH e
I X
UN T
S o
t le
PI O
act iv
( :
St ats
ax is
D MA
Ġex tra
Menu Item
Ġj Query
Un marshal
Ġto o
te ct
Ġs plit
S yscall
Ġto ol
ĠX XX
Ġelse if
Ġu i
ens ure
{ $
Ro ute
m apping
Set s
rt l
ra ce
y p
Ġe very
z e
Trans ition
h idden
la ck
Ġm an
Ġd river
qui res
8 3
Row s
Ġtra ck
al ias
im pl
ar ted
E P
lo aded
O wn
: /
Ġthe se
H A
Ġ until
N ONE
gr id
æķ °
Ġapp ly
Ġpack age
Ġpo ssible
m er
Tag s
app ed
Ġde pend
") ]
Ex ists
tr im
la use
mat rix
B T
Ġv m
Ġhttp s
Al low
v id
p ower
ĠP L
w m
S ql
Lo op
Ġb ar
RE E
ro t
ĠVAL UE
Pa ssword
for Each
l er
h elp
up lic
V ec
ĠSt art
In struction
sc ri
v irtual
J oin
S ort
s u
D T
æ ĸ
Ġspec ific
Ġarg v
Ġ{ {
P ublish
IG HT
user name
... )
Constant s
ĠBO OST
Ġp ool
part s
Re port
QTtBQUN BO
Ar ch
v ok
Ġ" [
Enumer able
Ġmatch es
Ġwith in
A UT
P ixel
str ict
ĠIn valid
ĠRe move
S lot
W orld
m aster
Ġa ssign
Frame work
ĠS ub
rie ve
Ġ' _
A ssign
e ff
v d
comp are
ces sed
co okie
Ġcon n
Ġind ent
Ġem it
o ugh
S plit
pay load
P HP
idd le
f req
Ġmethod s
Ġd w
Ġ' #
lo ader
A bs
oriz ont
R andom
ĠIn teger
Ġch ain
+ =
Fe ature
ĠLo ad
Cl uster
Ġh igh
re mote
Ġc ell
Ġen abled
V olume
pro file
token s
Ġdesc riptor
Ġde lta
Ġd ig
S V
Ġconst ant
and s
is Empty
Ġd iv
Require d
End point
Ex ecute
var iant
ĠDe lete
im ate
M achine
Ġre port
Ġll vm
jo b
c er
Ġm ock
(". /
Ġcom mon
r p
rid ge
N ative
se g
Control s
V ert
US ER
Ġs ender
] :
ann er
INS ERT
tri b
Ġsk b
L anguage
Ġ{ "
t w
n l
Ġind ic
* (
Lo okup
ĠS o
create Element
Ġs printf
" ==
ĠO p
group s
I gnore
O b
å ħ
havi or
ĠH ttp
ex tra
Ġs lot
iz es
ent s
a ut
v ance
Y W
St atic
Ġset ting
d l
lay ers
v ing
Ġe cho
Gener ic
m anager
Ġde pth
Ed ge
Ġis instance
ent ries
QUFD QTtBQUNBO
Ġf ill
Ġf ix
lo or
Ġs yscall
h ook
FF FF
Bo unds
un ct
Y Y
Ġus b
Gener ated
inish ed
Ġreg ion
Ġc lock
and id
OFF SET
Ġe lem
: !
option al
sup ported
Ġ ::
p ers
BA SE
Mon th
get Id
IF T
ĠF orm
H elp
Ġfail ure
en ers
At tach
v oc
Ġf in
x c
y cle
0000000000000000000000000000000000000000000000000000000000000000 0000000000000000000000000000000000000000000000000000000000000000
de cl
object s
en ch
Em it
aaaa aaaa
Ġ keep
al f
Ġd iff
G l
! ==
De code
orizont al
= !
n one
bu ilder
( ['
N ow
ĠA ct
ith ub
Re lease
Dis k
IN K
i oc
ĠCom p
\ /
UE ST
[ -
Ġ Res
ĠG FP
+ '
Ġpl ugin
je ction
Ġp ipe
ĉ ĠĠĠĠĠ
7 0
ĠA S
**************************************************************** ********
M ac
ĠJ S
Ġwh at
Be an
Ġcur sor
T F
T ry
g ative
ent ral
Ġgener ated
Arg uments
Ġa pi
à ¥
ag ic
h ci
Ġ --------
Ġsign al
pa ren
O wner
5 8
L D
il li
ab c
t im
Ġcall s
t b
ĠM em
ĠI d
E lem
ĠB lock
P M
Ch ain
(" ../
Th row
H R
7 8
R en
Ġt ab
i ed
g c
valu ate
B ind
sum er
er min
Un expected
param eter
ĠR aw
a N
atal og
PAR AM
p f
w riter
Ġ" +
ĠF ield
er red
ut down
i NdEx
Ġo b
Ġin ode
Ch unk
tri es
. ,
A F
Object s
Ġm eta
de pend
Ġpro tected
T e
F ix
); \
d n
d im
require d
ĠP re
pre pare
E ffect
requ ency
Ġp riv
Column s
Ġcont roller
Ġp resent
cl us
B LOCK
un ique
~ ~
M ulti
n v
å ®
Ġre moved
ĠReg ister
get Instance
An imation
entic ation
Ġt uple
Ġp ixel
5 3
ure d
inst all
pro tocol
Ġs ent
ĠW indow
Ġm enu
Ġvalid ate
Ġ" )
Event Listener
point er
content s
C UR
c enter
Ġ$ {
pe ll
W IN
our s
V R
write l
EV ENT
am pl
B C
Ġ( []
d irectory
h c
ç Ķ
Y ear
id ent
Ġpro tocol
Id entity
ĠL OG
TH OD
d ist
block s
Ex it
k it
Ġp layer
Ġ et
Ġp s
Ġvariable s
De pend
F rac
DE F
f il
ser v
B inary
Valid ation
M ON
SU LT
ĠM ethod
ed ge
um b
Ġs uch
Group s
k g
Status Code
c f
Fail ure
($ _
ul lable
ID E
Ġm etadata
TR ACE
ĉĉĉ ĠĠ
FF ER
Comple te
I MP
Ġs ig
' =>
SU B
w atch
as c
SH IFT
r pc
Ġpar sed
ĉĉĉ Ġ
G en
gener ate
c ancel
> ,
om eth
ateg y
Ġtra ce
enc ies
on y
KER NEL
AR G
_ (
> .
ometh ing
ĠĠĠĠĠĠĠĠĠĠĠĠĠĠĠĠĠĠĠĠĠĠĠĠĠĠĠĠĠĠĠĠ ĠĠĠĠĠĠĠĠĠĠĠ
D irect
wh ich
riter ia
Re pository
I t
Ġed ge
Back ground
Ġp ayload
al let
Ġex tract
Ġus age
bo ve
8 2
R ot
h ex
C ancel
ĠN umber
on es
w ill
not ify
Ġj ob
++ ]
D river
cur r
con sole
d ot
ĉĉ ĠĠĠĠĠĠ
ro ke
######## ########
F LO
c atch
ĠS C
n a
Ġ' )
v p
Ġa void
con cat
Ġv ec
D OM
r ong
Ġcor respon
mem set
k ely
prec ated
9 2
No te
ĠBu ild
Ġst ill
bu cket
log in
h igh
drop down
Ġr untime
Ġpa ssword
Oper ator
G RO
BY TE
? (
ĠH ash
V ideo
or th
F ALSE
ĠRe set
ed s
cl one
ĠA ND
A xis
n n
C or
Ġar ch
} "
G ER
Ġj ava
Ġn ative
h older
C AP
An gle
g ot
ĠA SSERT
> "
s ym
bo ot
Test s
å Ń
B undle
ol ved
HER E
Ġb us
L ines
Ġ" ;
Ġmem ber
è ¿
Method s
p lay
Ġf d
rep ly
Ġr ad
Ġtag s
W in
ĉĉĉĉ ĠĠĠ
Ġ1 4
Ġm at
P red
cl u
Com pare
cess ary
ĠR T
(" #
U V
co gn
Z one
attr s
Ġallow ed
Ġt ri
num eric
sign al
Ġ1 3
Ġim g
} ),
Ġrepresent ation
ite space
Ġ ct
5 09
L Y
o ted
c lasses
un ch
Ġ rows
Ġc m
Ġf printf
Ġp ci
Ġw ay
x l
Ġid entifier
Ġthe ir
ch art
:" \\
5 1
T ick
up per
ĠF ROM
Event Args
Ġed itor
ĠDe bug
ĉĉĉ ĠĠĠĠĠĠ
tem pt
Ġs q
ched ul
Ġ} \
Ġ{ '
fact ory
module s
/ ,
? "
li ke
ĠM MM
cbi Ag
Ġre lease
w rit
F ilename
Un lock
ĠC lose
sp i
C ast
SH A
Ġh app
Ġs imple
them e
istr ib
O pt
Ġc c
h elper
St d
to k
Us age
\ ",
Ġrel ative
e cho
Ġs chema
D irection
ĠOut put
Ġon ce
p ixel
g d
Ð° Ð
alle l
G A
ĠĠĠĠĠĠĠĠĠĠĠĠĠĠĠĠĠĠĠĠĠĠĠĠĠĠĠĠĠĠĠĠ Ġ
Ġat tach
Ðµ Ð
= $
o ot
D M
Ġver ify
Ġmatch ed
ME THOD
Ġhe ad
ĠSer ver
P lay
V irtual
CF G
t k
ĠR un
In str
Ġ la
Ġcontent s
ĠDate Time
ĠV iew
Ġmon th
pan el
ĉĉ Ġ
padd ing
ĠIN TO
TR AN
start s
P ush
U LE
B ottom
res ses
g reg
NE T
A ST
Ġw arning
S ite
Re al
Ġle ast
L AN
column s
ĠE d
Ġtra in
Ġap pro
ĠJ son
' .$
== "
us age
co very
M ake
J ava
ase s
Ġs ock
pk t
Ġt imer
li te
Sh ader
c ut
. (
H W
s in
ĠWh en
s peed
6 8
d irection
Ġs z
if est
Ġrun ning
element s
d uration
)) {
Ġt imes
e val
Com mon
ex pression
in line
H AND
ĠD MA
li ct
re v
S heet
Ġr ate
^ \
Ġdis able
: `
Ġdest ination
F ill
RE T
Set up
t ick
Ġw ire
Ġl ua
Ġse c
Pro ps
F ixed
DB G
sub string
'] .
web pack
Ġ3 0
: ]
str cmp
ex ist
; }
N N
ĠL L
ĠĠĠĠĠĠĠĠĠĠĠĠĠĠĠĠĠĠĠĠĠĠĠĠĠĠĠĠĠĠĠĠ ĠĠ
Ġm essages
al ert
7 1
Ġt s
å Ĭ
net dev
U B
Ġl p
ĠCon text
imit ive
t ure
Auth or
Ġfor ce
test s
ac cept
D ictionary
In formation
C ATE
ĠC H
DE X
p olicy
clu ded
method s
FI X
z er
LE TE
RE SULT
ĠPro cess
Ġh w
, '
Ġs u
Ġwe b
Second s
ĠD is
f lat
Is Null
Ġs lice
Ġ low
M aterial
Ġneed s
Ġsc an
Re mote
we ight
B atch
em on
Mark er
art y
Ġ lower
SS L
D ig
pro gress
Ġpro gram
ĠCon sole
SC R
z A
id i
h o
s oc
Ġk ernel
LO B
it ude
Ġblock s
Mod ified
s y
Pre v
Ġd imension
CON TR
E ST
QU AL
At om
Con sole
g on
atom ic
rypt o
ĠVALUE S
9 3
9 8
at t
ĠS ource
ro ad
ub e
ĠO ther
th at
string s
gra de
r f
Ġm ight
ĠValue Error
Sh ared
age ment
Ġb inary
rel ation
m ath
ĠP CI
Ġassoci ated
) -
] ",
ĠD OM
Ġ< -
Not Found
Ġan other
om ent
A udio
fr ont
ser ialize
ä º
Ġbu ff
BU FFER
Ġv ert
V O
t ion
istrib ution
9 5
B ig
Ġuse s
en coder
Ġc p
ĠV er
Co unter
col lapse
ĠI mage
Ġdef inition
F ace
Ġd id
Ġ layout
Ġs im
Reg istry
ĠOption al
if orm
6 5
i om
Ġint errupt
re ater
Ġmax imum
å ¤
channel s
z ure
\ '
> ';
Ġg en
Ġchild ren
Ø §
S M
:[ {
inherit doc
Ġfin ally
Ġoc cur
default s
e f
ut or
ul ator
Loc ale
> ("
ch anged
CP U
) "
EL D
h l
è ®
l ua
se lection
ĠArray List
TR Y
se ed
Ġar r
> =
mark s
L iteral
9 1
& #
d ays
re ce
us ers
Ġrequest ed
Ġ# {
com mit
a u
Ġ5 0
12 3
Ind ent
ys is
anag ed
ĠU N
Ġtr igger
v n
UR CE
CLA SS
Ġc ore
Ġme ans
ĠBu ffer
D rop
Ġm ac
comp ile
/ {
Ġy et
H igh
T ile
Ġro ut
b le
M erge
ip her
ĠM I
un try
An chor
ĠL e
pl an
F ocus
Ġid ent
Ġv ia
Ġ' ;
Sc ene
Ġsc roll
in c
æ ĺ
ist ic
Ġd ist
Ġsub str
p lot
d ent
CL K
m ented
Get Type
Ġ Result
g ame
Ġev en
in te
" ].
vis ible
Ġp ers
T S
has Class
ĠInit ialize
Ġb ad
ĠS ize
SU PP
ph ys
la ve
Ġ' [
i ro
et te
Ġlib c
get Operand
H ex
Function s
æ Ī
out er
Ġinit ialize
U G
Ġk now
Ġ er
ig r
m k
comp ress
6 3
P TR
pect or
Time stamp
Ġc fg
Service s
Ġs s
par ison
F amily
N s
7 2
Ġ ensure
d ispatch
Ġat om
if o
time stamp
ĠS end
__ );
Ġcom pare
Own Property
ĠCol or
) +
Su f
de ep
ang ular
unct uation
Ġse lection
unk nown
8 4
Ġc ast
------ -
l m
Pro gram
ver ify
ĉĉĉĉ Ġ
Ġ ).
Ġresource s
G EN
Ġpart s
ĠIn dex
Ġa bove
Ġm s
ed i
Ġp ush
Ġ* =
R M
Ġs ide
b inary
P od
U INT
k s
Ġlist ener
Ġd irection
FLAG S
| \\
SER VER
is c
> ::
D iff
OB JECT
Or igin
D AY
Ġbe st
Ġwe re
R V
! !
Ġup dated
GRO UP
doc s
r dev
Env ironment
pro be
append Child
-- -
medi um
fe ature
AR D
ex port
IN D
] ));
x pr
ĠPHP Excel
SO URCE
up load
d x
ri ve
A SE
ic ient
Ġch anges
An im
RE D
} ]
Av ailable
RE F
Ġe ffect
or ig
ist ics
. """
In voke
s ame
Ġno thing
Ġun ique
trans action
Ġt ensor
ĉĉĉĉ ĠĠ
Style s
UR N
im ages
Un m
drv data
Sign ature
ath er
sub mit
] ],
ord s
Y PE
ĉ ĠĠ
Ġg rid
Set ting
ĠQ t
pe er
Ġ1 02
s f
st a
Ġp t
N ODE
Ġm p
T erm
R S
al led
s imple
6 2
Ġcl uster
LO C
ĠRaw Syscall
c g
n ippet
Ġtoken s
G uid
Ġp romise
O k
Ġfe ature
ĠM y
ĠTo ken
c ert
Ġb t
] (
CA LL
F N
Ġd rm
u tex
ĠA d
Ġd at
ateg ories
h p
Se gment
m alloc
Ali as
Ġpro xy
ver ted
ra ise
){ "
Ġp adding
Ġd rop
Ġde lay
CO UNT
Ġd uring
Ġassert That
end or
il ities
b eta
Ġcolumn s
Ġs ql
r ont
D one
Ġre mote
ĠSer vice
ul k
C ulture
Ġ Response
li es
Ġ uri
V AR
com e
ĠJ ava
Ġg e
z on
b ine
d y
De legate
9 4
co ut
Ġadd itional
(/ \
Ren derer
l c
if ies
() }
ĠA ction
ref s
Ġcurrent ly
C ard
m r
ĠC C
m argin
Ġcomp ute
str len
REQ UEST
istr ation
ul a
path s
Ġspec ial
am d
Ġlabel s
DEV ICE
prec ision
PA RE
Ġr x
Ġco unter
S ock
Ġa cc
Rece ive
C enter
Sup ported
def inition
s printf
ĠX ml
Ġ( ((
D P
w er
Ġp ad
label s
co s
dddddddddddddddddddddddddddddddddddddddddddddddddddddddddddddddddddddddddddddddddddddddddddddddddddddddddddddddddddddddddddddddd dddddddddddddddddddddddddddddddddddddddddddddddddddddddddddddddddddddddddddddddddddddddddddddddddddddddddddddddddddddddddddddddd
M IT
Ġro t
Valid ate
j d
Print f
Su ite
PA GE
Re c
He ad
Ġm ost
b g
Ġ" _
o op
.... ....
Del ay
pan ded
D st
Ġ2 56
e ded
ĠP er
, \
fa ctor
Ġst orage
M essages
b at
ĠU SB
00 1
CATE G
m esh
Ġin ner
Ġ -----
ĠO per
Op code
(" <
Ġde cl
ĠE lement
av ailable
Char acter
Ġimplement ation
g ate
(' \
Ġm issing
Ġs mall
ĉĉ ĠĠ
PH Y
or igin
' +
al ette
Ġre ason
Ġab stract
ra cket
ĠParam eters
F low
t wo
Ġmatch ing
al th
m ulti
Em ail
Ġiter ator
I A
****** /
Ġl anguage
' ",
pan ic
Ġ icon
Ġm d
use s
TI M
C AC
)? |
err no
Lower Case
f ixed
ĠM achine
99 99
d ialog
f ilters
B ACK
ilt in
Ġenum er
ĠM ock
. ',
B order
set ting
M icrosoft
IR Q
Dec imal
ĠC opy
un register
ĠIR Q
Ġd type
Ġc ard
get Line
PR OP
t ile
F W
AR RAY
Ġlo aded
init ial
ĠP rint
Ġ* (
C SS
EX PR
full y
Ġa ws
N il
Ġd ay
kw args
PR OT
S ound
n av
ns nippet
i os
Ġne cessary
G TH
ra pped
x a
Ġcon structor
04 3
aw s
Ġp c
Ġis s
get Message
av ing
AN CE
Check ed
@@@@ @
In to
se quence
Ġ esc
// ------------------------------------------------------------------------
resource s
Ġor g
set Value
ĉĉĉ ĠĠĠĠ
Sel f
ep Copy
Ġh old
COM P
std out
w b
(' <
P ut
ss l
Ġen gine
ĠO r
H istory
En tries
B reak
ore st
P oly
B ad
H J
RE CT
w x
a o
cl uster
P latform
Ġad apter
D iv
Ñ ĥ
avig ation
f older
loc ity
B ER
Ġc s
Ġd ma
Ġpro vider
PR INT
7 4
Up per
Ġv ideo
h y
fe ed
. ');
Ġl ater
Ad min
us pend
expect s
ser ial
ĉ ĠĠĠĠ
Ġh ard
Ġpro vide
CATEG ORY
get Attribute
Ġim s
F ragment
ordin ates
trans port
LO AD
uplic ate
Ġde termin
V F
Ġ util
co ver
Ġr t
3 00
xx x
Ġse q
Ġf ace
config uration
pe g
SS ION
curs ive
us ing
Var iant
P ipe
v f
Ġ' </
ue s
Ġsc reen
US B
ĠV ar
Ġd ictionary
or ary
bb bc
al ysis
6 1
] {
M F
Ġpro ps
ĠĠĠĠĠĠĠĠĠĠĠĠĠĠĠĠĠĠĠĠĠĠĠĠĠĠĠĠĠĠĠĠ ĠĠĠĠĠ
In line
k ernel
li er
C N
pe ar
Ġb ind
t od
|| (
S G
rec v
Ġ End
ma zon
bbbbbbbbbbbbbbbbbbbbbbbbbbbbbbbbbbbbbbbbbbbbbbbbbbbbbbbbbbbbbbbb bbbbbbbbbbbbbbbb
Ġpro gress
bbbbbbbbbbbbbbbbbbbbbbbbbbbbbbbbbbbbbbbbbbbbbbbbbbbbbbbbbbbbbbbbbbbbbbbbbbbbbbbbbbbbbbbbbbbbbbbbbbbbbbbbbbbbbbbbbbbbbbbbbbbbbbbb bbbbbbbbbbbbbbbbbbbbbbbbbbbbbbbbbbbbbbbbbbbbbbbbbbbbbbbbbbbbbbbbbbbbbbbbbbbbbbbb
bbbbbbbbbbbbbbbbbbbbbbbbbbbbbbbbbbbbbbbbbbbbbbbbbbbbbbbbbbbbbbbbbbbbbbbbbbbbbbbbbbbbbbbbbbbbbbbbbbbbbbbbbbbbbbbbbbbbbbbbbbbbbbbbbbbbbbbbbbbbbbbbbbbbbbbbbbbbbbbbbbbbbbbbbbbbbbbbbbbbbbbbbbbbbbbbbbbbbbbbbbbbbbbb bbbbbbbb
Ġcall er
CONTR OL
on d
bbbbbbbbbbbbbbbbbbbbbbbbbbbbbbbbbbbbbbbbbbbbbbbbbbbbbbbbbbbbbbbbbbbbbbbbbbbbbbbbbbbbbbbbbbbbbbbbbbbbbbbbbbbbbbbbbbbbbbbbbbbbbbbbbbbbbbbbbbbbbbbbbbbbbbbbbbbbbbbbbbbbbbbbbbbbbbbbbbbbbbbbbbbbbbbbbbbbbbbbbbbbbbbbbbbbbbbb bbbc
ĠA C
Ġlo okup
n ative
il ing
Ġa x
ĠC an
0000 0
ĠCON FIG
Ġsecond s
W atch
$ .
Get Value
De coder
pol l
ol id
d k
ipp ed
pre vious
ĠDE BUG
p unctuation
BU F
ar p
ĠĠĠĠĠĠĠĠĠĠĠĠĠĠĠĠĠĠĠĠĠĠĠĠĠĠĠĠĠĠĠĠ ĠĠĠĠ
ĠB it
å Ľ
String s
Ab stract
Not ification
allow ed
u uid
pa wn
Ġs m
J o
at ible
Ġe p
w c
li kely
Ġy ear
Ġ EN
Ġd om
Sup port
D istance
ĠIn ter
Z ER
par sed
Ġbe low
pre vent
En coder
FI ELD
ĠT ry
c ities
Ġd t
Exec ution
ordin ate
ot ion
Ġare a
Ġn g
ĠCom mand
i j
om atic
ĠN et
Trans port
Col l
ĠN um
C tx
S yntax
m essages
D om
T L
B D
ul ation
Ġre st
ĠQu ery
clo ud
Ġde tails
sc al
x F
g ithub
Ġcorrespon ding
[ (
Q ual
Ġ' \\
/ %
Ġg u
M at
Ġp reg
to LowerCase
L at
Ġw in
P K
_ ;
Size In
v en
data base
Ġstore d
} },
(" [
FUN CTION
st mt
5 00
get Element
Ġt erm
ro ut
Ġro le
c rtc
m et
)) :
Ġpath s
() [
Ġrequest s
D rag
ĠW HERE
per iod
L INK
Ġam ount
ĠI llegal
ĠSt ate
Ġne ver
F OR
qu are
Ġ il
ĠS E
Cont act
Ġc ert
U X
" \
( ',
SH ORT
Ġbr anch
andl ing
cre ated
Ġrece ived
b f
c u
Del ta
V e
Ġarg c
Ġis n
8 1
Ġst andard
Decl aration
N amed
ĠSt atus
R ST
Ġ( &
Ġspec ify
char s
R F
Ġ' --
Ġ) {
S PE
ĠBo olean
Se parator
Ġ6 0
ens itive
Ġb rowser
Ġo wner
Con st
A W
Ġno te
fe atures
sn ippet
Ġc lasses
Class Name
al ance
x t
ĠM od
Co okie
v t
æ Ĺ
N G
ap ed
h b
Ġal pha
ĠA ll
T ABLE
RE SS
con straint
C a
] ).
cip her
ouse l
pro gram
Ġv ol
on ical
ĠC lient
Ġsh ared
pro vider
Ġse gment
i B
Sk ip
d up
Ġsup p
Cre ated
w a
FA I
ĠĠĠĠĠĠĠĠĠĠĠĠĠĠĠĠĠĠĠĠĠĠĠĠĠĠĠĠĠĠĠĠ ĠĠĠĠĠĠ
5 12
ĉĉĉ ĠĠĠĠĠ
ĠI tem
Ġd istance
andid ate
p icker
è ¡
7 3
to uch
c q
road cast
stant i
! ");
WARN ING
LEN GTH
ref resh
Ġres olve
lo ur
ä ½
ference s
cor rect
al s
g pu
Re q
Ġw p
V B
g u
Ġ ));
reser ve
C ert
O ther
ĠI mp
ĠT arget
---------------- --------
RE SET
L ight
com ing
Ġf p
LOB AL
term ine
Block s
AT CH
A mount
cy cle
activ ate
S urface
assert Same
Ġac cept
bit map
:: _
' \
Q String
Ġ! (
M etrics
m ult
j a
ĠOn ly
D U
Ġw idget
Ġm any
p n
Ġend l
Var int
Ġdis abled
Over flow
p atch
t cp
A E
ãĢ Ĥ
C amera
C ertificate
D iagnost
(( (
se ct
er ved
ĠB e
ĠM C
IN DEX
Tool Strip
P lace
FAI LED
l b
({ },
ĠU til
ra ction
h ighlight
Ġs orted
Sc an
)) |
M etric
Q t
] /
Bu ff
te ction
ĠM o
L P
cl s
EE E
c red
Log ical
g y
voc ation
D ispatch
ud ing
SY NC
Ġo wn
w eek
Ġtr im
Ġoper ator
ĠC PU
Ġ' $
Ġk ind
Ġstate ment
Ġro und
up port
Ġt ake
ĠT em
m x
p ix
O ld
t i
d ynamic
ĠM ax
(" -
C lip
Ġ REG
f inish
ac c
Ġh ook
ç »
irq restore
Re st
ex tract
AN T
emit ter
Ġh ex
Ġalloc ate
ploy ment
set Attribute
C trl
ud it
Ġs ync
E QUAL
go od
ĠR untime
Bu cket
r atch
Ġcall ing
Ġvalid ation
Ġencode d
pri ority
y aml
__ (
Ġw rong
UR AL
Ġp ower
Ġp ending
' '
Con tract
++ ){
Ġ1 28
asc ript
Ġ dd
val s
c N
Ġ" $
b lob
end l
Ġro ute
-- )
M gr
B rowser
Ġle ss
Check er
Ver ify
en ar
s chedule
Ġm erge
Ġs ynchron
ĠU I
Ġf etch
cp i
M issing
IC B
bl ank
ab ilities
DO WN
Ġun known
ĠCol lection
ro k
D ict
ĠA V
dir name
Ġs aved
init ialize
Ġ102 4
ĠC lear
Format ter
p ag
Ġcon straint
ud o
FAIL URE
Ġh r
L C
w ant
ĠOther wise
g ers
Ġassert True
g re
Ġ" \\
Ġw rap
Ġwe ek
IP T
Ex ternal
uint ptr
Dest roy
Ins pector
As sembly
W rap
action s
ps z
Ġst ats
Im m
ev t
ock er
end point
chedul er
av ascript
oper ation
M irror
load ing
o on
Ġwrit ten
Ar t
Ġt ile
SP ACE
sc ribe
Ġ" ");
Ġy aml
pr imary
! \
MA R
H Y
Content s
ĠĠĠĠĠĠĠĠĠĠĠĠĠĠĠĠĠĠĠĠĠĠĠĠĠĠĠĠĠĠĠĠ ĠĠĠĠĠĠĠĠĠĠĠĠĠĠĠ
z d
ĉ ĠĠĠĠĠĠ
w q
S l
p data
ĠSt ream
Ġsign ature
Ġpro duct
comp iler
Ġt c
L ang
Ġopt im
'] [
Ġem ail
Path s
S ys
p ow
g est
St mt
Ex ist
ir cle
ĠPL URAL
C G
To uch
* >(
O pts
I pv
ib ling
ĠCon stant
Ġne gative
v olume
m V
get Data
SE L
t uple
Ġme an
ĠFI X
t bl
Ex tra
get Parent
L ONG
is match
Ġret val
T ex
pl ugins
iv ely
D imension
Ġ" ")
w orld
Ġcase s
ĉĉĉĉ ĉĉĉĉĉ
P resent
Test Case
Log in
Ġend point
W here
Init ialize
Lib rary
r on
C ould
Ġpro file
N aN
se ss
7 9
f rag
Ġb ottom
vo ice
rad ius
ĉĉĉĉ Ċ
Ġch ip
ĠGo ogle
ĠP l
Ġg p
f ire
DE D
H ook
Ex port
U sed
Ġw orld
trans fer
x e
t ty
quest ion
Res olver
RE AM
A MP
has OwnProperty
U ST
Valid ator
Ġi eee
Ġd ynamic
Ġin side
çĶ ¨
Ġl ang
Ġpro per
pa ct
Ġregist ers
F X
mission s
G LOBAL
ĠCh ar
ipp ing
Ġv o
in ux
Ġ' {
ĠTh read
Act iv
ver tex
de s
Ġc x
Ġse ed
A K
Ġs afe
m ix
int errupt
dis k
Ġex pr
la im
irt y
Ġun set
A rr
se gment
Fact or
ench mark
red irect
pp ing
Ġ" --
prevent Default
a e
ĠF irst
Ġcl k
get Current
C annot
Ġrule s
Ġup per
GU IC
pe xpr
IT H
input s
IsNull Or
Ġl ambda
Ġed it
uc ce
let ion
> ",
Ġinput s
VE L
c lip
ĠM O
it al
Graph ics
/ ******/
ĠA c
x s
pa use
wh en
ĠM arshal
D ynamic
S witch
ir d
Ph ys
re peat
ne ed
Bit map
o v
s lide
r ic
rom e
H I
clean up
am ount
Ġf il
Ġde termine
Sec ret
Align ment
ĠT EST
id entifier
s id
Ġco okie
æ į
Ġp in
> ',
X Y
Get s
Ġinst all
COL OR
e ffect
Ġ. .
As set
Ġstart ing
ap on
s urface
UN K
b rowser
In ner
ok ies
sub ject
du ce
ĠT ra
ĠRe f
ĉĉ ĠĠĠĠ
N V
ĠV is
Ġb order
Al pha
/ ************************************************************************
Trans fer
Ġc lick
Ġf older
Sign al
GUIC trl
he el
trans late
Ġre quires
Gener ate
Ġc enter
Ġs l
cry ption
Ġagain st
US H
it tle
ĠWindow s
rad ient
e ver
par a
sc ape
n c
LT ER
illi seconds
cry pted
Ġ escape
App ly
1234 56
. (*
Ġlog ging
Ġg r
Ġin s
H H
str ide
P romise
Ġs ite
Ġse g
I AL
Ġus ers
eth er
b as
ĠAt tribute
Ġp atch
Ġ es
con s
SI GN
P riv
Ġ{ },
EN C
u ce
G ui
pol y
T imes
Ġenv ironment
Option al
Ġf ixed
Ġword s
Token s
R U
st er
ag on
Ġ4 0
exp and
Ġp olicy
ĠT able
ty p
Ġor igin
ar ies
frame s
Ġp ages
in voke
H OST
ĠL ook
Ġf lush
n i
G O
an it
lo ss
desc riptor
er ies
se p
Wh en
M s
) $
h ello
Ġt im
Ġg ame
R l
HEAD ER
Sum mary
Char s
Ġmo use
ĠAdd ress
Ġre d
f amily
comp ute
W est
Ġp oly
pk g
ĠM atch
Pl an
N I
ĠMMM M
Ġs y
ĠN O
te am
clus ive
W eek
Pro c
n orm
x d
Pri ority
\ ">
f lash
list ener
ĠG ET
:: ~
d imension
Ġc ancel
= -
s core
a ult
ĠS w
% %
mit ted
Label s
Ġz ip
text ure
AT OR
Ġdefault s
Input Stream
P ayload
Ġn amed
ĠP a
Ġm ulti
art icle
VAL ID
fa ke
in f
cl uding
By Name
Ġact ually
c ached
Annot ation
s ome
Ġtext ure
ĠS imple
ĠThe re
Ġtrans ition
R PC
S peed
Ġ" :
Ġen ough
I p
Un able
) ',
PO S
ĠS ec
æ ł
* \
p ub
Ġd uration
CON NE
igh b
En ter
S uffix
Com bo
Ġdirect ly
UT E
Rel ative
havi our
][ $
sh ip
t pl
sp y
ly ing
Ġ% #
Ġtime stamp
str ap
> ";
Ġ'' '
Ġs d
Ġcur r
se m
Pri ce
f ifo
ĠW M
Ġw atch
s ent
OP EN
cap s
ZER O
ĠP AGE
Ġm esh
Det ail
irm ware
H V
G C
r g
ĠY ou
c li
u v
Ġm edia
dat etime
Ġf low
ĠString Builder
sec ret
Ġd yn
ĠS tr
I Z
Ġc ategory
Ġre maining
Ġm ath
Ġs a
ĠM odel
log y
connect ed
pro b
F ore
D lg
Ġd ump
Sub ject
XX XX
Ġhapp en
b ig
see k
ĠType Error
b ot
Ġn v
Ser ializer
pa cing
a bb
< =
j ax
char set
message Info
r w
================================ ================================
ul ated
ĠW ait
Ġd ialog
S ide
Ġs omething
Ġth ose
Id ent
6 9
se curity
s leep
pri ate
( ()
t un
Ġj oin
ĠValid ate
] ?
In clude
D ispose
Sn apshot
irq save
mark er
Ġw ell
Tr igger
Ġ* _
get Mock
ue st
( ["
Ġ Resource
Ġp b
ĠĠĠĠĠĠĠĠĠĠĠĠĠĠĠĠĠĠĠĠĠĠĠĠĠĠĠĠĠĠĠĠ ĠĠĠĠĠĠĠĠĠ
part ial
P eer
F oo
Ġback ground
arg c
A p
ĠC urrent
C V
ĉĉĉĉ ĠĠĠĠ
Per iod
Ġbu cket
Clo ud
cord ing
Ġrecord s
file Name
w ake
c ity
f printf
Action s
\\ .
is Array
ĠU RI
Con v
ĠFIX ME
Ð »
ri er
Code s
ĠSh ould
cul ation
Or iginal
Code c
Ġim ages
H int
al es
pl ane
ĠĠĠĠĠĠĠĠĠĠĠĠĠĠĠĠĠĠĠĠĠĠĠĠĠĠĠĠĠĠĠĠ ĠĠĠĠĠĠĠĠ
G T
Go ogle
d istance
i w
pr ag
} '
Ġcreate s
t or
Process or
ind er
L y
f loor
s amples
Ġ( ($
Ac cept
ĉ ĠĠĠĠĠĠĠ
Ġcon version
ĠC ur
B us
R GB
Extension s
Ġp id
Ġc ached
ĠEx pression
m f
De v
ĠS V
(& _
ver bose
ach ing
ĠĠĠĠĠĠ Ċ
Ġper iod
ra se
Ġp e
Ge ometry
al i
Convert er
qui val
T uple
D L
prag ma
spec ial
p lain
H O
ĠA P
++ ,
d type
ĠW ith
ĠD ep
C lasses
Ġm m
] \
V P
Ġm anager
Ġact iv
Sp rite
enar io
M ail
Ġ1 7
}) }
Ġn one
at ile
ST D
Ġj s
Ġse par
se udo
cont act
Ġbo unds
_ )
H B
Ġi NdEx
å ¼
Ġret ry
R W
Ġ2 5
Vis ual
back drop
get Text
Read y
x C
Ġstr ide
Ġcl one
S ym
NUM BER
Ġex act
Ġb inding
Work er
rel ative
s ender
Desc ribe
bl ue
em bed
$ _
inter pret
cur rency
> &
dir fd
Q UE
Ġs peed
G PIO
el ls
FR AME
") :
dir ty
Or d
Event Handler
ot a
ar row
cs i
SCR IPT
et s
Ġan imation
Ġexp licit
Str ategy
Ġal ias
B I
, {
get String
sum e
Mon itor
Ġr s
component s
sc si
ĠA uth
Tr im
ra ft
rit ical
w rapper
in o
sub scription
p w
p ublish
w alk
Ġv olume
Ġ1 9
Ġad just
P LAY
al an
ĠEn able
s uffix
p reg
t imes
S F
Int Ptr
W ID
Ġ[ ('
z y
A CTION
CON T
sh a
ys ql
pi res
Ġh elper
fa st
ĠPro perty
co ll
Ġk nown
ĠSe arch
/ .
ma j
Output Stream
T ensor
Ġt ermin
p ll
DE LETE
Ġver tex
Ġor ig
link s
c am
pri ce
com ments
c ision
Ġpre vent
Ġprocess ing
G u
ĠC o
ĠInt Ptr
ĠS Y
me an
. ")
Ġcheck s
Ġmod ified
D N
S ig
c pp
Null Exception
normal ize
Ġpart ial
LE VEL
" ];
Rel ation
B lob
Ġ1 8
P adding
m gr
un map
ri end
de on
Ñ ı
Rece ived
ĠEx ample
Ġregist ered
Ġexec ution
Not ify
Map per
f h
For ce
Ġal gorithm
ĠPy thon
âĢ Ķ
Ġt akes
ans wer
MA GE
ĠL ink
fold ing
g it
+ -
Ag greg
ĠD on
ĠS pec
CAC HE
Ġ& $
aj ax
Ġde l
char At
Ġre store
Ex pect
Cal led
y e
Ġb asic
ODE V
6 00
m F
Res olve
br anch
int r
ĠU int
S N
Rad ius
Ġ( ;
assert False
' ll
W V
is Valid
Ser ialize
æĺ ¯
sh adow
ĠM age
ĠAR M
P ending
lap sed
ĠS to
Ġ angle
in v
Ġch o
Ġappro priate
Ġ4 2
IT ION
Ex tract
P ay
ĠForm at
ĠSe lect
He ap
Ġre ject
i sed
D ist
USE D
LO W
Lo aded
p ing
Ġet c
Ġt w
à ®
Ġnum bers
n ic
MOD ULE
o verride
Ġattr s
ĠS ET
D ot
Ġy y
Ġ-------- --
å ľ
Ġde leted
* )(
Z end
re m
code s
C lean
Ġb in
gr ad
åı ĸ
l k
Instance s
Bo ok
Ð ²
Ġqu ote
ĠI ter
Operation Exception
Ġ ĉ
encode d
Ġr b
ĠN V
4 00
la re
vent ory
Br anch
dr ag
å º
Pr imary
o x
t ensor
Ġb ig
Ġi r
Ġr tl
yy yy
M X
Ġn r
ï ¿
Ġignore d
Ġ( -
in cip
Ġit self
Ġ ERROR
Ġto k
S afe
Ġlib rary
Ġarray s
Run ner
(' _
sw ap
> ()
Ġ' :
T LS
col s
Ġm er
ins n
Ġ ON
ĠW ork
over flow
Ref resh
Ġw rapper
Ġoper ations
custom er
Unexpected EOF
un likely
sub stream
igr ation
RO W
fa de
ĠĠĠĠĠĠĠĠĠĠĠĠĠĠĠĠ Ċ
u ous
Ġcommand s
N ullable
mo st
Part s
ĠL T
gener ator
ific ations
Ġfail s
Ġc op
s im
ĠL ine
rel ated
ĠReg Exp
F d
Ġk w
pe ated
P ref
COM PARE
o ct
(( *
z alloc
ill is
w ire
as y
ind ices
Ġ'/ '
t id
Default s
Err UnexpectedEOF
Ġexp lode
on al
r gb
o res
ic ator
rad io
at ient
M aster
Ġm aster
Ch art
Ġt yp
Ġt re
12 7
Ser ies
ĠS ave
Ġ ERR
i ally
Group Name
m g
W M
B AD
Abs olute
Can vas
ĠGener ate
er ialize
Ġinter val
Ġind ices
ĉĉĉĉ ĠĠĠĠĠĠ
b um
ĠP ack
We ight
Ġf uture
7 89
Ġde s
Per form
Ġauth or
gener ic
ĉĉ ĠĠĠĠĠ
AN GE
x D
m ultip
ï¿ ½
le v
ub y
B US
set Text
ĠS L
M BB
Rep ly
ag raph
h istory
ĠD ocument
b asic
Ġan not
Ġc v
" ])
down load
A IL
P G
h our
W rit
tool tip
S mall
get Num
In te
L ow
l v
Sh ell
Ġr and
yn th
AT H
w t
x b
lock ed
Print ln
Ġfor ward
FLO AT
ĠP romise
æ ī
Ġtrans fer
Z ip
se ctor
ĠP os
an o
F inal
all en
pro vide
Custom er
ate way
unc ate
VER IFY
O RE
Ġsum mary
Sh adow
Byte Array
pro d
ic ense
can vas
Ġp eer
k a
re ason
ED IT
Comple ted
ST REAM
R B
er ase
End ian
Ġ" {
M argin
File Path
reg ist
Ġd f
Ġp lay
run ning
re verse
Comp iler
en o
m id
or ing
Up load
ä» ¶
am ma
Ġclean up
P ag
Ġex ternal
R G
parent Node
ĠN ow
Allow ed
Ġass um
ĠS ign
is m
EN ODEV
Ġgener ator
P ower
ĠIn d
H older
ref lect
b est
id ing
Ġp ref
Dis able
ĠLoc al
st it
dec imal
S cheme
a ise
Y ou
ĠCont ent
A IN
act ivity
Mem bers
v r
E ast
Ġget s
Ġd i
top ic
Un ique
Ġim mediate
process or
Ġgo ogle
Ġlocal e
ĠEd itor
Ġsuccess ful
Ġj o
n x
( ",
9 15
Ġ ord
Ġ KEY
il ation
AP P
car ousel
FR OM
Index Of
SS AGE
Or g
E F
Ġe val
s un
D ll
Type Id
PO INT
ĠM ain
Ġ^ =
if act
ĠU TF
Ġext ends
tag Name
W nd
f it
Ġser ies
Is True
p resent
"> <
AAAAAAAA AAAAAAAA
vent ion
Ġcre ating
19 2
Ġn d
Ġs oft
S m
MON TH
Ġp p
Reg ex
ĠAR RAY
Qu ote
char acter
Ġrece ive
m oment
Ġdis k
Ġaut omatic
w ind
s aved
Pa int
Ġ ]);
Sh ift
ra in
') ])
Tab Index
//////////////////////////////// ////////////////////////////////
ĠIN T
L ua
ct r
s With
Se q
F etch
data set
Ġiss ue
L K
IsNullOr Empty
p df
Ch o
Cur ve
Ġre direct
[] )
ĠP age
CE PT
Ġclo sed
cal c
de tails
Ġread ing
é Ģ
ge red
OPT ION
Ġdata set
s cheme
)] ],
ToolStrip MenuItem
ĠN ext
m ul
Ġbit map
\ .
Ġ ul
ĠVer ify
ĠRe ct
ĠG roup
Ġuser name
_ );
Ġd ot
ĉĉĉĉ ĠĠĠĠĠ
Ġe st
ve red
W OR
Ġ} ).
IN PUT
ĠĠĠ Ċ
Vis ibility
SUPP ORT
Ġto uch
eric ht
Ġex tern
J l
Ġh it
mu x
o pe
gr p
____ ____
RE S
/ ",
06 27
} ).
quival ent
rie f
MA N
Ã ¡
co ur
Ġpar sing
M ore
m v
Ġcon v
h ome
l igh
ĠO R
ces ses
FUN C
b ank
le ms
ĠU INT
ĠA b
as ing
ĠF rame
Wh ite
âĢĶ âĢĶ
00000000000000000000000000000000000000000000000000000000000000000000000000000000000000000000000000000000000000000000000000000000 00000000000000000000000000000000000000000000000000000000000000000000000000000000000000000000000000000000000000000000000000000000
å ½
Co ord
ĠM T
Ġrep ly
ORD ER
bind ing
Equal To
Ind ices
Re ason
Ġ3 1
Get String
pop over
/* !
F G
Ġread y
Ġcal culate
ĠI Enumerable
. %
u f
urn al
ĠM odule
Ġmem cpy
la red
Ġt urn
istr i
Ġ Entity
w g
Ġpart ition
dest ination
Ġs amples
Down load
Ġgroup s
FI LTER
ĠB IT
Ġclass Name
m ay
Ġl in
ĠM in
SC II
Comp ute
. )
ç ½
ig gered
su ite
Unm arshaller
Ġ ic
UP DATE
Ġc ar
ĠG lobal
iff ies
de p
pos ite
Ġca use
Ġ2 3
ser ies
Ġre mo
AR CH
am age
ĠAn y
ĠP h
to lower
L i
D X
ll vm
co res
List eners
T ip
P ress
") {
an imation
( `
C apture
OL D
c apture
v g
RET URN
Run ning
ab ort
H ello
10 1
string ify
V S
ĠApp lication
æį ®
Ġrece iver
Fe ed
arch ive
Ġcheck ed
BIT S
ĠB ig
å ¯
TIME OUT
Ġwe ight
b undle
tr fs
ĠĠĠĠĠĠĠĠĠĠĠĠĠĠĠĠĠĠĠĠĠĠĠĠĠĠĠĠĠĠĠĠ ĠĠĠĠĠĠĠĠĠĠ
Ġ" (
Ġac cording
Ġallow s
service s
C lause
al ing
Ġ~ (
Us ers
T alk
Ġs uffix
Ġl arge
ad just
source s
ĠN e
add EventListener
[ _
ĠC ustom
F lush
ĠM AC
P ur
Ġvis ible
Ġt ick
Ġover flow
Per cent
Ġabs olute
Al gorithm
ä¸ Ģ
Ġd x
Com mit
ĠA ST
d ummy
Init ial
PR OM
g uid
[ [
ĠL ong
Ġa udio
de coder
Ġcomponent s
Ġrepresent ing
} {
C ss
ĠT X
ba z
For ward
Ġn orm
Ġwrit ing
if ace
T M
value Of
ampl er
EN TRY
id ual
AR M
Ġf l
Part ial
ĠS ND
Ġn ested
Ġ" </
er ived
miss ing
in ator
Rot ation
g em
gener ated
ain ed
Basic Block
AN Y
Ġd s
S chedule
p ref
CUR RE
I o
P in
Ġin vok
ĉĉĉĉĉ Ġ
a cl
HAND LE
id entity
0000 000
) ");
> ");
Ġpr imary
Ġar ound
Ġc rypto
ĠC R
Ġgener ic
ĠC entral
up dated
T im
ct ure
d ll
Ġcol l
Ġnum py
aj or
' d
Load ing
P atch
ĠLL VM
======== ====
IO Type
'] [$
Ke ep
Ġpro c
ak ing
Ġse curity
Ġany thing
Ġ? ?
wh ite
Ġm ultip
M g
b and
B S
i q
Test Method
get Class
valid ator
ĠB asic
IN ST
Ġsu ite
ro s
ĠD raw
ĠR ed
SE P
Ġdec imal
H z
b io
/ '
ĠH as
h ave
de tail
IN TE
ĠV M
WA IT
w i
66 7
ĠV ersion
Ġph y
device s
NE W
ĠM VT
us r
d isp
Ġf ilters
io v
Ġ' &
v cpu
l an
C ID
Ġw alk
k m
valid ation
æĸ ĩ
Ġs size
x fer
Ġi b
Ġinstance s
Ġd ue
ĠF ilter
(' -
vis it
Br ush
x fs
Ġl im
R etry
lem ented
M utex
j b
th reshold
å į
ĠD ictionary
SizeIn GB
LE MENT
//------------------------------------------------------------------------ -----
- %
ab ly
per m
mo us
conn ector
B AB
Ġframe s
semb ler
anch or
NO WN
Inst all
; )
ens ity
Ġz one
Ġhandle d
ĠH ex
fail ure
get Node
Enumer ator
P ane
Ġ[] *
um bn
eff icient
str ong
Cal endar
F ACE
ĠMem ory
Key word
cre ase
Ġchannel s
Ġrel ated
starts with
L F
Ġcom ments
ĠIn sert
ins ic
Ġsc alar
Ġarch ive
fin ity
ON T
min or
T MP
ĠG UI
IL D
erru pts
Task s
ĠAl loc
Ġmin imum
t ers
q r
op code
B P
ĠEx p
Access or
ony mous
CT OR
S im
M any
8 00
Ġmod ify
ĠG raph
reg istry
ity Engine
ic ally
og raph
frame work
T mp
AA A
Ġcon struct
H ub
Ġfe atures
Ġm et
Ġcom m
sm all
Ġre c
Ġp sz
R ound
s ensor
an ization
le e
10 24
E IO
m ine
Pop up
Ġalloc ated
serv able
ĠS ymbol
Table s
B N
dig est
Ġ qual
il ar
SE SSION
G IN
sc alar
Error Code
ĠRe cord
Ã ©
=" '
Ġ' .$
type param
Ð º
ol ine
work er
T wo
reg map
inher its
LE FT
l ator
To Array
av es
Ġkey word
ĠA CE
Ġ ctrl
Ġv f
C LO
aaaaaaaa aaaaaaaa
vid ers
u k
ĠP ost
lib rary
D WORD
Ġa gg
at ter
L ex
E MP
Ġv a
ach able
ĠR ange
Match es
c id
H orizontal
Part icle
L M
Ch anges
maj or
line ar
Ġ! $
(" {
Ġde ep
o i
n def
R out
Ġcon verted
Ġc nt
Ġcan vas
The me
Ġdest roy
d if
C lock
u zz
Q k
Ġp ol
Ġwire Type
Ġh idden
Ġp rom
x A
Ġc ancellationToken
ul se
for ward
Ġex port
UN IT
reser ved
N l
__ )
Ġp lot
T W
h ip
Dest ination
Ġt p
Read Only
Ġm achine
l ambda
Ġr ing
Ġ_ .
Ex ample
ct ype
Ġfact or
AUT H
Data Type
ĠT YPE
J y
Ġab ort
ĠA L
E q
PC I
Ġ$ ('#
j query
ME SSAGE
tool s
AUT O
a X
ic ast
S core
", {
incip al
g reen
Fold Mode
K ernel
Ġ2 2
I ss
Ġs pan
Ġ ----------------------------------------------------------------
Ġb lob
With out
ĠDe epCopy
CRE ATE
S ender
(" $
bo unds
agent o
Ġ= ================
Ġsupp lied
target s
06 2
Part ition
j avascript
ĠBu ilder
| "
p od
Def ined
prom ise
or ph
\\ \\
[: ,
per cent
ad ded
Ġass ume
Th an
Ġd y
b rief
Pre pare
LI MIT
An aly
V ICE
M ult
ĠL O
Util ity
Ñ Į
Request s
amp oline
: ",
I FI
M ultiple
\": \"
å °
spec ific
J s
, _
Th rows
Pr imitive
So uth
ĠComp ute
Conf lict
ĠS P
2 000
Ġo mp
Z IP
AR Y
(' %
ä ¿
Ġchar set
lement ation
ar b
å Ĩ
Ġv p
Ġc lip
SO CK
Ġph ys
alloc ate
Ġcomple ted
EN CE
Ġsuccess fully
H D
Imp lemented
Ġoper and
qu ant
Ġim ple
Se g
Ġ æ
Ġaut orest
ml ink
part ition
er ms
AME TER
ID s
Ġ! !
ynchron ous
b log
F ake
sq rt
Ġpri ority
ant s
er Name
é ĩ
Ġ* ,
in ate
to Be
ser ted
P LL
C LE
act or
im ize
ar ing
Ġver bose
Ġgo og
Color s
_ ->
Ġnet dev
Ġpre pare
Ġ[ {
ut ation
Ġb p
LI B
get C
W ire
Ġs core
Out dent
Ġo ps
A zure
H andlers
r ank
V ol
Ġm b
Ġd iag
ĠD ec
ĠM on
Un icode
(? =
Ġp d
D W
Ġstd out
Ġh andling
Ġc e
fo ot
table s
å ĩ
OK EN
g i
Ġle g
Dis abled
r ss
N ested
P t
Ġs ym
ĠC O
un icode
local host
Ġimple mented
( .
o sed
Tool s
ĠE C
Ġg reater
Comple x
deep Equal
D ump
ap er
vi e
Ġwork s
11 11
o th
Ġf inish
st or
Ġcom mit
mon itor
Ġ8 0
ĠIllegal ArgumentException
EE K
Ġbuff ers
E A
ĠO ffset
D at
pl us
la zz
writ ten
inte l
> )
Ġa cpi
Ġat tempt
Ġl arg
Ġinit ialized
AL IGN
un ion
ĠHe ader
Ġd a
ĠP TR
ĠE qual
d iag
(' [
Ġm lx
N ORM
sc ene
Ġp kg
" %
Ġres pon
Ġsub ject
pa red
ph one
ĠG ame
v irt
ĠDe f
Ent ities
ce pted
s ip
re po
uc er
Th reshold
Ġset Timeout
S em
á ŀ
P IN
ĠT ag
m n
f A
Ġhard ware
P ages
U F
Ġgo od
x p
con struct
ĠIn struction
T ON
() ]
? \
Ġs chedule
B F
io us
al g
Ext ended
extension s
mo re
bo ost
Transition End
ĠN ET
ĠDe vice
D V
py thon
Ø ±
Ġprob lem
ĠDE FAULT
if s
DE SC
arch y
TE MP
ce pts
QU I
PR I
G P
Ġbe havior
Ġm t
xff ff
command s
ĠS O
? .
W ER
ĠTh row
Ġact ivity
ĠC l
ï¿½ ï¿½
ak en
H it
Ġm ade
Ġsq lite
Coll ision
Y P
variable s
ak er
Ġem bed
aff ix
Out Of
Ġun icode
Ġstr conv
Ġf ast
Ġaction s
ä¸ į
ç½ ®
F ilters
R UN
M ULT
) ((
or dered
Ġ' +
at ibility
Ġe ar
" };
og ram
view s
struct ure
Depend ency
Ġn b
ag ation
AC H
IS D
ĠEn sure
WID TH
mo b
get Context
Ġstr ip
RE C
ĠPHP Unit
A ctor
F MT
OUT PUT
Que st
Ġpair s
DI V
ent ion
RE SOURCE
Ġdevice s
re marks
N EXT
iom em
T ODO
Ġd c
i eee
Ġu id
sh ader
ĠSo uth
color s
Ġ{ $
ĠSk ip
= _
ST OP
N AL
mod ified
CONNE CT
c dev
ffff ff
N ON
Match er
Ġfe ed
Component s
S te
R ATE
pro g
res ume
Ġrout ine
V V
(/ ^
Ġmark er
Ġ' *
Ġsup ports
NotFound Exception
em u
ĠCom ponent
ĠI E
Ðµ Ð½
ĠCom mon
de cor
(' :
Record s
up ted
a ssoci
Ġupdate s
ang ing
u ages
st e
is o
m ime
Sub scription
Ġch an
Me asure
cm V
us ic
ug gest
. ')
on om
Ġf all
ĠQ COMPARE
Un its
C nt
v or
ĠS I
po sed
Ġ*) &
sm arty
Sup press
Ġcorrect ly
k b
__ .
Ġ0 0
Ġm ult
O ps
DI RECT
sp lice
IT EM
Ġdown load
n el
ON LY
R atio
Ġwe ights
PE G
get Key
Ġ5 00
FORMAT S
~~ ~~
) }}
C NT
Ġcomp iler
AT ED
c rc
Al ert
Com parison
åŃ Ĺ
d h
f m
Ġ2 1
t ol
Ġp anel
Le g
Ġfile Name
Clo sed
u Z
Con sumer
getElement ById
scri ber
Ù Ħ
LOC AL
W F
/ ',
Is Valid
Up dated
attach ment
AR GET
Ġpart ic
Be havior
Ch an
abs olute
list en
e valuate
Ġp m
< >();
comp os
U C
ĠA MD
il la
' >
m ust
ĠO K
at ar
ĉĉĉĉĉ ĠĠĠ
COM MAND
Ġm x
ä¸ º
CA SE
&& !
if ndef
BO OL
at ie
TEXT URE
se parator
iv ot
Ġexp and
ĠIn st
' ve
ward s
ĠP ers
Ġc r
æķ° æį®
CON F
Ġconnect ed
cogn ized
20 12
Variable s
Ġ2 8
At t
Ġtarget s
Call ing
Ġap pear
Cl one
ex ternal
condition s
: ])
Config ure
St ub
Ġdesc ribe
Vis itor
' "
TRAN S
Ġf ragment
ph ase
PRE FIX
r sp
g ICAg
ust ers
k ill
UT TON
Ġpar allel
cs v
comp ressed
Ġcomp ile
Ġchar s
er ial
H Z
Cont ain
get Property
AT URE
G PU
() },
Ġtest ing
ĠA nd
a ux
Ġc apture
Ġd en
Ġsc pexpr
re ject
Ġ ath
DIS ABLE
cur l
alan cer
Ġdes ired
SE C
ĠCon nection
e at
g Size
Ġle ading
SI G
ĠC ount
State s
ĠSt ack
Ġs f
q s
C redentials
SC A
dr m
Ġd ummy
re vision
as ci
L a
Ġp ur
leg acy
v Z
Ġf c
ĠI B
Oper ations
ĠConfig uration
P o
Ġre ally
(" _
Ġf ake
ĠDo uble
G r
P ub
un re
Ġre verse
Ġs in
iss ue
ren derer
Ġreg ular
h z
an te
on s
ĉĉĉĉĉ ĠĠ
ss id
t cbiAg
i ance
post s
Ġmodule s
Ġbo ot
state ment
Ġimp lode
Ġd ispatch
Track er
ĠR et
M R
h andlers
Ġbl k
E W
Constraint s
K it
ls o
ra sh
ĠS top
i um
str n
Ġtable s
tr ampoline
ĠF loat
buff ers
Trans lation
../ ../
ĠS SL
h cd
ine ss
it ter
] }
ĠĠĠĠĠĠĠĠĠĠĠĠĠĠĠĠĠĠĠĠĠĠĠĠĠĠĠĠĠĠĠĠ ĠĠĠĠĠĠĠĠĠĠĠĠ
Ġlong er
ate st
Stack Trace
ĠSto re
UNK NOWN
ro om
ĠEx it
æ Ŀ
Ġin crement
Data Source
date picker
ing er
Ġsynchron ized
M ultip
ĠW P
ip v
QU F
ist ogram
Ġinstruction s
ret ry
_ [
umbn ail
Ġinit ialization
un pack
Ġ' .'
ĠDesc ription
Ġc ss
get Time
s lave
ACT IVE
@@@@ @@@@
Ġpro cessed
m agic
ud c
Ġinst alled
RE L
is ode
Hash Code
æ ŀ
ĠD I
clo sed
Ġrad ius
ĠR ender
ĠR X
An alysis
A m
Ġbo ost
ap s
C atalog
Diagnost ics
S ent
UT C
Ob server
Ġi x
un set
(" +
parse Int
is a
l r
\", \"
E p
Com bine
SR C
Ġv e
lim iter
g lyph
Ġuse ful
Ġse parator
Ġbu g
ĠDE F
Content Type
, &
Ġs urface
Ġh alf
Pre vious
00 01
state s
ar ia
cal culate
co st
AC CESS
En c
Ġl iteral
ĠCal culate
Pro totype
nb sp
u art
ĠD est
Ġb undle
Model s
Ġad min
Ġh dr
dig it
asm ine
velo per
am az
Ġversion s
ĠD es
ĠL en
ĠA lso
thread s
MP LE
ient ation
Permission s
N db
ĠSet up
[^ \
ĠM ust
ĠS yntax
v if
C LI
function s
check box
/ "
T V
Red irect
co vers
Ġw on
Ġs vn
valu ation
HE D
Ġret rieve
ĠC lo
pro t
av ail
ĠP op
back end
mem bers
cal led
ata ble
Ġg lyph
min Int
he ap
s vc
Mod ifier
Z oom
[ ],
Ġf w
Public Key
max Frac
R IGHT
pos Pre
min Frac
Ref lection
K nown
ĠT w
Ù Ĩ
n amed
lg Size
pos Suf
neg Pre
neg Suf
Attach ment
MEM ORY
/ ^
et ype
q t
crypt o
Ġc y
Ġ/ =
b w
ĠPl ugin
ampl ing
int f
able s
x E
åĲ į
web kit
? )
c amera
ĠI EEE
ation al
Exp and
Ġf it
Match ing
N A
Ġc f
H ours
ĠPro ject
an ted
cour se
Ġi pv
Pre view
Ġc out
Ġal t
Im ages
f name
un ce
X F
Cap acity
ri ent
Ġx xx
close st
PA SS
ĠJava Script
ĠAC PI
mat erial
E scape
should Receive
ĠUn known
x attr
CT X
123456 789
Ġn l
TH READ
return Value
Ġid s
Ġlo ader
Ġmem set
Ġd ays
ĠA ccess
A u
PI PE
ĠM ark
exist ing
Ġc ycle
ĠParam eter
Ġsend ing
ĠT ree
ĠS mall
U sing
ac pi
ag ing
regex p
T D
Type Name
ĠT I
è İ
init ialized
Top ic
Fe atures
Ġvis it
e g
C ost
Ġexec uted
U CT
obj Writer
Ġreturn ing
25 0
M G
po ch
F ac
o ch
Des ign
As m
ĠEx ecute
mo v
Te am
> ().
bb le
Ġth reshold
b ined
Int ent
P ad
h over
M ust
Create s
IG H
Ġautomatic ally
ur ity
Ġe q
D ays
M U
' m
TH ER
asci i
Ġload ing
S pell
Z S
le af
sh utdown
Ġst arted
Ġp an
Ġm iddle
Debug ger
Ġlist s
inner HTML
C Q
v endor
ri ev
amaz on
Ġs at
ĠE mit
st roke
Ġ2 01
Ġ*) (
G lyph
ĠC ache
m achine
ced ure
s To
Ġ' ');
rtl priv
h int
Ġnot ification
b ridge
s il
Man agement
S ink
id le
Ġdomain Object
Ġ -------
Ġh ide
ĠG PIO
ab stract
put s
SE D
Rect angle
à ¦
] |
Sup er
h old
ĠNOT E
Ġre gs
k l
Comp ile
IE W
Ġser ial
Ġtrans port
ext ent
M illis
pl ural
J an
ca iro
; ',
unt u
Ġthrow n
)) ))
RO OT
Ġp ix
ik i
i ence
Ġf old
Instance Of
ĠF ree
el ine
t ls
s yscall
ĠH W
C entral
h Y
Ġoutput s
file path
ĠMo ve
iz ing
ĠDe code
if etime
Un ix
Ġcomple x
å® ļ
Check s
ig he
èİ ·
w ifi
ch k
* >
+ ")
vl an
map per
ir ation
Ġp ick
will Return
g ether
un expected
Tag Name
Reg Exp
S amples
Ġ@ "
Var s
Ġtemp orary
D i
eter mine
De cor
ĠC S
ĠM atrix
pay ment
Ġout er
d ap
I llegal
R A
Ġc redentials
St arted
Combo Box
W ITH
Ġen c
Ġup load
V IS
Ġin voke
Ġwork er
r atio
Ġs cheme
Ġcheck ing
2 02
up al
g K
Ġin cluding
Ġreference s
Pers on
sub dev
ĠCom ple
ALL OC
ĠST AT
le ave
H ide
U K
Ġconfig ure
Ġat t
h al
de precated
T w
Ġ__ (
Command s
In variant
Ġwh ose
Ġgoogle api
col lect
ĠC SS
ĠB ack
fd s
M AL
n V
Ð ¼
Ġ' @
Struct ure
st ub
Ġt m
Ġc amera
z oom
T T
Ġch art
ro pped
Ġt d
ĠA uto
Ġmem bers
cal endar
A ssoci
ab ric
box es
Ġ utf
F ront
Ġd rag
b fa
in i
Auth entication
model s
Spec ial
ug ht
ĠCol umn
Sh own
Dispatch er
ĠThe se
ex e
Ġl at
set Timeout
Back end
ĠArgument NullException
V C
Ġc mp
Ġf b
uff le
dddddddddddddddddddddddddddddddddddddddddddddddddddddddddddddddddddddddddddddddddddddddddddddddddddddddddddddddddddddddddddddddddddddddddddddddddddddddddddddddddddddddddddddddddddddddddddddddddddddddddddddddddddddddddddddddddddddddddddddddddddddddddddddddd dddddddddddddddddddddddddddddddddddddddddddddddddddddddddddddddddddddddddddddddddddddddddddddddddddddddddddddddddddddddddddddddddddddddddddddddddddddddddddddddddddddddddddddddddddddddddddddddddddddddddddddddddddddddddddddddddddddddddddddddddddddddddddddddd
ue ss
ĠA WS
D isp
d ash
comp lex
ADD RESS
get Default
Ġbegin ning
window s
BO X
Print er
Ġi i
" ',
m any
Comple tion
map s
Ġpixel s
L V
Ġreg istry
io ctl
ĠCont rol
ur ope
T OKEN
PAR ATOR
IE S
i et
Ad ded
å ¾
$ (
B and
GU ID
X P
Ġm ail
Re gs
g ain
WOR K
ä¸ ª
tr insic
IS C
ĠV ER
I MAGE
Ġc os
sv g
func s
D em
Ġlog in
Ġthread s
Ġd m
Sh are
CON TEXT
FI RST
bu iltin
) &
step s
" )),
E FAULT
Ġoc fs
Ġcal cul
m q
Frame s
t z
op acity
x FE
S ibling
tem pts
O c
Ġd l
` )
Ġ( __
get Int
ct p
Module s
f ragment
Ġp g
da i
an a
Ġnot ify
FI FO
Ġp i
Ġop code
Ġpre cision
Ġd im
D AG
Ġ Entry
ĠSh ow
cre te
Ġc li
f un
Ġh int
ĉĉĉĉ ĉĉĉĉĉĉ
Ġv s
Con d
M arshaller
- .
al ed
Full Name
im ag
Ġ enter
GLOBAL S
ĠEvent Args
pret er
output s
h icle
Qu ick
U A
Ġtrans late
ENT ER
Ġwait ing
ĠPoint er
pa city
anit ize
st ar
Ġr ank
Ġf lat
Ġs i
Ġlink s
ĠS up
ĠĠĠĠĠĠĠĠĠĠĠĠĠĠĠĠĠĠĠĠĠĠĠĠĠĠĠĠĠĠĠĠ ĠĠĠĠĠĠĠĠĠĠĠĠĠ
lic a
ex panded
Ġgp io
Ġpos itive
Ġent ire
R R
Ignore Case
B G
Ġan im
Ġbet ter
Ġadd resses
un ded
Ġf ocus
ĠH H
Ġdesc ri
un used
sh are
== ="
e ch
Info s
A SS
To k
Ġe c
pre view
PO WER
P D
ĠS IGN
N U
ID X
ĠS H
Ġparse Int
V y
ĠF rom
Ġco ordinates
PC M
Ġh andlers
) '
ug e
AB A
R x
ict ure
g z
m ultiple
Publish ed
? :
ar f
List View
å Ģ
Ġm argin
Ġin cluded
ĠS p
config ure
W U
Ġproper ly
scri ptions
Ġtype def
comm ended
æľ ī
P AD
Se p
] ',
ĠF unc
n able
ĠRuntime Exception
S PI
dir s
M agento
Ġ utils
host name
In crement
a ssoc
Ġt ol
O VER
Ġt y
L X
, %
L ive
Ġ" \"
CS R
[ %
ĠUn icode
Ġs ucce
Ġal ong
W T
ca ption
flat ten
v ma
(" ",
Ġch r
Ġte am
Ġoccur red
1 0000
ĠC lean
ĠM ode
Ġsc ene
Author ization
à¤ ¾
')) .
ĠU ri
Ġmon itor
IST ER
it o
Ġgo ing
CON ST
99 9
Ġlog ic
so ap
20 16
Ġlo ss
str iction
ĠA mazon
and sh
Ġnormal ize
l ated
L AB
and roid
ĠHex agon
F ast
Ġimmediate ly
m es
MO VE
sl ug
Ġ ))
Ġ ub
AT T
PAR AMETER
ĠĠĠĠĠĠĠĠĠĠĠĠĠĠĠĠĠĠĠĠĠĠĠĠĠĠĠĠĠĠĠĠ ĠĠĠĠĠĠĠĠĠĠĠĠĠĠĠĠĠĠĠ
Ġf inished
Ġk zalloc
d entry
Ġ ].
De ad
'=> '
Ġsn apshot
ob ile
Reg ist
F uture
ust ed
n ested
Dis card
Q g
Ġstd err
tr ait
ĠS ession
AT OM
Ġset Up
PAT TER
P lain
ĠH ow
cip ient
Over lay
ĠD AG
n dev
strict Equal
de g
::$ _
Ġs pi
Ù ħ
æ İ
Un der
p ic
align ed
not ification
ĠPro to
H ave
To List
vance d
")) );
D ock
red uce
in y
Connect ed
ĠR aise
Is NotNull
H AL
Ġtask s
B in
Ġstart s
name of
Un iform
ç Ľ
ĠC L
do jo
Dll Import
Attribute Value
Ġevery thing
é Ļ
sec ure
ĠP HY
ĠSD L
} ");
Ġt ty
Ġoc curs
enum er
ex cept
l bl
et ween
p Z
ĠD WORD
æĹ ¶
Ġde ad
Ġt ail
ATTR IB
Ġsh ell
XX X
in crement
M er
n es
sub scribe
Ġf ac
Mod al
C at
Ġs leep
Button s
Vis it
cept or
Ġmay be
æľ Ī
S oft
X C
To Int
ĠW hether
proto buf
U i
fa c
a head
33 3
ĠL abel
LA SH
r sa
ĠEn v
8 000
a con
Pro b
Ġ[ %
a dev
in struction
an im
ĠB inary
velo pe
pos ing
Ġadd s
ICAgICAg ICAgICAg
Ġ[ ])
Ġper cent
e ast
H idden
IO Exception
rc u
ad ap
St age
Sl ider
Cal culation
Com pact
Q P
n ed
Ġ END
Com ments
OT HER
ligh ter
pc a
d en
Poly gon
Ġspace s
Ġapp lied
Ġf i
bas ename
Ġv ery
Ġrel ation
sup p
Un ityEngine
IDE O
n f
Ġde tect
å Į
Ġo map
Ġservice s
Ph ase
W P
Ġal location
Number Of
F ire
i ation
Ġde legate
Ù Ĭ
Ġm aterial
Ġse m
EDIT OR
Ġ2 6
de tach
A mazon
C U
get Content
OP Y
ĠM D
Ġwh ole
y es
ot g
)( \\
mi um
Com m
m ixed
qu ent
à ´
h ard
X B
am ing
in str
KE T
O rient
BB B
NORM AL
Con version
M ay
h h
Ġref resh
er ance
Ġatom ic
rok er
n op
Ġs ur
P lot
Ġun pack
Ġint errupts
ĠP K
Ġ" *
mb ed
q q
: ],
IS O
Ġ} ));
ong o
Ġo ct
W C
Ġg ive
Warning s
at ype
G D
ER Y
( \\
j k
] -
Ġf rag
Ġr gb
ĠE m
è §
max imum
rot ation
Ġed ges
Ve locity
Ġd istribution
F M
Ġconfig ured
De ployment
X V
EN O
F inished
ĠL ay
P END
Ñ ĭ
as is
Ġsource s
Ġadd ing
IC ATION
Line ar
CHAN NEL
se cs
N L
SE PARATOR
Pl ane
DEFAULT S
RE ST
Arch ive
Ġinte l
User Id
ĠTem plate
B IN
File Info
th rough
sn printf
ĠArgument Error
k v
le ter
ĠB y
pe ek
Ġh istory
Ġ>> =
onom y
()) ->
t age
TIM ER
) };
Ġ& ',
comp letion
Ġs g
': '
I LL
We apon
Ad just
Ġres olved
Ġab le
OB J
key down
quire d
Ġcolor s
ĠOper ation
ĠS ql
Ġf requency
clo sing
as set
ĠE ast
task s
Z SB
Ñ ĩ
èİ· åıĸ
+ \
T CP
T OP
Ġd isp
He alth
M ar
ĠD isplay
Ġpl ane
ut ing
g m
D LL
ĠR o
Ġs yntax
Ġtop ic
Ġnum eric
Ge o
Ġtra iling
Message Window
################ ################
åŃ ĺ
et ic
angle s
Vert ices
Ġf ig
ĠI mm
WIN DO
Ġm akes
zer os
l and
Ġp lt
li ve
ctx t
+ /
ĠRe lease
at ial
ĠĠĠĠĠĠĠĠĠĠĠĠĠĠĠĠĠĠĠĠĠĠĠĠĠĠĠĠĠĠĠĠ ĠĠĠĠĠĠĠĠĠĠĠĠĠĠ
s ch
Ġ ri
ĠS rc
EN V
Ġan chor
im ent
D irty
MA IN
ĠRe act
Ġc url
ĠS TR
mm c
um es
ĠCh ange
Ġd p
EX IT
ĠS ince
ĠRe place
AN K
' },
Ġalign ment
Ġformat ted
W H
LL VM
Ġwh itespace
i cted
opt Params
ĠT ABLE
O V
æ Ķ
Ġth ings
on gs
p ur
ĠR FC
b lack
Ġtest Get
åľ ¨
om ial
m apped
è¡ ¨
ĠE ach
Ġc ertificate
Ġre pository
ENABLE D
Ġindic ating
h ot
m irror
Ġper f
Ġp od
à¤ °
Pipe line
re maining
vert ices
s ound
is Default
ild card
we ights
C mp
Ġr r
mo z
Qu ant
y b
st age
ä ¼
Link s
Ġo bt
W L
to Array
ĠM A
dis c
co untry
Ġde coder
sh ell
O IN
out b
Ġph ase
l iteral
Dig est
] ])
() +
ul ong
P rom
ĠA D
Ġcode c
ad r
Ġres erved
if e
Ġ*/ \
PR OC
Ñģ ÑĤ
f lex
pa int
ex clude
net if
read l
Ġextension s
Ġkw args
06 31
ãģ ®
lib c
h id
Ġser ialized
ap ache
Ġfile path
W allet
To ggle
Se ek
PI X
EX P
Ġc ost
Ġcomple tion
.* ]]
um an
ĠSet tings
Mon o
D Y
ra b
Ġf req
Annot ations
Write String
log ical
QUE UE
ĠEx pr
F ULL
Ġev t
Pers istent
A UD
as ses
Ġ/ ^
Callback s
ed ges
Ġm alloc
ĠD ATA
-------------------------------- ------------------------
[ \\
Ð ´
en crypt
z c
Ġbound ary
ĠO ne
qu ot
Ġ5 12
Ġext end
Ġm id
') ],
HA SH
Ġm ount
ĠCh r
Ġagg reg
Ġf ire
ĠT ool
s x
AC PI
define Property
< >
ret ty
) &&
V k
Ġstate s
Text Box
ur able
Ġid entity
man ual
ap sed
W O
1 10
Ġs il
el f
e a
un link
N orth
Ġm k
(' --
} :
c atalog
ĠB utton
form ed
) ];
Ġbl ank
Ġm uch
(" :
D iag
in ject
Man ifest
wh itespace
Ord inal
ä¸ Ń
p wr
Ġf lash
Ġm etric
Ġpartic ular
ver ity
Ġa st
ighe st
å ī
Ġb trfs
sp rite
es is
P F
Ġm apped
Sock len
In f
St ar
url s
J oint
V oid
ĠN ull
Ġ ut
Ġ2 7
over lay
/ \
ĠRe ference
ĠIn stance
T ermin
ame l
sn apshot
ĠS PI
f id
format s
M ount
Ġde cor
Con s
ĠLog ger
Or Default
get S
back up
ar ante
)/ ,
Ġp ast
Ret rieve
ff ic
æĪ Ĳ
Ġre po
Ġsepar ate
é ¡
("../ ../
IN TR
andsh ake
Log ic
record s
m etric
m icrosoft
ĠN UM
=" "
Res ize
Ġ\ '
ĠE V
UM ENT
IC K
c ategories
Ġe quivalent
Ġ" &
S Q
Ġst mt
Ġ& (
Table Name
c info
ĠEx ec
Ser ialization
ge ometry
EN U
Ġ' ?
) \\
M ime
D a
TE X
Ġsw ap
åĽ ŀ
t ures
url Params
default Token
Ġb tn
Ġprevious ly
'] :
offset s
Ġcont act
form er
an aly
cel er
ffect ed
Attr s
FLO W
B ag
Ġto ggle
ĠM icrosoft
") },
Vert ical
get Item
ro tt
ĠD L
er os
ER TY
imp ly
Ġindic ates
Ġt or
cs r
Ġen coder
ĠR ule
G ateway
ĠI gnore
ĠL ast
in ted
|| "
ĠDis able
Ġ art
H AS
Ġag ent
ier archy
+- +-
Ġse en
om ap
ch a
Ġ[ $
Un supported
ĠH ost
i ate
Lay ers
oper and
Ġl ight
Ġc lause
As String
Ġsh ader
Prev ented
S Z
a wait
<? >
ĠR el
ĠP art
Ġsign ed
else if
ĠVar iable
Ġle x
re pository
lo ok
get Reg
d q
k control
ĠGet s
C riteria
X J
av g
ME DI
ĠQ ue
C ycle
B ericht
Ġtr iggered
z en
Ġtrain ing
S tri
N avigation
') [
ĠS m
ĠC K
co un
04 30
Ġw a
ĠDesc ribe
ä ¹
H i
Ġm etrics
s lash
f requency
v v
O SI
Ġp ie
Ġm ix
Un defined
ĠClose MessageWindow
S leep
æ Į
Im g
Sign ed
ĠSL OT
log ging
comp atible
Ch at
P N
ĠM IN
Emit ter
Trans late
PT X
Do es
" ===
str pos
Ġreplace ment
Ġout side
Ġc ross
é Ĺ
IC AL
}) },
conf irm
ig en
Un til
und er
Sw ap
ens upport
de tect
Ġstr pos
Pred icate
B ridge
ĠA F
Ġr g
ĠĠĠĠ ĉ
Word s
ĠHash Map
Ġf ront
get Elements
Pre mium
EX EC
~ \
RO G
Ġenumer ate
($ "
olic ies
........ ........
iv ing
base d
Ġ* >(
B J
ĠC P
if rame
T U
null ptr
Ġ'- '
S ur
Project s
st and
Ġde tected
Ġth ree
EMP TY
S END
Ġ tex
Ġdimension s
G M
Prop agation
ch at
Ġun expected
Ġiter ation
Ġun marshal
y d
L im
Ġoffset s
Num eric
Ġc ps
Ġbo ard
ĠDesc riptor
Ġwork ing
ST EM
VO ID
IP S
res olved
è¡ Į
p itch
process ing
d ns
}, "
== '
ĠDe cl
A ut
Max imum
c annot
Des erialize
User name
Fold Widget
wh at
Help ers
ad v
Ġb b
scroll Top
sc r
Ġde precated
status Code
@@@@ @@
g be
one y
R AM
Ġc i
Re store
ĠO UT
0 10
ic ation
Ð ¿
AC KET
On ce
Pl us
ro ken
hw nd
Key board
å¯ ¹
late st
Ġto gether
Ġr hs
Lock ed
ĠCreate s
ĠNet work
re ed
C ached
To o
Ġme asure
} </
Pre ferences
)) ]
) ";
j pg
inherit Doc
l un
Get ter
L ER
Ġline ar
s orted
j i
Ġpro d
Ġun its
dis connect
Ġcre ation
Direct ive
Cre ation
F REE
Ġcopy ing
Ġcom parison
Ġrot ation
f iler
Channel s
lo gs
ud a
ĠM edia
oot er
4 04
Log ging
Ġp w
:% .*]]
Ġon es
z M
Ġ[ -
Ġassign ed
Ġbu ilt
U UID
UB LE
ĠL ua
ip h
Z m
Ġp lain
B tn
O ct
($ .
Col lector
ma inder
M ix
$ ",
REG ISTER
Ġ4 8
Ġcal lable
} ")
month s
ad a
ĠIn ternal
ĠW orld
ĠCont ainer
UR ATION
ĠEx pected
u Y
ost ream
Ġsc si
ĠSc ript
Ġcallback s
m ber
Ġvar iant
Ġback end
Collection s
param ref
gs pca
avig ator
Orient ation
c riteria
z b
ĠR andom
d ims
Array s
SC SI
H IGH
p fn
form s
Ġ( \
V IEW
Ġra deon
ç ¼
Ġin v
est ure
ĠP red
Con vention
Res ume
Ġal ert
=[ ],
st andard
IN ET
xFF FF
m ag
Ġse l
err upted
Co lour
Ġwrite s
Ġh our
Ind icator
ĠLo op
C fg
ĠInd ia
ĠM F
A ML
MA G
R pb
Ġ"/ "
ance led
Ġs r
Ġdetermin istic
Util ities
get FoldWidget
set Property
Pre ference
ser vers
Ġunder lying
Ġ% [
__ _
Ġca iro
} ',
Ġ' :'
gr pc
m etrics
(" ");
Upper Case
"> '
v let
Ġse ctor
Ġdid n
Buff ers
in uation
Ġdat etime
ĠSIGN AL
Ġ' );
h n
BE GIN
ad s
Script Value
($ {
ep och
Ġsec ret
ĠE urope
MA LL
bus y
LE T
rout er
ĠCall ing
tod ay
c ross
n once
Ser ial
Ġpl an
" '
D K
") [
N R
Ġthe me
Ġg c
ĠA zure
user Id
SE CON
ce ed
H C
+ (
Ġle ave
Z l
as d
" ]);
æ ³
and box
ist or
un its
ib ly
F inish
day Names
T B
A Q
rece ive
AS N
V K
s uspend
mo oth
â Ķ
Ġh ad
Ġ4 00
handle d
12 0
ĠArg uments
INTE GER
Ġattach ed
UN USED
Call s
Ġvert ices
Ġst uff
Ġdocument ation
co ord
rc v
place holder
rot ate
ĠF ix
Ġhandle s
Ġf allback
ĠP r
ĠO ptions
") }
Data set
P OL
pol ation
RE QUI
ant ic
Ġdo ing
Ġdig its
Ġget ting
"} ],
A cc
Ġper missions
Tool bar
15 0
Ġcop ied
Ġp kt
d og
', $
View Model
Ġper m
Ġde vm
depend ent
Ġre cv
ĠQue ue
Operand s
M ul
H dr
UM N
Ġdepend ency
\" \
du ced
Clo sing
h it
Ġser ialize
Ġx fs
in ct
ĠApp end
M OT
æĸĩ ä»¶
TR A
C WE
064 5
button s
pu ted
RE SP
16 0
n m
T ARGET
vi a
Ġp k
Ġm c
G S
L B
entic ate
A bb
format ter
IN F
ĠI L
r um
ĠImp ort
è ¾
Global s
Re vision
are st
Z a
064 8
Ġcur ve
seg ments
/ (
W D
raise s
() ){
Ġt cp
mt d
Ġclo sing
la x
] '
project s
d get
St roke
PROP ERTY
sv n
Ġper mission
ren ame
L m
h dev
H ome
ĠF e
ar i
Ġ_ ("
Ġm v
Ġimplement s
d v
C XX
pa ign
Is Premium
Publish erName
x B
em s
ĠB B
ĠD irectory
Pay ment
front end
LAB EL
M V
b ulk
s pe
Ġext ent
count s
H Q
SY M
Sock addr
g ui
St amp
ig uous
Ù Ī
Ġp ublish
fin ite
ĠChr Talk
C String
f lip
() -
Request ed
Err Code
_ %
Ex act
Last Error
O LE
k p
l int
INIT ION
Ġh y
è ½
Res olution
ĠSD Value
Ġp ag
c wd
list s
tab s
T ax
ĠG e
Ġt b
E OL
her it
N av
Ġsymbol s
Ġpoint ers
Ġmodel s
en ant
ush ort
slot s
env iron
mb us
A ge
Mod ify
g Y
Ġsock addr
Ġc info
Al t
read able
str al
G radient
] "
ge o
Ġpa int
{ \
abc def
our se
Ch r
CLI ENT
Ġfile Descriptor
wp db
Ġst ub
ĠA DD
tod o
Ġcol lect
M LE
F eb
P e
m ysql
un shift
B racket
op le
po ssible
get Path
isDefault Prevented
z h
re vi
ĠAlloc ate
enc il
Ġb el
re at
Ġread l
az y
W I
ĠCh annel
go ing
ĠAl low
E LEMENT
Ġin f
DE P
text area
âĢ ¦
CONT ENT
r ink
ĠP M
ĠB inding
mo ves
Ġ"- ",
riev es
F s
Ġsp rite
pi e
Assign ment
ĠAb stract
FFFF FF
ret ch
y l
Ġwh ite
Ġstep s
K T
Ġw rapped
resh ape
Culture Info
P atient
Ġst age
vert ical
De ep
p ull
C ross
l w
fix ture
f v
Ver bose
ĠL P
Ġ urb
ĠL E
* ,
is k
ĠT ensor
Ġauth entication
iagnost ic
Ġd AtA
D if
S py
H M
Lat in
ĠP ort
IO C
d ating
Ġsh adow
Ġh i
Ġb and
ĠP ut
regist ered
Ġbo ok
ur ther
Ġf f
per f
dis miss
Ġ angular
Ġinclude s
] ];
GUI Layout
un e
09 6
el if
ĠS M
xu ICAg
P ol
Ġro om
Con struct
Sub mit
Back up
we ak
M illiseconds
11 1
CA ST
Ġresult ing
qu oted
Ġm i
ir y
ater n
ĠV K
mm io
Ġ Enum
Ġcom put
J ul
ĠD et
p te
ĠS ome
ĠD ispose
Ġco ordinate
u ck
un iform
ĠM an
B AR
s ur
n an
ren gth
Ġo l
' }
Mac ro
:" \
J ap
Ġs imply
ĠW ord
de legate
Ġ Info
D ONE
M et
è ¦
soft c
K V
ĠEnv ironment
Z V
Ġprob ably
Ġconstant s
Ġexplicit ly
Ġ? >
SER VICE
v dev
Ġm ismatch
CHAN GE
boot strap
rie ved
Icon Uri
ĠSet s
C aching
Ġdepend encies
In vok
BYTE S
B M
ĠP AR
Reg istration
Invalid ArgumentException
ĠT race
Ġread only
w heel
Ł ¥
ir c
ĠC URL
ad j
m box
Ġc ipher
ĠU Int
ĠIP v
ss h
l st
Q W
Ġcheck sum
æ ģ
De leted
Ne gative
o auth
and Return
ĠWeb Inspector
ĠC M
Inline Data
tr ip
h alf
has Next
Min utes
åħ ¥
andid ates
Ġqu ant
i A
il ine
ĠS chema
vis itor
ĠAs ia
ĠS tep
Y PT
AB C
Ġre vision
ĠPro perties
ĠIS D
co in
Sub string
template s
allen ge
ZX J
b x
Re act
c art
ann ed
GB E
Ġcondition s
em y
L IT
bu ted
instance s
_ '
Lo ok
Ġi de
Ph one
ĠM OD
Key Value
D H
L arge
get Object
is Shown
Com puted
M iddle
style s
is Null
SU M
)? )|
. <
Ġcomp uted
um ps
[] {
d rive
*) &
ĠApp ly
Ġr ather
Format s
ĠUn marshal
n ight
ĠC E
Pro d
env ironment
File System
Update s
Ġth ing
ĠG rid
time zone
p adapter
Reference s
n od
Map s
ializ es
Ro om
064 4
1 32
v x
n ers
ee prom
Ġnd array
ro py
d printk
ut ter
b alance
ĠĠĠĠĠĠĠĠĠĠĠĠĠĠĠĠĠĠĠĠĠĠĠĠĠĠĠĠĠĠĠĠ ĠĠĠĠĠĠĠĠĠĠĠĠĠĠĠĠ
Ġ- ->
Ġb c
Ġd uplicate
Stream s
Cur rency
Ġexact ly
A sc
pa que
// ================================================================
of s
match er
Ġesc aped
10 2
load s
æ Ģ
ase d
Ġc are
U l
ĠD b
} |
ex c
sc ratch
ĠU sed
Ġsub scription
Be haviour
sum ed
Process ing
K ill
Ġ layers
ĠC MD
Ins ensitive
SD L
38 4
Ġs ound
Check Box
field Name
PR IV
ĠT CP
Ġdig est
Ġp ub
re start
Id le
Ġdirect ories
assert Equal
Ġas set
List s
Ġrepresent s
V D
cont ain
ĠUtil s
Ġ} ),
Ð° Ð½
Pa ren
View er
Ġres ize
s yntax
} ()
H DR
Ġp oll
33 33
edi um
q c
SE Q
N ING
ĠSTAT US
ĠE TH
cur acy
Min imum
ĠAct ive
Ġdecl aration
per form
ad c
char Code
Bl ue
ĠM S
co ped
ter ms
D im
ĠV T
; '
ç §
, (
N b
Ġl ive
P icker
Ø ¨
Symbol s
N Y
ol ation
> ');
Ġcode s
Ġam d
Set Value
ĠPy Object
c rop
Ġa sc
d ater
cur ve
k d
Inte gr
ĠDB G
R ew
at trib
AD ER
z a
cap acity
Ġent ities
chem as
W ifi
en a
åĬ ł
Ġp ot
Act ual
get Param
S y
? ?
en us
ĠD S
Tem pl
ĠLe vel
Ġ9 0
Stat istics
B race
: -
D r
Ġs ensor
E val
Ġn fs
Co verage
j ar
C ar
Ġgu arante
a ud
m iddle
- '
ĠF ailed
ĠRE T
S at
b ias
ĠD rop
to UpperCase
F ROG
fil tered
ç ±
(); ");
lic ations
F mt
set Data
E AR
Ġg id
la ps
CO RE
La unch
Published Date
Ġpred icate
ill ing
Ġex clude
Ġin ject
ser ialized
Ġp ay
X N
Tri ple
D ial
ĉĉĉĉĉ ĠĠĠĠ
Ġr anges
Ġpacket s
Ġkey words
Res pon
R SA
Ġput s
Ġext ended
out ine
iv ers
Jap an
j u
de leted
ĠSec urity
Ġhe ap
Ġtry ing
ĠC F
E mbed
get B
out line
Ġr d
C Y
Ex change
Ġren derer
T K
Ġm agic
R ANGE
ch anges
Ġs izes
ag ger
LA SS
04 4
Au stral
add itional
m time
Ġco efficient
-> __
w char
match ed
parent s
request s
CLO SE
ĠCom pare
Ġun used
Ġpri or
ĠP RI
tern ate
ar c
AT IVE
ializ ing
ĠM P
Ġe ps
C ls
ĠS ort
Ġ"# {
Ġs olution
W W
ĠÐ ¿
MO V
op a
STAT IC
yn omial
table Name
with out
prom pt
Ġinvok ed
P Y
gre es
u w
Ġw m
pop up
s izes
One of
ag greg
1 80
g if
d yn
Ġ(! _
Ġs sl
Ġres olution
tri bs
mt u
Pl ural
Image Family
Ġs ip
Ġ" ."
key Code
Ġin str
ann ing
section s
201 7
or row
F lat
' )),
Ġpy thon
A U
Ġre peat
ĠT IM
Ġc ut
de ad
entic ated
ER AL
node Name
SU RE
Runtime Exception
Ġlist eners
c w
B UTTON
n var
Ġ} .
Ġe th
Ne ed
ĠRect angle
++ );
ĠR C
Ġp res
ĠF ill
E G
Sc enario
Ġtrans lation
Ġp ow
pl ug
w as
Value Of
ĠS ingle
token ize
Priv acy
Ġw s
åī į
Ġm arshal
Version s
CI MAL
ç± »
an imate
vis ibility
un i
æģ ¯
L n
Ġs heet
Ġre sc
Ġan aly
file Path
Ġinte gr
ĠO bj
Buffer Size
bar s
ĠHow ever
D en
ĠF LAG
get State
atern ion
To Lower
Ġind icate
A wait
S izes
d sp
Ġvar s
ent ities
Ġmonth s
a use
PROT O
annot ation
Ġi e
Ġrun e
Ġo verr
Def ine
le s
? |
Exec utor
] ");
an ity
Ġb ot
re load
pro cessed
ĠB T
ĠRe ce
as sets
foot er
( ("
V OL
ĠT op
ĠSND RV
FO RE
f ony
pop r
ser ve
J K
data Provider
ĠNot Implemented
SC AN
xx xx
Ġr atio
S ome
Offset s
ĠW R
Ġg lob
getElements By
Ġte ll
Austral ia
lin ux
Ġ answer
En crypt
De epCopy
ĠE XT
ĠN ormal
level s
Fore ign
right ness
N F
m arshall
Co untry
Iss ue
Q Q
'] ),
Re fs
ĠP lease
STR UCT
RE LE
SA FE
ren a
ĠM E
Vo Collection
In v
Ġin stanti
/ ?
Ġsh a
per iment
xy z
mob ile
N B
m dev
Base d
ĠSe ction
y ield
QU ERY
ord ers
.' /
Ġb g
Ġsoft ware
Register Type
is er
buf s
Ġs lave
} ";
Ġu v
Error Message
call s
do es
r uby
Sh utdown
Diagnost ic
Sh arp
tim ing
Ġ \\
document Element
US Y
ĠU ART
Ġdecode d
Java Script
] ()
ĠC re
Rad io
ĠD IS
Target s
Ġconnection s
Grid View
Ġread s
Track ing
Ġrun s
F printf
H CI
Ġb s
ighb or
Ġt aken
LE S
format ted
ram mar
P an
P df
lim its
OM E
C LOCK
Ġw arn
Ġwarning s
Ġfull y
A SCII
ST ER
script s
tr ail
FO UND
: #
V IDEO
expected Exception
Ġacc um
im m
domain Object
N X
Ġreplace d
ĠEx tract
ĠLoc ation
ach es
ans ion
åĪ Ĩ
F il
L ambda
h ba
ĠT y
CL R
ĠĠĠĠĠĠĠĠĠĠĠĠĠĠĠĠĠĠĠĠĠĠĠĠĠĠĠĠĠĠĠĠ ĠĠĠĠĠĠĠĠĠĠĠĠĠĠĠĠĠ
h ow
Draw able
i pt
f y
Ġ3 00
mt x
PHP Excel
ĠVis it
P en
Ġmer ged
get User
sb i
istri bute
w pa
Ġspec ifies
Object Meta
Ġlarg er
ĠString Ref
jo urnal
me asure
R pc
ss ibly
lu ent
'] ->
Test ing
co ords
Ġvis itor
Re moved
ĠN on
set Name
A RE
Det ect
t ake
query Selector
q e
Ġs om
P ix
Http Request
G h
Ġ' __
Ġas ynchronous
W alk
xu ICAgICAg
Fix ture
ĠN ative
= /
C ancellationToken
ĠP I
Gener al
Dimension s
f rm
Ġf ar
ĠSt andard
Work flow
At trib
et ter
L ess
Event Type
Ġf irmware
no Conflict
Ġb fd
ĠEx amples
Pixel s
i h
In ventory
b one
Anchor Styles
ĠU ns
Contains Key
Com posite
Pl ugins
ĠG C
F l
ĠF ail
," \
scroll spy
åĢ ¼
OSI mage
" )))
ä¸ Ĭ
Ġformat s
Bl end
SY STEM
pro x
ex pires
V z
Ġc andidate
Add resses
google api
mod ify
ĠA tom
bi os
C am
A VE
first Child
201 4
Ġresc ue
Ġre interpret
06 28
Ġimp licit
READ Y
s ol
Ġsh are
E st
ĠR PC
Ġget Name
par k
print Line
hd mi
Ġwindow s
064 6
Ġcomp atibility
get Next
con sumer
ca de
re es
ĠEn code
check sum
D NS
se quent
** *
Ġfil tered
Cont inue
Ġ/ \
P ACK
Logical SizeInGB
per mission
Spec ific
term inal
co okies
Add s
ĠT ri
' <
Ġmap s
Ø ¯
ĠSY S
Definition s
ĠF UN
Ġun ion
it r
M ATCH
ĠW in
DE CIMAL
Ġindex es
Sk ill
")) .
bl ur
k lass
ff f
RT C
ĠDEF INITION
U U
s mp
Ġpl ugins
S q
pan y
get All
neg ative
row se
Value Type
(" --
Ġconstraint s
Ġj asmine
Ø ª
ĉĉĉĉĉ ĠĠĠĠĠ
Ġre start
Single ton
ĠT O
hook s
V A
ĠQ VERIFY
get Field
X R
ĠF oo
Ġperform ance
Ġp v
cul ar
ç ¬
on ed
Aggreg ate
Ġb lack
pect rum
version s
let ter
Ġe poch
Ġqu oted
Ġxml ns
Ġ1 0000
IO S
Condition al
Ġin serted
Code Mirror
roll ers
C MP
Ġ ONE
ä¿ ¡
ib r
DO UBLE
Display Name
Ġr pc
2 04
iz ations
ĠData base
Ġannot ation
Meta Data
ĠA udio
Ġ$ "
Imp lementation
B alancer
Ġp x
out il
P alette
Ġc am
ĠĠĠĠĠĠĠĠĠĠĠĠĠĠĠĠĠĠĠĠĠĠĠĠĠĠĠĠĠĠĠĠ ĠĠĠĠĠĠĠĠĠĠĠĠĠĠĠĠĠĠ
al ity
Pub Key
Ġcap acity
ĠU s
Index es
WINDO W
INTER FACE
Ġre duce
D AT
ĠClo ud
Un signed
Ġlist en
è® ¾
Property Name
Ġseg ments
Î µ
ar ound
Ġnormal ized
f ld
UG IN
Ġn n
SPE ED
ĉ ĠĠĠĠĠĠĠĠĠĠĠ
re cursive
ĠRo ute
DR M
value Object
ph rase
I ll
f atal
æ Ń
, .
include s
O WN
bound ary
f tp
W EEK
g lob
s as
}; \
Encode d
offset Width
un ity
Ġexception s
N eeded
R ank
Ġc red
Get Name
([ ^
Ġdig it
get Opcode
Re po
str cpy
(& $
E K
s yn
v ity
Ġren dered
v k
Ġd er
Ġb ank
A pr
C ipher
] ):
04 40
åĲ ¦
IP v
a udit
tf m
')) );
ĠRaise s
packet s
Lo gs
Message Box
icon s
curs ively
to ur
to Equal
ig gers
Input s
iz ard
ĠN AME
Ġshould n
ĠProto Message
H ard
Ġin correct
// ----------------------------------------------------------------
ĠMO Z
Find er
B IG
à ¹
ĠS ys
M ismatch
ĠD omain
al gorithm
ang er
ĠC PL
S pe
); }
Ġf loor
am ps
= \
orth and
ĠLen gth
Ġchunk s
at ory
ĠEqual s
F requency
Wh ile
Ġget attr
Î ±
N z
in ite
Ġsmall er
M Y
Ġin coming
S cheduler
ĠF S
"] ["
Bound ary
Ġt erms
al ways
ĠA ss
Del im
ĠCal led
Ġf ew
2 64
C AN
est ing
Ġa ff
Re peat
j oint
Ġd ash
Ġadd ition
Ġ Ã
it able
s ched
ĠĠĠĠĠĠĠĠĠĠĠĠĠĠĠĠĠĠĠĠĠĠĠĠĠĠĠĠĠĠĠĠ ĠĠĠĠĠĠĠĠĠĠĠĠĠĠĠĠĠĠĠĠĠĠĠ
Ġre m
Ġ\" %
b racket
DE LAY
ĠSmall Vector
Ġm oment
up s
Get Instance
RE EN
f inished
Ġ3 6
min imum
Ø ³
Array List
ĠG ot
oc ab
bb ox
av en
m isc
No Error
R outer
ĠT x
J J
Ġfollow ed
ĠA nal
C OR
E H
Source s
y B
Ġcount s
ĠGener ic
OP CODE
Ġbox es
co uld
ĠPos ition
ĠR ow
Time val
f ollow
in ing
d ocker
trans lation
[] []
P B
Ġmin or
ĠCode Mirror
DATE TIME
v q
Ġg radient
Ġassert False
Ġmin utes
x i
Ġcal c
è¦ ģ
ĠM ay
ali ases
Text String
F lash
pro j
Ġdef erred
ĠN db
ĠC V
Ġas sembly
ĠW IN
opa que
div idual
ins ide
! --
I Q
is Function
d ark
View s
tick s
RE SH
ĠSD K
this file
? >
l arge
AN G
depend encies
ĠG uid
CEPT ION
S olver
ude lay
H y
Conn ector
Ġlock ed
Ġ++ $
Ġsim ilar
Add itional
se par
ep i
control s
5 64
INTER NAL
u er
10 10
be at
W x
Ġover write
ĉĉĉĉĉ Ċ
ĠOr der
_ *
ĠC WE
Ġas k
ener ated
Conf irm
INST ANCE
W a
g hi
SA MPLE
With Error
AD C
Ġsc ratch
Ġhapp ens
ATOM IC
Ġs lash
tern ative
ĠDefault s
U b
A J
ĠV al
ĠPer form
Ġ* */
ST ORE
Bo ot
pri se
a at
Ġ ])
mk dir
l ations
-------------------------------- ----------------
n fs
DR OP
P ressed
T abs
Gl vb
ĠIn voke
Init ialized
queue s
PO LL
keyword s
chunk s
Ġb i
$/ ,
Depend encies
F IN
inger print
EX PECT
Re view
NAME SPACE
p alette
(! (
Ġstyle s
Ġcons ider
(?: [
Ġgener al
Ġe valuate
A q
Discard Unknown
AL PH
Ty ped
) ==
Ã Ń
FE ATURE
CURRE NT
K B
Ġi v
Ġt i
O ID
s quare
Ġget ter
ĠP layer
æŀ ľ
N a
w all
n th
R anges
j it
D AC
s at
12 5
Ġk vm
S lide
a ir
Un ion
E TH
Cre ature
f allback
ç ī
ĠV ec
Ġhas attr
ĠTem p
r n
eld ing
12 2
as List
Ġs vc
Ġ% (
ER IC
ĠM B
Pro jection
SUPPORT ED
N orm
Access ible
Ġ% %
Ġre ached
p ick
ĠGo String
R ING
< >(
Ġm icro
Ġim pl
group Box
Ġhigh er
T ING
ĠM M
cell s
ĉĉĉĉ ĉĉĉĉĉĉĉ
ĠS ocket
Ġstr tolower
**************** ********
U tf
Min us
Ġcon cat
constant s
j iffies
p al
align ment
l paren
Ġprovide s
starts With
d id
NC Y
S OR
URI Component
^ ^
c redentials
Ġtx t
Ġd entry
K G
Ġd r
Ġd irty
Ġf urther
os en
Ġal i
ang o
Ġformat ter
Ġ% .
ard s
aut orest
, \"
Ġ ans
comp ar
rt w
pair s
Term inal
CE E
gener al
in ical
ĠC ore
ĠN PT
> ());
k er
m w
Ġalign ed
F y
å¼ ı
e le
pa used
Up grade
('. /
0000000000000000000000000000000000000000000000000000000000000000000000000000000000000000000000000000000000000000000000000000000000000000000000000000000000000000000000000000000000000000000000000000000000000000000000000000000000000000000000000000000000000000 0000000000000000000000000000000000000000000000000000000000000000000000000000000000000000000000000000000000000000000000000000000000000000000000000000000000000000000000000000000000000000000000000000000000000000000000000000000000000000000000000000000000000000
ĠA v
ĠB ytes
10 3
I Enumerable
Z G
V l
ĠS upport
Ð ±
Ġx s
pc ie
res olver
Exception s
ĠRe quired
ĠO THER
Z U
callback s
Exist ing
ST ACK
ĠV irtual
b os
ic ip
! ",
mod ifier
Mapping s
ĠL inux
ACT IV
es p
EB USY
ĠTh en
r ates
ĠD el
vert s
ĠF ound
Ġcheck er
Bl ank
Ġv i
C ells
Back Color
L un
Im mediate
ĠP ur
ĠB LOCK
ab out
ve y
AC L
desc r
Ġcontain ed
D Q
f an
ur st
Ġcom edi
print StackTrace
T REE
em ulate
VER T
Ġre v
assert InstanceOf
Loc ations
View port
ind io
Res erved
å ĳ
Ġsn printf
ie ve
g fx
ĠF ont
Ġdisplay ed
Ġvol atile
spec ified
Ġa ck
D ao
then Return
ĠM ulti
In finity
el low
la vor
Ġcom pression
Ġle af
Ġl atest
Start Time
B g
loc ations
List en
Position s
Ar n
" /
exception s
side red
State Exception
.* ?
remove Child
ĠM BB
ĠL ib
ad get
vers al
Ġv c
PO INTER
Cal culate
Ġf amily
ĠD T
Cap abilities
x mit
Ġs rv
get File
ĠPre pare
er ce
v Y
) ],
ĠB E
Ġdif ference
b ss
co v
writ able
D URATION
ĠConfig ure
Ġf r
child Nodes
0 16
åĪ °
Ã ¤
Ġe valu
mm etric
g ree
A ug
Ġ' &#
_ ]+
Ġel s
len code
ĠB ody
oper ations
Ġ<< =
. /
Ġj iffies
ĠC OL
Ġint ent
Ġa pr
DO C
pers on
node Type
Role s
à¥ į
Binding s
ar ity
Obj C
q b
ĠTime Span
ĠSQL Exception
wr ong
g f
Ġcert ain
Ġt id
Ġret rieved
ins pect
Suppress Warnings
get Request
ĠP O
Ste ps
num py
Ġu uid
Ġu c
EN SION
Ġmark ed
j peg
LA ST
lev ant
âĢĶâĢĶ âĢĶâĢĶ
H our
Assert ion
ool s
x path
get M
J ax
init ializer
Ge om
direct ive
Col s
ï¼ ļ
Par allel
Ġaut og
l cd
up ported
EX IST
get Target
Ġ( ++
STAT S
Ġaddr len
ĠEm pty
With Context
Run e
x or
Ġpro be
Ar row
) &&(
S ID
ic ates
tr as
lement s
C AL
L CB
L R
ĠD etermine
in et
ce eded
-> $
Type Of
å ·
off s
Ġ' =
f ence
u dev
Ġex c
set Enabled
sup ports
wd t
And roid
ĠRe port
Ġ* >
BU ILD
D amage
C b
P ie
COL UMN
ĠAT A
Ill um
S pacing
Thread s
ent ly
Is Empty
in ity
Ġm anaged
esc aped
o e
Ġtr unc
w iki
Lex er
")) {
Ġth ough
Ġre cent
delay ed
Ġge ometry
é Ķ
C OPY
Ġdirect ive
r ans
ir cular
Ġc rc
T ail
th umb
Ġposition s
ĠPar ser
Can onical
Get Current
Private Key
Ġh aving
k i
Ġpost Index
, !
Ġs olid
s rv
Ġconf lict
get Child
ĠP RO
b ra
Ġt v
co d
man ifest
B ra
xff ffffff
C red
é Ŀ
Ġlet ter
ne eds
alloc ated
ĠE OF
Page Token
mi i
+ )
Clean up
Ġ" __
String Ref
U ses
EX PORT
d ie
b ut
Ġnew line
*/ ,
V G
Re verse
x hr
Ġw i
n or
å ±
ALL OW
L inux
q d
train ing
Co ords
ĠAS N
ĠH tml
k obj
Ġlook ing
High lighter
n id
ĠP ORT
cal lable
is or
ĠArgument Exception
ĠErr Invalid
e h
not ifier
METHOD IMP
Phys ics
RO UND
Max Length
stit ution
Z T
clus ion
cur rence
OC OL
Ġt un
Node Type
Ġoper ands
cho ice
G it
ĠJ ust
Cur r
rece ived
åı Ĥ
() ];
Ġr sa
g ap
G X
Ġ' ('
p io
} ],
ĠC or
ĠN aN
Ġj ump
Stri ct
ãĥ ¼
A ck
Ġ{ })
IMP ORT
D ummy
Ġpro totype
dd r
ls l
P lease
Ġf our
"] ',
A DE
:" [
sh own
Ġin c
Li ke
track er
ec ause
t gt
ur lencode
. ";
Ðµ ÑĢ
ĠI X
Ġa way
ĠUns upported
current Time
Ġg it
è¿ Ķ
Ġ ata
Pa use
Num bers
ĠArray s
sh ost
ĠO b
Un ary
B IND
Ġend s
G iven
ra deon
Ġcon d
ĠNV PTX
P x
charCode At
get Column
f cp
p wm
TA SK
Ġsub process
CR YPT
' )))
G I
ick y
æł ĩ
ore d
h orizontal
al formed
tr ap
get X
ĠMem ber
m icro
Disk Configuration
P ID
el s
Ġse p
ĠTra ck
ud ent
iss ues
Ġopen ed
ĠA fter
Ġde pending
Cor rect
C ritical
getElementsBy TagName
Ġsub mit
gate way
ĠTrans action
Short cut
E lt
t ics
Th umb
tx q
Ġprocess or
De leter
Alloc ator
riv ers
Ġfil led
Get HashCode
ĠTrans form
Ed ges
may be
Click ed
Ġman ifest
F J
th ers
MLE lement
h u
R AW
C li
comp leted
El se
ĠO ver
Ġvert ical
P ull
V U
Bound ing
Ġpipe line
ĠID C
S id
t ar
Ġres pect
comp at
++ ];
Ġlog ical
ĠIter ator
XXXX XXXX
ç Ĥ
:" +
201 5
ml me
extend s
ap is
ĠO PT
Ġs low
ĠHash Set
Rece iver
ĠStr uct
al og
Dat um
Is Nil
'=> $
P PC
Templ ates
D id
role s
dispatch er
In vocation
00 02
Î ¿
RT L
Ġc d
ĠX FS
U ART
QU OT
M k
append To
riend ly
P USH
Ġpred iction
Ġsat is
Device s
D to
Ġl ittle
Ġwh o
F x
pen ded
SL OT
" &&
è¯ ·
ĠM ac
Ġi outil
ĠIn trinsic
Account s
Ġw l
po logy
ãĤ Ĵ
st arted
F allback
è ´
Ġcon sidered
for um
d word
ĠReg ion
io addr
In c
ĠSt orage
Ġperform ed
r anges
or ientation
ãĤ ĭ
Ġ ------------------------------------------------------------------------
Ġ) :
Ð¾Ð ²
ĠU SE
ci pe
Type Error
Ġg ithub
scal ed
un ix
Ġsq rt
Ġl s
R ing
ro zen
g og
ĠHttp Response
Work space
D ash
ĠSt yle
ex act
ite cture
re moved
h m
n at
m eth
V I
00 3
b G
ar ily
ĠJ ob
H w
M K
ĉĉĉĉĉ ĠĠĠĠĠĠ
ĠEn coding
com bo
eter min
MAG IC
um ask
per missions
V s
o logy
graph ics
en queue
Ġh a
t g
ag ed
ĠAT TR
region al
) ])
rr or
Ġk ill
ĠS W
r type
m vm
opt im
; "
/ );
YP TO
S ING
å ¸
)* (
Z Z
t if
Decl ar
* .
Ġ2 9
stream s
get Sub
ĠP ublic
p Value
B QU
j ump
Ġp ull
re w
Is Not
Token izer
## #
author ized
Phys ical
Ġcur rency
Ġcomp iled
R Q
En cryption
err al
ail ability
Rot ate
* \\
ĠC ar
Ali ve
gu ard
Art icle
B ank
p mu
&& "
Ġpers on
; ",
ST Y
E valu
Connection s
/ \\
Component Model
exp ire
Ġautog enerated
---------------------------------------------------------------- ------
Ġcon sumer
L ite
ĠPro gram
ĠĠĠĠĠĠĠĠĠĠĠĠĠĠĠĠĠĠĠĠĠĠĠĠĠĠĠĠĠĠĠĠ ĠĠĠĠĠĠĠĠĠĠĠĠĠĠĠĠĠĠĠĠĠĠĠĠĠĠĠĠĠĠĠĠ
Ġk v
V X
pi cture
mode s
ffff ffff
B lack
ĠH elper
Ġa verage
Ġor dered
fore ign
PC L
ns I
Illum inate
is EqualTo
ĠJ OIN
N M
å ¦
04 35
Ġphys ical
Le ave
Sup p
ĠB r
ctr ine
ĉĉĉĉĉĉ Ġ
ST A
il on
ĠI F
VAR I
u D
de mo
ĠP ass
ĠS can
Ġrect angle
Ġv irt
Ġ> ',
tr uncate
ET CH
in p
uple x
D istribution
Ġdef ines
RELE ASE
Ġm ime
Ġbutton s
Ġb as
ĠA LL
Ġ-- -
Config s
help ers
=- =-
P icture
Ġreference d
m h
è®¾ ç½®
U id
Ġz oom
Ġback up
f irmware
p md
Ġt ip
b roadcast
H RESULT
Ġcol s
re lax
F req
Se e
C ircle
m idi
39 0
ĠC ALL
Se ed
now led
Ġ Values
Le af
ic mp
ener gy
E ula
Out er
Ġc ells
Ñ ĸ
ĠD own
xu IC
BL IC
Ġglobal s
Ġph p
Ġin sn
ĠA Arch
A ss
p q
W l
de ps
ĠF F
RE V
we ep
Sc aling
Sk in
Throw able
C ategories
Ðµ ÑĤ
(' ',
Data Set
Ġdeep copy
M ajor
Ġ2 000
note s
ĠC ancellationToken
EE EE
ä¸ ĭ
compress ion
Ġs yn
A ES
UP T
CURRE NCY
min ute
sl ider
Ġng x
00 2
A O
un ted
TA IL
BO OST
r hs
OP ERAT
sess ment
ĠH E
View ById
Test er
pipe line
H d
b v
Ġlevel s
ĠValid ation
Ġ Ñģ
e fx
ra ct
ĠQ ual
æĺ¯ åĲ¦
ĠImm utable
I VER
ĠR TC
Ġ$ ("#
Ġcomp ressed
symbol s
Ġvalue Object
SOCK ET
Decimal s
in ym
get Length
ĠĠĠĠĠĠĠĠĠĠĠĠĠĠĠĠ ĠĠĠĠĊ
inym ce
q h
sh op
list eners
te ll
Gener ation
ĠB ut
c ircle
ĠL ock
æĸ ¹
// ///
b fd
b k
": {
semb le
im ap
dy lib
Invariant Culture
ER S
comp iled
not ice
Ġmatch er
ht able
Ġcontrol s
RE PL
Jo bs
H alf
Str ide
Qual ified
A x
P SB
=" #
co vered
RO LL
side bar
Ġinte rest
S quare
Ġ" @
el t
Dig it
D EN
SCA LE
i ke
ĠV AR
i or
er gy
ic ol
ĠM at
fs m
Ġgener ation
ĠLook up
reference s
T Z
PRO CESS
Un do
ĠCollection s
Ġf name
m ib
er p
SD K
ĠSw ift
Ġsh utdown
Ġh ours
pc s
Ġapp lies
J NI
st s
CL U
depend ency
Ġterm inal
if ec
Ġ question
ist ence
S ector
be ans
desc ribe
ab lish
leg end
Pur ifier
DE C
æĸ °
éĻ ¤
AUD IO
Compact TextString
R oll
ĠD oc
å ¹
[ @
Ġa ux
Re commended
abcdef ghi
ĠCon nect
tick et
Ġins pect
ĠJ ump
grad ient
Ġs ink
`` .
termin ate
cor relation
Ġvector s
Pair s
â µ
pe l
S ince
ĠPro duct
Ġ" :"
Ġ1 80
W ill
co verage
impl ify
M AT
Ġd vb
path name
AA C
Ġg uid
ends with
pr ing
rg ba
{} {
J ump
Ġ", ",
istri buted
get Config
Ġun ix
2 24
Cre ator
ĠH D
Ġactiv ation
Ġvalid ator
B alance
Ġ1 23
çĤ ¹
è¿Ķ åĽŀ
match ing
ĠTR ACE
re ction
pl ine
par m
Stream er
add Child
edit able
av or
åĩ º
ifec ycle
d z
last ic
Ġbl ue
ĠT ab
Te ch
R ay
Û Į
ĠÐ ²
æĪ ·
re et
ĠEn ter
( \"
] ["
Ġ3 3
ĠC LASS
get As
Ġcomp atible
Ġcan onical
getCurrent Token
Ġb box
ĠE E
Start ing
sn ap
m nt
CR C
s ink
str tolower
Ġw allet
lip se
ĠBe gin
AAAAAAAAAAAAAAAA AAAAAAAAAAAAAAAA
B est
long Date
ec c
Ġ( ),
Loc ator
Att ack
_ {
Ġdefault Value
H ero
er v
ĠT WO
åĽ ¾
Ġ__ ('
Ġmo ved
C atch
Get Object
F ee
Back ward
w ave
Ġ1 27
req Headers
Ġexec utable
ĠC A
fer red
M ass
De fs
month Names
F Q
Ġax es
m ad
qu ad
ir cu
TRANS ITION
G ra
is NaN
to Int
New Line
ĠG iven
8 99
Count s
Ġlo gs
Ġpy test
ĠB N
Ġret Val
I EEE
White Space
mark up
W K
In coming
S uspend
ĠS IG
sm tp
Ġg t
ID LE
sk in
D uplicate
d ic
ll x
ç ¤
out dent
ĠS ER
ENO ENT
ĠA SCII
Ġear ly
ke le
Layout Panel
Ġf t
Dir s
N j
MAR Y
N P
ud p
M agic
red is
P oll
Ref Count
ĠM EM
:" #
Ser vlet
Ġd ie
EX CEPTION
Ġh eld
Ġopen ing
ializ able
ĠCalling Convention
Ġm ag
Does Not
error Code
Out come
Ġprom pt
case s
Ġac ross
Ġbe an
% =
ar mon
Ġcom ma
iom mu
V i
c ms
key board
alloc ator
Ġlocal Var
m map
'] ]
Int Overflow
UN LOCK
get Last
ĠA rr
S orted
Ġdoc s
S ensor
ĠS plit
Sc anner
Tick s
OLE AN
f ew
Show In
B OT
ĠT EXT
Call er
De precated
123456789 0
ĠP C
ĠM PI
HE IGHT
normal ized
Ġplace holder
T AB
ĠErr IntOverflow
err ain
ĠM erge
= ",
Ð° ÑĤ
F rag
de crypt
RG BA
Imp licit
ĠA CT
Set ter
d g
Py thon
Be en
pri o
H L
db c
Anim ator
Tool tip
Pr incipal
) </
Ġm a
Co ordinate
ĠM enu
(! $
tax onomy
S pawn
h Z
res olution
" }}
tool Strip
C rypto
ĠCon structor
ĠVER IFY
Group Version
Ġk lass
ch ase
ĠT uple
unre achable
Ġx hr
Ġlin enum
SV G
Ġassert NotNull
re rror
r aries
Ġf h
Start up
g amma
ak ed
Ġ'" '
> (),
d j
å ŀ
Ġh orizontal
à ¯
R P
ro utes
The re
ĠM e
2 10
Ġ4 5
Char set
G G
W rong
c I
ĠUn it
æĹ ¥
Ġtool tip
Def erred
ĠTo String
Ġ ign
ĠR O
LO OP
CB C
Ġs lide
Ġ READ
Ġs ctp
(@ "
Ġar m
Get Data
Ø§ ÙĦ
B K
å¦ Ĥ
DE S
ab ling
sl iding
y o
Ġla unch
ĠL I
Ep isode
pixel s
ver sed
Opt im
Of Type
ĠID s
Ġf raction
Clo sure
l z
th r
A w
As sembler
}) \
ĠA pi
respon d
sub scriptions
. +
Check sum
Host Caching
V m
und o
inte gr
DEP TH
s ense
Quest ion
h ist
ãĢ ģ
åıĤ æķ°
illi second
avig ate
Tri angle
ance stor
() ",
Configure Await
Ġst ores
index es
Ġ6 3
e of
Big Endian
m arshaller
Ġp lease
ot or
Ï ģ
ĠT C
Ġac cepts
________ ________
; &
id ence
ĠS ync
å½ ķ
Try GetValue
Par sed
Pers oon
P ACKET
n u
al so
@@@@ @@@
e ction
Ġr p
DE SCRIPT
get Width
ĠU UID
Ġ roll
al ive
COM MENT
Y m
Ġp f
Ġ// $
ä¿¡ æģ¯
j an
ç Ń
ĠPro tocol
Ġrender ing
M anaged
Ġex ponent
Ġpass ing
æ Ł¥
Ġiter ate
pack ages
Ġhelp ers
S EN
ĠZ ero
u pt
mix er
n y
ÐµÐ ´
S ENT
ĠR F
Tool Tip
L U
M otion
ĠL D
Sh ip
f uture
Ġqu ick
le ting
Ġf un
OutOf Range
ATTRIB UTE
S aved
Ġb n
ĠLay out
ĠF ull
String Value
ID I
ĠS K
N ER
Ġsection s
Ġ 99
ĠSer ialize
SHA RED
B etween
PAR T
ext ended
Ġq p
Ġexpression s
c andidate
ĠM ips
CNT L
Ġn c
ĠField s
ST AND
g able
tool bar
n and
un able
e E
Or ig
Append Line
è ·
c go
Ġar bit
User Name
J E
h and
(' ');
m peg
Ġr f
Ġv b
Ġen crypted
Ġmac ro
xu ICB
Ġra ised
ALPH A
un def
ĠH elp
Ġk malloc
åı ¯
Ġpan ic
ĠRe al
Ġ3 5
velo p
CON N
user Agent
ut c
:/ \
7 00
Ġh d
Ġc ancellation
la zy
Ġde p
ĠP IX
work space
P res
dec lare
r ating
Ġc le
de li
Ġerror Response
Ġstr cmp
ĠO pt
R aster
ĠG u
01 4
app s
Wh itespace
ĠD iag
ĠCon dition
mes a
Ġdo jo
ĠS cal
Handle s
d ispose
r ng
co eff
iz able
¨ ¡
Ġqu eries
Ġassign ment
set opt
Render ing
Ġh ton
lo pe
scan f
ĠN L
A jax
} `
Qu ad
link name
ĠErrInvalid Length
G ED
g h
Max Value
2 34
db gs
Ġvis ual
; </
Ġ($ )
cnt l
Re maining
ft mp
K C
ag g
Ġi oc
Mode s
PATTER NS
* ",
G esture
ct est
Ġm illiseconds
") ||
ĠBig Integer
Ġs af
Ġe e
Ġhost name
B roadcast
Ġh and
Start sWith
Ġis csi
exec ution
Ġf open
á Ģ
tr an
Reg exp
mac ro
c z
ĠO C
Work sheet
([ [
re act
w k
Ġ2 04
d si
pro viders
W d
f V
ĠP si
Ġo op
Ġnew Value
Int errupt
Condition s
- =
i en
Ġw ra
write b
TR IG
en ate
Ġ'/ ')
clo sure
An sw
ç Ĳ
on line
Ġz eros
sq lite
get Local
G d
us ion
run e
get Source
g uest
Ġg ensupport
0 33
Ġre ports
ĠA sync
ĠF ire
Ġ Ð½
S OC
Disk SizeInGB
Atom ic
Init ializer
åŀ ĭ
product s
Ġb ias
get Size
dev priv
Read able
Cho ice
request ed
ç¤ º
Ġli kely
M Q
get First
Ġd rive
(?: \\
Logical DiskSizeInGB
ĠCURL OPT
ick ness
> /
Ġde t
ch arge
get ter
Ser vers
ĠSc roll
s dev
run ner
Level s
Request Id
æİ ¥
"} ]
ce il
ready State
e y
n itude
Ġs v
ile ge
OD ING
ĠQ Test
åĬ ¨
pos able
( **
+ ="
ire cted
ĠOP EN
ms gs
vol atile
Ġm ut
Ġ( --
pre pend
config s
è ĩ
Ġid le
R AD
multip ly
Ġlink ed
h f
A ff
PCL ZIP
A H
e gid
PAR SE
4 56
V ID
OF T
Ġon to
Re ject
addr len
Ġc lazz
cc b
sys fs
Tree Node
Ġn a
gog o
post Index
resent ation
Ġd erived
:" ",
p key
s pell
G ID
Ġa ren
oper ands
transition ing
Seg ments
el ist
Th en
V d
Privacy Uri
P refs
>> >
o bs
OR ITY
ĠR HS
List Item
Ġfiles ystem
ap r
IB LE
ĠS HA
h ore
wq e
Ġi io
ĠB enchmark
move To
ĠMod al
ar ded
ĠR oot
m ing
p at
M n
ne eded
() };
short Date
Ġn f
emulate TransitionEnd
N PC
U tc
ĠFLAG S
k vm
ch mod
Ar c
ĠU P
Ġcal endar
13 4
ve st
Ġi wl
EN A
(' $
Ġb eta
ag er
Ġfloat ing
' /
Alloc ate
H o
Ġse ek
Ġl n
Ġm ajor
short Time
Ġre cursive
ĠPa rent
ĠW est
Ġm aint
Sub scriber
Object Type
l hs
": {"
Is False
E mp
al bum
ĠChar acter
å½ ĵ
ĠD irect
h ub
IC ON
N K
store d
06 33
get Header
iz z
oc used
ST S
Ġil legal
d ictionary
Field Name
Ġth ird
cur se
)) }
uplic ates
ĠM ANY
dig its
++ ++
Ġtor ch
er ve
ertific ates
wh o
O pacity
H and
se en
ex amples
Ġpoly gon
n ullable
ID ENT
comp act
Bl ur
Ġstat istics
REC ORD
aaaaaaaaaaaaaaaa aaaaaaaaaaaaaaaa
ph an
resource GroupName
Ġreg istration
Ġ' ]
ĠT AG
strn cmp
G reater
em ent
sg e
F r
T G
M ag
Re cogn
Ġspec ification
. ","
ĠB ad
ĠInvalid OperationException
in a
get Height
({ "
IP V
ĠHTML Purifier
cp us
First OrDefault
ĠSV G
Ñ Ĩ
Script s
sc b
com es
ĠST ATE
; \\
ro gate
é ¢
EN UM
P WR
" });
Ġ" .",
Ġpro g
ser ved
AG AIN
art beat
BUS Y
EN SURE
ĠF W
MB OL
Ġhold s
Rout ing
get Table
TH ROW
B ot
G INE
C redential
str icted
ul let
Ġm sm
D IG
ĠQ ScriptValue
or b
Ph p
Ġse ss
Ġ' ['
UD P
ARG S
I ME
content Type
z Z
10 4
Ġconf irm
SHORT MONTH
Ġiss ues
full Date
chedul ing
ĠThrow able
V L
i ow
re o
rel u
ĠP LL
En sure
ĠText ure
I g
ress ion
VER BO
Ġfix ture
ml x
AMP MS
du ces
vis ual
Game Object
SHORT DAY
pe v
Ġget VF
ff s
Cal cul
åĪ Ĺ
ĠSm arty
ĠP OST
Ġcom e
AC C
Writ ten
CEE DED
ss ian
F raction
Ġ ctor
}} );
la ims
ĠS B
stop Propagation
Ġequal s
Ġname of
ĠAl ign
medium Time
medium Date
F ault
iss ion
Ġ[ :
if p
t ions
m ic
(' {
RE MOT
ĠCont roller
//////////////////////////////////////////////////////////////// ////////
plural Cat
çĲ Ĩ
K S
t u
he alth
J O
In stanti
all ery
Ġse ems
(/ ^\
Ġbound ing
S uch
Assign able
Command Line
rott le
I W
Ġin verse
Times pec
mg mt
Mod ifiers
Ġlook s
Ġg reen
r k
ĠD R
ĠP attern
Write Byte
F it
Ð ·
Ġcom press
ph ab
padd r
Ġde tection
st amps
Ġad vance
n h
wait For
q K
[ *
P ick
w rapped
li ps
Non Null
SIGN ED
CLE AR
æ³ ķ
16 8
ĠMessage Box
P V
j ac
as sembly
X d
m el
Ġels if
Ġ) ->
ĠL et
ĠR x
M j
Re cv
lic able
Tree View
Ġgr unt
Ġ3 4
! (
set State
H N
Ġde li
ĠGraph ics
Ġch rome
TO OL
Ð° ÑĢ
C r
s data
Ġs pell
ĠF EW
b old
ĠF lags
ĠRes olve
p et
go og
200 7
åĲ İ
Ġin dividual
_ "
Ġin crease
W rapped
C pp
s parse
user id
00 5
fin ally
Ġc at
Ġ ĉĉ
Ġinte gers
Q S
regist ers
Ġdec lared
foo bar
Ġport s
Sec ure
ĠF P
j q
ĠW AR
ib l
ON SE
20 11
Ġim m
/ #
Temp orary
J C
IT CH
is ing
PER M
PROT OCOL
M u
ĠM sg
sock opt
ĠD C
head ing
Ġmod ifier
region s
Ġ(; ;)
STY LE
et c
Re cursive
func PC
Ġob server
h ours
F i
L azy
L W
Ġun lock
ST EP
Int n
Register Info
related Target
Ġident ify
k o
ĠFI FO
ev en
ĠBit map
Property Changed
Ġmapping s
arb age
Con cat
> ())
ĠPack age
uff icient
ĠBY TE
Ġser vers
a es
ç ł
Ġcustom er
W ide
b z
n R
m ips
ĠNe ed
ĥ ½
Ġw ake
Ġp dev
U g
chart s
qu ick
Ġ um
B i
O s
Return Type
Ġpop ulate
c lause
r fc
lim ited
ĠM ouse
N IC
GV y
* (\
at ives
Ġreg exp
([] )
curs ion
D er
Ġ ke
ĠS uccess
X HR
AT AL
DE CL
F ETCH
count ers
Ġpl us
Writ able
get P
INT ERR
Ġvis ibility
ĠF L
Go od
Should Be
method Name
gl ish
INIT IAL
get Start
(' \\
Ġc g
to upper
Ġn db
ad vance
**** /
T or
D SP
ittle Endian
Ġamd gpu
Access Token
Ġp thread
LE X
NO RE
Data DiskConfiguration
Un safe
14 7
R HS
hd l
Ġ$ ('.
V J
Ġover lap
b mp
Ġco okies
exec utable
Ġres olver
Mark up
" !=
L HS
am a
ĠO F
ud y
Instance State
DIRECT ORY
h v
Ġu art
ĠM ask
bt ree
Ġobt ain
o ss
) ")
H ot
fil led
Ġbas ename
S SE
res ented
Ġg rad
}} }
Ġiter ations
Ġe qu
Default Deleter
(" \\
Comp ound
invalid Params
U J
ShowIn Gui
Ġc riteria
Ġh ack
Ġco ords
Bo ard
Web Inspector
de limiter
as cade
\/ \
check er
Des er
Ġ$ ('
Ġc rash
li ance
event Name
property Name
R a
" })
L ATE
Y WN
Ġto String
ĠC AN
Ġb fa
)) ->
ĠH AL
Ġman ually
N r
def s
Ġframe work
M edium
w allet
'] ));
Model Index
lib System
ĠNotImplemented Exception
cond itional
Ġval s
1 99
ser ializer
Ġup on
/ +
im ator
widget s
qu ared
ar ter
TestCase Operation
ĠS witch
ĠM V
F H
$ $
get Computed
ard own
d sa
ig id
Ġg tk
H andling
Ġsub sequent
C laim
v port
Ġdir name
Ġmsg len
POS ITION
g iven
Ġ(( *
ircu it
U uid
Ġre main
ĠH RESULT
ĠD ir
Ab ort
co p
use c
ĠP latform
[: -
vol tage
Ġb ail
MA PP
k Z
YY Y
ast e
un bind
Ġm ysql
ĠL icense
no ise
ĠString Comparison
Ġp n
Note s
C y
W as
get Resource
Ġover lay
chan ism
] ++;
Ġpop up
× ķ
Ġg ain
Ġcalcul ated
Ġser ializer
pg id
S olution
ĠInt ent
ĠF OR
mi os
S lash
pack ed
Ġint val
... \
cred it
ĠS EC
... ");
(" '
xu XG
al ic
Ġs it
ĠS ample
files ystem
ĠCH K
Ġp seudo
ĉĉĉĉĉĉ ĠĠ
ĠSe cond
voc ab
) >
IL ITY
client s
Normal ize
er ature
Ġh ome
Dis covery
G x
ĠR GB
cl r
Ġ* [
os er
getMock Builder
! "
E O
M usic
Ġre name
End points
VM Size
R y
dis posing
COMP LETE
global s
Ġm aking
Ġpro jection
Ġpa ren
ype s
(/ .*
F a
ar Down
Ġh ot
ĠSV N
æ Ľ
PR OG
Ġne g
cmd s
lang uages
debug fs
Quant ity
D erived
M i
Ġe ff
Auto Size
Ġ" ,"
NE G
ul p
M obile
g w
Next Token
text Box
201 3
next Token
09 2
Ġcoll ision
J ar
end ian
Full Year
get Option
ast ic
Ġresponse s
ĠG r
ĠPur pose
W arn
jo bs
ite s
ĠTh at
Link ed
WA RE
Ġrg ba
Ġsh orthand
in formation
str ategy
hw fn
Ġwork space
List Call
Scroll bar
dddddddddddddddddddddddddddddddddddddddddddddddddddddddddddddddddddddddddddddddddddddddddddddddddddddddddddddddddddddddddddddddddddddddddddddddddddddddddddddddddddddddddddddddddddddddddddddddddddddddddddddddddddddddddddddddddddddddddddddddddddddddddddddddddddddddddddddddddddddddddddddddddddddddddddddddddddddddddddddddddddddddddddddddddddddddddddddddddddddddddddddddddddddddddddddddddddddddddddddddddddddddddddddddddddddddddddddddddddddddddddddddddddddddddddddddddddddddddddddddddddddddddddddddddddddddddddddddd dddddddddddddddddddddddddddddddddddddddddddddddddddddddddddddddddddddddddddddddddddddddddddddddddddddddddddddddddddddddddddddddddddddddddddddddddddddddddddddddddddddddddddddddddddddddddddddddddddddddddddddddddddddddddddddddddddddddddddddddddddddddddddddddddddddddddddddddddddddddddddddddddddddddddddddddddddddddddddddddddddddddddddddddddddddddddddddddddddddddddddddddddddddddddddddddddddddddddddddddddddddddddddddddddddddddddddddddddddddddddddddddddddddddddddddddddddddddddddddddddddddddddddddddddddddddddddddddd
e uid
Sym fony
(', ',
il i
ĠF B
reg ular
Ġurl s
Spec ifier
ĠRe mote
Value Ref
Supported Exception
Ġh ighlight
inst alled
class List
ĠCom ment
Qual ity
Off ice
Ġremo ving
) ||
ĠD W
SH OW
get Code
Sockaddr Any
Ġ{ });
ĠD ynamic
pl its
Transform er
r val
re quires
Ġt z
Ġwh y
Al location
BB BB
Ġcon tract
he rent
fo x
=[ ];
Ġ Keep
Ġl st
Ġemit ter
W REG
qu ential
ll u
ms m
âĶ Ģ
s pawn
ĠG em
err s
Par sing
P itch
ss ize
Con current
\" ",
Ġm utex
ĠS im
Ġde tail
ĠE VP
å Ŀ
queue d
C t
F ollow
Ġio ctl
con trib
Output s
acc um
W ave
Ġp data
Ġg ra
Char acters
cm nd
poly gon
DO UT
8 25
Ġany way
wake up
ä» ¥
Ġclo ud
Ġs ense
Ġl hs
bb er
ir ing
ĠAc count
pre p
09 0
å ¿
l ined
ĠC I
pred ict
~~~~ ~~~~
az ure
Ġrot ate
con sume
G ot
ĠST ART
F ri
Ġs parse
SS H
ĠCh anged
Ġappro x
Ġo dd
query Parameters
b idden
YX J
Doc s
rows ers
Pro j
get Base
ĠS leep
sc pexpr
`` ,
k r
Ġre use
Of Week
de serialize
ĠTH REE
Ġdefinition s
Ġt ax
single ton
ĠTw ig
Ġa f
MA IL
get Location
ist ency
ĠCOM P
IN ED
Ġres ume
éĹ ´
p du
Dig its
Ġinterface s
[ {
is r
=" '+
Ġcho ose
ore map
Big Integer
De p
Ġpack ages
ĠDes erialize
ĠSt at
× Ļ
} '.
is ation
d ac
ig rate
Analy zer
([ \
stit ute
be an
åį ķ
New Request
02 5
Ġm u
get Date
A udit
rec ip
ad o
Ġ( {
Ġg em
ay stack
={ },
Art ifact
ĠIX GBE
tt l
å §
A ri
de t
Recommended VMSize
la unch
ĠIS O
kele ton
Ġf close
std in
P W
Ġif ace
Ġsk ipped
Ġhook s
ĠErr Code
lo ut
Ġex panded
ĠBO OL
Ġst roke
ĠIN TE
d istribution
ĠI List
ĠP S
author ization
Ġattach ment
Ġn x
Ġfig ure
L IGHT
M vc
to s
ref lection
rece iver
ĠWR ITE
$/ .
Ġis l
Ġan onymous
ighb ors
Ġconvert s
p assed
Ġb roadcast
ch rome
R m
Service Client
Ġq t
Ġinit ializer
e i
Associ ation
Ð ¡
Index ed
Ġlog ged
scal ing
Ġclose st
qual ity
po ses
Ġassum ed
ĠU rl
Start Marker
Bind er
Ġe as
Ġin cre
į ç½®
Ġshort cut
Ġcoefficient s
æ ı
Marshal er
L etter
add All
Set Error
E qu
Time Span
A verage
Ġb d
)) ),
to a
Ġf x
IT LE
e per
17 0
coun tered
ru pt
be acon
Ġpro duce
R SS
io base
Ġm td
Ġde limiter
Ġs olver
add ir
case cmp
NN P
/ ><
AL G
Ġj oint
Un i
Rep orter
ĠSc ale
pp os
AR B
Re cipient
Ġac cepted
Sign ing
lo rer
Cl amp
] *)
**** *
ĠB uff
ra id
3 000
Com press
ĠR CC
bt Scalar
n Z
QU ENCE
Ġdebug ging
Ġar c
Or dered
Ġ6 55
({ '
tr ac
get s
ĠP PC
UL ONG
S a
Ġll db
Ġ* **
ĠSe lection
En ergy
Ġc ategories
ĠS PE
ĠS em
MI ME
ord inal
k top
Ġimport ant
åĪ Ļ
10 7
r dma
Î ¹
Ġpart icle
Ġpri ce
X M
de sign
g ray
As pect
Disp osed
ĠC T
reg istration
last IndexOf
Ġvar ious
3 64
ĠD ialog
ĠO pc
Com pression
bos ity
Ġstate ments
pth read
ĠNote s
Res p
AM D
m al
n ick
Response Writer
av atar
her ited
çł ģ
Ġan alysis
ge e
] []
Ġr m
ram er
i S
F K
Qu ota
ĠA UT
Test Suite
Ġ( ));
ĠP ush
AB I
Ġnumber Of
M ut
W heel
b dev
get Method
Ġleg acy
lic ense
Ġmode s
ch ant
n pc
Ï Ħ
et ched
x r
Ġb at
ss i
Ġa err
Ġstop ped
post Body
Q R
ph oto
(?: \
Ġde ployment
AB ORT
- ]+
ub ic
IH tcbiAg
U k
can onical
PRE C
p Y
http Request
+" /
ĠC ulture
s pacing
spec s
Mg mt
Hash Map
à¤ ¿
_ :
Ġh ighest
ĠB ind
sector s
Decor ator
sys nb
n oc
Com parator
W AY
errupted Exception
Ù ĩ
Ġm igration
ĠP rivate
q a
Ġsequence s
Par agraph
- (
ren d
ot ing
Ġint r
Ex panded
s olver
part icle
Ġ ray
Ġa i
ĠA ssign
Ġref er
R v
m anaged
met ic
ĠA B
ĠĠĠĠĠĠĠĠĠĠĠĠĠĠĠĠĠĠĠĠĠĠĠĠĠĠĠĠĠĠĠĠ ĠĠĠĠĠĠĠĠĠĠĠĠĠĠĠĠĠĠĠĠ
By b
armon y
bl end
Cap s
ind ic
Ġchain ed
ĠC G
ĠF ast
Has Key
qual ified
E sc
e qu
Ġde sign
Case s
ys q
Ġpre view
VE CTOR
f q
b la
Get Method
host s
Ġh older
Ġe asy
que e
Gener ates
9 00
Ġc n
Ġreg ions
ge om
åĨ ħ
Ġembed ded
Un re
Op Codes
q os
Order By
Regist ered
is In
(& (
Ġspecify ing
ĠLink ed
comm end
# [^\
ĠT imer
*/ )
il led
Val s
," %
pol ate
Ġs pe
ĠT itle
Ar m
SC HE
sm c
ĠSh ort
Ġas m
defer red
ip hy
ms leep
b ination
Ġp retty
ob server
Ġgener ates
à °
sd l
ST AMP
Click Listener
Ð¾Ð »
( <
ve locity
ĠP ER
ì Ŀ
Ġ* ************************************************************************
SE ARCH
Ġat oi
call er
sk top
folding StartMarker
ver al
Ĺ ãģ
Ġs lim
IN C
Ġdescriptor s
Pro be
At tempt
ç¬ ¦
interface s
(" @
ĠE FI
page Size
N ano
Section s
Ġpattern s
ivers al
ĠA re
! ="
(/.* (?=
c mb
Ġtrans mit
ul er
End Of
assign ment
Ġso v
IN ode
Ġcho ice
get Title
ĠS ha
Ġit r
bu ilt
ph i
Activ ate
Answ er
m ach
Ġ'\ '
Re quires
(/.*(?= #[^\
ĠA ws
Ġl d
D rive
ĠH andler
Watch er
- ",
Ġtw ice
ĠY YYY
ag ate
Ġclient s
C od
N OP
Ġ1 50
List Options
lex er
ĠM LX
pret ty
DU MP
J B
Ġ" .$
ĠInter face
s chemas
" ][
ĠDo es
Ġup grade
sd p
Q E
sd ay
l bn
St udio
get Parameter
C ARD
]) <<
pp c
set Visible
token izer
**** */
Break point
code mirror
Format ting
] ){
z o
Ġn t
bo th
RESP ONSE
un ication
Ġread able
Sp in
u fact
constraint s
in uous
Ph y
, )
r h
ĠP lace
L d
ax es
start Time
con version
ĠM SG
ms r
ĠMachine BasicBlock
p H
=" %
Ġkey board
ĠAMD GPU
DeepCopy Into
SPE C
Y es
od ies
Ġst a
ĠRe ader
o ve
Ġlocal es
im x
Ġ1 20
] ==
4 000
S MB
i op
Ġcar ry
ï¿½ï¿½ ï¿½ï¿½
l li
Ġm asm
20 10
Ġtre at
Z k
Ġf m
Ġh s
ĠK ind
Ġsend s
() /
Ġth us
ĠT urn
Al ready
R ename
CONST ANT
vers ation
Ġpro cesses
Ġ= ~
w f
Ġnot ice
PRI ORITY
ĠG D
" ?
get Bytes
(); \
SECON DS
IG Z
Org anization
B one
h Wnd
ad apt
Pre cision
pop ulate
RE GE
bt Vector
up grade
Exp licit
Ġt abs
Server Response
Ġf a
Ġtra cing
SE G
cm F
f uzz
DE ST
ĠExt ension
ĠC ook
C X
or n
( /*
Ġ ctl
al go
ĠC ell
ph ba
L icense
v h
CAP T
REQUI RE
CT P
äº Ĩ
W X
con tract
WE BP
ĠAct ivity
is l
Get Item
igh ted
é ħ
ĠF act
ĠCon struct
Ġp cm
s anitize
Key words
Ġ3 8
] ].
vo te
Ġnew ly
AB AB
un checked
MAR K
Or Create
VO KE
MA STER
Prom pt
pos al
) _
F ooter
Ġa udit
get Tag
ĠS um
"] ').
IN V
Ġp alette
cl ang
mem cmp
ĠMA SK
get Comment
second ary
B w
Get Bytes
SET TING
ĠArr ange
mp i
Wait For
TR I
$ )/,
ĠFor ce
Ġtransaction s
Ġslot s
Ġv ocab
pa res
5 000
D ST
in verse
hi er
Ġscript s
w ater
coll ision
ver b
D ocker
i ator
Ġo thers
We ak
get Style
ĠM etadata
qu eries
ĠD ump
c data
t inymce
Add Range
åħ ³
Ġo cc
Ġco ord
subscription Id
Ext ent
Ġs sh
ĠG en
Y A
p ch
Ġrep la
ibr ation
new line
ms i
ĠSet ting
lo s
Stop Marker
P DF
ff t
pl ist
l Y
Element Type
Token Type
tun er
Ġix gbe
Ġin vocation
ĠCal endar
Ġsent ence
() ):
Ġv id
Ġch anging
g v
Ġb racket
Send Message
={ };
Ġsh own
Ġcor ner
ĠC allback
W HERE
Ġg uess
C c
local s
ĠDeepCopy Into
Ġun able
insert Before
ĠRET URN
ific ant
B RE
} ));
æ ¨¡
Ġs py
SI L
AC CEPT
From File
Ġ' |
ynam ics
Ġno ise
TH RESH
O O
ri ces
Reg Class
ĠIs Set
f time
bucket s
un wrap
Ġif rame
DR IVER
Ġex amples
Ġph i
ibl ings
c ertificate
is Active
ic ult
read only
F ade
ĠG MT
re loc
ĠCh ild
set Style
contains Key
Compare r
Ġb io
p Data
Ġ|| =
: ");
ur a
Inter preter
f raction
part ment
Ġpo ssibly
Ġt ar
Ġassert ion
dis card
Ġel apsed
Re peated
d pa
Re start
Context Menu
Ġsig ma
Ã ¼
us pended
J Q
j Z
p seudo
get ID
)) },
)| (?:
t urn
Ġremo ves
= */
Da emon
($ (
lin eno
" `
pe ction
apt cha
DIT ION
Ñ Ī
pers istent
l ane
et imes
Ġp itch
ĠP lay
') {
Descriptor Proto
ĠL ive
web site
PRINT F
ĠCommon JS
folding StopMarker
* ',
IM IT
ĠF E
à¤ ¨
H over
log o
Ġ ens
Ġn ullable
Char Code
Ġarbit rary
s ynchron
ch own
), "
Ġc rop
Ġl v
Py Object
H ierarchy
par ing
space s
] ||
decode d
d G
Get Int
Pack ed
Ġtri angle
V N
' }}
ap d
mo ving
pect ive
Ġ20 12
Dlg Item
ĠDep end
Ġst e
revi ated
Ġcom bined
Plain Object
H F
t body
ç» Ħ
Ġ5 9
get Response
n z
Ġn la
Ġ}; \
ĠHe re
P ow
Ad apt
ĠNot ify
invalid ate
assert Null
Url s
COM Ptr
} };
Ġ' ='
ve al
) <<
set Default
Ġun supported
Ġdis card
Be Null
to c
Z WN
associ ation
('. ');
A cl
get Image
Ġmo ving
y a
er g
fo ur
J U
al one
Ġt ls
ĠS R
ĠAssert ion
Ġbuild ing
f rac
ä½ ľ
M ach
set Color
Ġav g
pred icate
ĠMarshal JSON
ĠGUI Layout
çĶ¨ æĪ·
Ġtre ated
MEDI A
ĠE ffect
ĠG it
Slot s
DIS PLAY
REF ER
Ġtim ing
Ġf reed
Reg ular
account s
Ġpar agraph
P ing
iow rite
ĠU sing
E valuate
f re
ĠO MAP
ĠByte Array
à ½
IF ICATION
Second ary
0 11
get Is
ĠSpec ial
[' _
B W
Ġp df
Ġc ent
Th rough
) })
Ġ4 4
Present ation
velop ment
å Ļ
Ġ" ]
yst ick
Ġident ical
Ġb ridge
Ġget Type
CR IT
etermin es
Ġview s
? ",
Ġ5 6
Ð¸ ÑĤ
ĠO GR
link ed
éĩ ı
; &#
Ġo bs
toggle Class
Ġrep resented
ĠAdd s
WR AP
m Z
gram mar
Ġsu itable
be haviour
Ġt l
um per
Min or
PRIV ATE
j j
scroll Element
scroll Height
è¿ ĩ
Ġiter able
Ġda emon
/************************************************************************ /
M PEG
a res
ir th
Stream ing
rok ken
V endor
q i
Ġor ientation
T enant
Ġw char
Ġindex ed
vis or
K SB
get Model
get Indent
ĠC PP
ĠF lag
min us
fix up
Ġre ported
br ush
Comment HighlightRules
n om
Ġ*/ ,
Ġcop ies
OutOfRange Exception
u ary
:[ ],
recip ient
Ġla zy
co ordinates
ĠP o
Has Value
C andidate
ab uf
s alt
ĠE INVAL
OPTION S
WEBP ACK
add Action
T k
x h
Ġi w
get Y
Ġact or
g db
fix tures
relax ed
// !
Ġg rpc
Q s
d vb
cons istent
ç º
Ġformat ting
L l
Ġdis connect
rb d
). '
Ġrun ner
cl usters
OP E
Ġb roken
Dis connect
ent ially
Ġ" ("
Re m
AL T
X Path
h ar
Interface s
Ġve locity
Ġfilename s
Ġus ually
So ap
int Value
addr s
Ġcon sume
Net Device
vide s
Func s
å İ
Instr Info
Ġtemplate s
num bers
Ve hicle
Ġns COMPtr
H ID
", !
(' "
Delim iter
Ġne ar
ĠInit ial
AP TER
ĠY ii
Ġ* \
ĠM UST
no op
Ġs quare
of day
Ġstr ategy
import ant
ĠSet Chr
b re
en te
D rv
Ġs cheduler
Ġb w
à¤ ķ
Y U
Bus y
H U
S uggest
Comp ilation
e X
P X
Ġre peated
Ġflat ten
unre cognized
th umbnail
Port s
ĠLoc ale
è ±
add resses
ĠB ound
' ");
> >(
l vl
Pro tection
ĠExp and
str dup
/** */
Ġauthor ization
I j
ĠRe store
Ġn avigation
Ġ', '
M igration
Pack ages
et ag
Z C
ĠAuth or
M ENU
E CD
SING LE
Ġm is
Ġw c
imag ick
+ ".
; ");
Ġ{ !
SY MBOL
ĠLO CK
Ġand roid
ĠO RD
Ġup dating
M ixed
Enumer ation
Re cent
tun nel
e ql
Ġx x
IC S
Ġsc aled
ufact ure
ad oc
Ø§ Ø
en g
Qu oted
Ġpre c
('_ '),
ĠA M
t ap
Ġex pires
de cess
ul ative
Ġg ui
ĠM eta
HO O
j ul
Ġ0 1
Ġt ries
P KEY
place ment
annot ations
PK T
ĠSE LECT
Ca ption
/ _
ĠC md
Ġs id
ç ®
Is Enabled
vm x
Document s
ĠO ld
Cal lable
IZ ED
Ġle d
VERBO SE
gorith ms
M icro
get Query
m os
Ġb m
Ġencode Varint
G reen
ret t
Callback Impl
get End
effect s
sc anner
.. )
****** *
Ġaggreg ate
8 01
c ancellationToken
e asy
Ġexp ired
è °
Ġprob lems
ĠSI ZE
Ġmin ute
Stop ped
Ġdepend s
is Object
Is In
Ġgo es
trans lator
RE MOVE
ĠAc cept
ĠF etch
block ing
Ġconn ector
g adget
Ġf lex
Leg acy
text Content
GR AM
G ain
10 5
Ġsc aling
ĠO B
Argument NullException
O i
S US
b ian
T urn
at tribs
th eta
get Result
Ġdetermin ed
Ġre load
nd array
Ġgu ard
Ġx y
Effect s
al ter
ĠCh ain
ograph ic
Ġd ocker
('/ ^
23 1
åĻ ¨
time ofday
wait ing
In former
Regist ers
I CT
Widget s
v fs
assert NotNull
lf w
Det ector
Ġrad io
Ġs pawn
Work ing
par allel
ĉĉĉĉĉĉ ĠĠĠ
SK IP
* $
ĠTR AN
Ġw r
ve mber
| $
Ġa ffect
Ġh id
(? !
P olicies
ap pro
gs ub
default Value
Iter ation
ĠG R
ĠBasic Block
PRO FILE
HAND LER
Ġs x
add Reg
ĠA sm
Work Item
ãģ Ļ
36 0
Ġm r
inter sect
Pref erred
ĠAd just
Ġ ig
get Url
ĠP ri
l it
Ġconvert er
77 7
S OL
Ġf ault
Read Int
ĠSO CK
ãģ «
Pop ulated
UST OM
Ġg d
ZX R
ĠIllegal StateException
IFI ER
L ittleEndian
ĠMachine Instr
Ad res
A Z
min utes
Ġnon ce
éĿ ¢
Ġ ì
v ic
icol on
c err
c alloc
write Attribute
Ġview port
Ġf aster
st p
ul ary
a co
col lapsed
st able
w ide
or ient
SA VE
re view
hold ers
riter ion
c G
L RS
Ġloc ations
CO UN
= ['
E LE
u u
AD MIN
DO MAIN
st one
er ical
Ġt bl
AT FORM
ĠBinding Flags
C ut
z i
Ġs ay
Ġquote s
to o
" (
C op
cp s
W k
Ð¾ ÑĢ
T d
RE PORT
Ro utes
Ġ[ (
ĠMath f
pm c
N PT
W ater
sc l
PEND ING
ĠId entifier
b ond
q la
tem ber
MI I
Ġre cipient
HAND LED
D UP
yy y
Ġpa use
P ose
ĠIN VALID
Prepare r
ĠB M
ä¸Ģ ä¸ª
Ġpie ces
Ġ{ |
igr ations
9999 9999
AT ER
ens it
a id
lic as
dec ay
Q y
V H
get Block
Ġn bytes
E v
Ġb ulk
pos itor
String Builder
AV AIL
: </
= |
Ġorder ing
ĠSC SI
pp ers
Ind irect
IH J
Ġatt ack
vi te
Ġstream s
Ġn i
Ub untu
O pc
N LS
check point
f close
p as
un g
Ġin et
ĠW ire
feed back
ĠL ex
Open GL
ĠF lush
Ġstruct ures
emon ic
i Xml
Ġ" ).
Ġm ach
ĠP ower
ĠB atch
cr im
Ġp at
Ġl b
: ',
ir med
é¡ µ
Ġr nd
Ã ³
al lo
Error Type
=" +
As sets
style sheet
Comp atible
è± ¡
ĠI m
H OR
ĠConstant s
m ut
)) ));
MODE L
ĠD RM
comp any
number Of
ĠS S
pro tect
Fore ground
Ġsecond ary
Ne g
cor ded
Is Any
el apsed
Ġl m
è® ¤
ap ple
abs path
ch dir
09 3
Dr upal
reg ulator
Pro cessed
Sh op
scroll bar
Place ment
å§ ĭ
for k
çĽ ®
remove EventListener
if ted
| [
Ġg ap
warning s
Ġbe comes
======== ==
TRIG GER
Ġco untry
M ips
Ġtarget Depth
F Z
Ġre mainder
ON ENT
Ġindic ator
ĠC SR
ĠB U
Raw SockaddrAny
Scroll Bar
C ERT
cn ic
Tri p
them es
new Instance
Ġso ap
ar win
pc b
view port
ĠB undle
Random Variable
ĠT A
Ext end
Ġfollow s
work ing
R h
M id
j h
Ġn to
ateg or
ff e
Ġsucce eded
get Body
com bine
ĠSe quence
Ġreject ed
ĠAnd roid
å¦Ĥ æŀľ
Res olved
], [
ĠL anguage
loy ee
æľ Ł
ĠCON F
Cal c
Ġul ong
ynth etic
Ġ ER
×ķ ×
Ġd n
ĠT LS
"> \
man agement
SER IAL
Ġaws err
M IC
p V
< -
Pos itive
d uplicate
Ġcl amp
Ġp en
Ġcount ers
Ġpack ed
Full Path
Place holder
S ucce
ar s
Pointer Exception
z u
Ġdocument s
19 0
sel ves
RE AL
if old
ate ver
Ġre levant
ast ype
Ġreg ulator
BO OLEAN
ĠCook ie
Ġp ll
On Error
Embed ded
LE EP
set Header
rss i
In Progress
we et
ĠS n
ĠS cope
ac quire
Ġpr imitive
CH IP
s olution
ĠString Utils
x en
Pro cedure
Ġqueue d
Ġca uses
Foreign Key
man age
(" ")
S parse
æ ĭ
de ploy
Al ways
ing ular
Ġde coding
Q X
|| !
face s
Math Jax
Ġc od
IH Ro
B X
Ġ> ::
Ġcheck point
Run s
s cores
position s
an izations
04 42
SS ID
Method Impl
mask ed
Ġde tach
ĠM AP
Pro viders
Ġs un
s ampler
DISABLE D
IMPORT ED
ĠUnsupported OperationException
Ġdescri b
ul us
ĠORD ER
ä ¾
() \
mo used
ME MB
Ġstr cpy
Ġq emu
Ġde ploy
D OT
Ġdir s
M a
ĠC ould
ced ence
mer ged
end ant
sh ipping
Co okies
Ġfail ures
Pl ug
Co ordinates
wl an
st ype
Ġ# =>
pred iction
A SC
ND ER
publish ed
G PR
T UN
av ax
Bl k
ĠRet rieve
OD Y
auth entication
Ġoption ally
Ġwi ret
it ation
get Status
ĠT ile
Ġtest ed
Ġo pacity
ĠS oft
ä½ ¿
h ind
av ctx
p ure
ysq li
4 01
D J
Ð Ł
ol ang
DI ST
b race
v addr
Ob servable
al ready
Ġlp fc
Gu ard
Ġsub set
Prob lem
Ġc ourse
ĠM ODE
SUC CEEDED
Ã ¶
To Object
Ġrespon d
'' '
é »
av adoc
Out line
trans pose
od b
R H
R k
Ġe ver
ĠN T
200 8
Ġh p
Ġbe come
Request Marshaller
Al bum
u ve
ch rom
Ġrout er
Ġcle ared
Ġco ver
get Session
mail box
ĠSTR ING
m ce
namespace s
F ONT
Node Id
as p
B AA
D G
is Not
are r
Media Type
ant ics
Ġat tempts
Me an
B LE
Inter ceptor
Pattern s
ĠT mp
F LASH
T ake
event Object
new s
Ġ<< <
offset Height
ĠOp code
C RL
ĠPack et
n sec
Ġlim its
N k
Ġr tw
ĠR ole
BO ARD
// #
Ġn av
ref count
Ġde al
fil p
èĩ ª
p res
Ġcal culation
Fil tered
Ġpot ential
Ġc sv
AL I
+ )?
G FP
Ġp reserve
ĠC RC
qu it
get Index
Ġse veral
Ġph one
w ra
lookup s
L ifetime
Ġmap per
ĠT otal
Ġpro t
ED GE
A WS
á »
Ġget Default
Ġman agement
ĠBuff ered
b enchmark
ar ange
Response Unmarshaller
tp g
scope s
Ġsepar ated
ĠEditor GUILayout
ĠO ps
Ġen cryption
W ay
Ġ" ),
67 08
sy mlink
Ġcomp ilation
f use
æ µ
pattern s
. '.
Ġin herit
Ġ1 000000
âĶĢ âĶĢ
z ier
em o
p or
E lapsed
ĠCur sor
S un
Ġapp ended
COM M
md b
Web Kit
ĠCH AR
Ġstruct Pointer
Trans lator
bit rate
j p
inter p
Dem o
ĠRef lection
} ".
attach ed
JS Context
index ed
cap abilities
alle st
L CD
e ase
lock s
0 12
is String
g ICAgICAg
AC CE
pre ted
Lo ss
G a
fo pen
200 1
St encil
Ġ3 7
=" ",
SE QUENCE
d ro
WH ITE
] \\
im ated
pr im
([ ],
cy cl
ma ss
ĠRe p
B ulk
int ent
cal cul
Activ ation
x m
get In
2 20
De ploy
P ED
T erms
sh ips
Ġenumer able
Ġc ircle
hl js
ĠCulture Info
R FC
z t
FI LEN
Ġart ifact
Ġf lip
and atory
Ġcons istent
l Z
ĠA X
exp licit
Comp at
Data Provider
ĠR ight
Mo vie
FR AG
tl v
`` `
ĠBlock ly
Ġra ce
l h
st ation
th esis
FF F
Ġcondition al
åº ¦
at tempt
ĠDI RECT
ĠAl ert
DR V
66 59
s low
ĠUn ix
76 8
fe e
O id
TR ACK
W xl
tr action
L G
åı ĳ
Ġpre ce
Ġe g
Dec lared
REMOT E
- *
C rypt
MI X
================================ ================
Ġassum es
ĠFUN CTION
ĠG PU
re peated
Ġe valuation
f irm
as sembler
Form ula
g reater
ag ram
ter y
en crypted
dl m
Illegal ArgumentException
Ġwrit able
Ġsp in
: (
sub s
uto ff
Comp ressed
Ser ialized
Ġannot ations
co lour
F REQ
Ġhold ing
array s
O SS
p M
ĠB ar
ĠH igh
Thread ing
Ġ( ~
set Up
CALL BACK
åĮ ĸ
Ġ ×
or al
æī Ģ
Quote s
ĠF C
Ġ3 9
Ġn or
%% %%
3 04
ĠS EEK
CK EDITOR
Assignable From
T ol
s omething
info s
tep ret
elem etry
re pr
Ġmo v
Selected Index
Rep lica
"] :
Rel ated
Get Component
Ġp asses
ĠQ Variant
Ġ{ :
Clip board
Check box
CT YPE
Co ins
Pix map
context s
à¤ ®
D w
Ġis o
Ġg ives
ĠS ite
T ITLE
date s
"} },
Ġ---------------------------------------------------------------- ----
Ġ4 096
R z
ret rieve
ch g
Vo ice
è ĥ½
SD Node
å¯¹ è±¡
Tr unc
order ing
Ġmod ifiers
tx n
rep orter
ĠC AI
æľ ¬
ĠC LI
à¤ ¸
ĠEx port
FL USH
quote s
L and
X IO
Ġs alt
k y
Ġ... )
Ġtol erance
Sn ippet
Ġd rv
start up
User Data
FILE S
1 12
Ġget Value
Ġreg ard
(" (
', \
'), ('
ĠNo Method
å »
Ġco lour
W B
Ġb nx
comp uted
tl b
8 192
S OFT
final ize
c lazz
REG ION
Web API
dat um
Deep Equal
ĠL IB
"/> .
Ġstart Index
Ġinter n
Clo ser
prod uction
Brace Outdent
x z
Ġnv km
Ġ' !
Ġr id
n B
ĠT II
ST E
Ġ` ,
interrupt ible
Ġv x
r st
Ġp ivot
G ap
ang ent
ĠĠĠĠĠĠĠĠĠĠĠĠĠĠĠĠĠĠĠĠĠĠĠĠĠĠĠĠĠĠĠĠ ĠĠĠĠĠĠĠĠĠĠĠĠĠĠĠĠĠĠĠĠĠ
Col lect
Ġund o
Middle ware
Ġ' ->
C ENTER
Ġdescri bed
ĠByte Buffer
PATTER N
æ ±
new Row
Change Listener
æĮ ĩ
uve au
compar ison
: ")
ĠMock ito
Ġlarg est
special chars
Design er
P k
Ġ(( !
} \"
aa a
ĠPIX EL
i ans
ex ponent
ĠEX IT
b trfs
Ġis Valid
x el
st ock
Ġpref erred
b pp
| ^
b ssid
Comple tions
striction s
Ġar row
alar m
Get Property
Bu g
o ken
s cheduler
ld ap
I K
Read s
Hook s
G lob
{{ .*
Respon der
debug ger
Ġqual ified
T s
AL EN
Ġhow ever
pers ist
ĠT erm
V ED
Ġm mc
ĠC X
By Index
10 8
Ġp ress
ĠL HS
Ġen countered
Ġ'_ '
Absolute Path
p O
Ġas pect
ole te
ĠAr ch
en et
Ġ2 50
END OR
tepret er
ĠPL UGIN
Ġreg map
'] []
? ,
ind icator
Drop Down
De leg
oct et
v in
var iance
Pag er
ENT ITY
ub er
add Column
Ġsystem s
Ca use
P seudo
Ġth ink
get Arg
C ANCE
Ġq s
Service Name
z il
de lim
Ġd up
ĠSha red
n N
Ġ ][
ĠSh ape
ĠExec ution
gr unt
Ġtrans formation
ed er
Ġg amma
Ġear lier
string stream
Ġen crypt
stand ing
Ġrespon s
PIX EL
r nd
IC MP
E AGAIN
ir s
An g
* ?
S z
PR OB
Ġ) (
Ġ($ _
tmp l
en ance
Ġx range
Time Zone
sd k
Ġce ph
+-+- +-+-
ĠP P
IP HER
| "+
get Month
ĠAt tach
Ġback wards
bind ings
Ord ers
a ug
TR ACT
$ ('#
F V
log ic
ne igh
Mon ster
gu ide
er c
ĠQ ByteArray
Ġg s
md io
Exp iration
ub untu
ile s
tr unc
Flag Set
=> $
Fac et
T od
AP PL
compos ition
in vocation
Text HighlightRules
C AM
Ġmod al
get Cursor
In tepreter
ac cel
A SH
L in
Ġf abric
ĠAl ways
cg i
ol ar
ĠC ancel
ĠEd it
Q j
Ġ7 0
Fold ers
Primary Key
IG NORE
Ġd ns
back trace
ĠJ c
Has Prefix
ĠAtom ic
C x
G rammar
ipher al
co exist
Ġto do
Re load
Ġdecor ator
à µ
Ġali ases
__ ('
File Sync
Text Node
ĠBo x
F ER
Ñ İ
Ġp ch
Sw ift
D ark
set Content
qu ota
get Entity
cl Zip
Ġget Instance
ĠR ot
åĬ Ł
> ')
get Hours
Web Socket
ac le
ZW F
b id
Ð¾Ð ´
Cor ner
)), "
= ["
th ree
Ġr te
ĠO Auth
par s
Ġrelease d
JNI Env
ĠD st
Ġmark up
Ref erral
Ġlocal s
priv acy
ĠCon tract
DEF INED
J un
(" </
update s
P ic
IH N
Com pany
n w
G Y
n os
ĠSt atic
S omething
Return Value
ĠCl one
ĠE LF
åĪ ł
Ġskip py
h g
ĠP ATH
OK IE
ĠÐ ´
el en
cap ability
Imm utable
Ġad apt
R OT
() ");
Spec ification
c ritical
bs TransitionEnd
ĠDe ferred
S X
tot ime
>( ()
Ġdraw ing
Ġdw arf
ĠPro file
ch arg
ĠT e
Ġtrans lated
L j
x sd
st uff
es Module
ĠW ITH
iagnost ics
LAN G
Marshal To
) %
er as
Ġro utes
Schedule d
10 6
Pa inter
Wait ing
æ ®
Read Write
ĠÐ º
ĠC UR
_ $
Ġm f
ĠRE Q
gt k
Descriptor s
ĠGener al
int p
Ad vanced
Ġresource GroupName
Ġproperty Name
Sp here
Tra in
Byte Buffer
moused own
ĠI I
No v
) });
d umps
get Pointer
ãĥ ³
Angle s
New Error
B SD
Ġcomplete ly
l us
; //
Q z
in ally
ĠA E
decl aration
bo unce
Date Format
on load
an cy
ÐµÐ ¼
m usb
Ġoverr idden
currentTime Millis
indic ators
: \\
H K
Z z
Ġsim d
Port al
f ol
ar ations
Ġn at
par ms
)} ),
H istogram
v ue
OR AGE
) +"
h x
å¼ Ģ
â ķ
è µ
sub tract
Par m
Exec utable
PHP Unit
dash board
ĠC ategory
ĠDef ine
set Current
M W
db l
phy dev
Aggreg ation
8 31
da emon
Det ection
IS R
ĠFact ory
C e
Ġt ot
Sub target
32 0
Sub scribe
" .$
E VT
Ġv t
ĠM aterial
enumer able
L IC
LOC ATION
" ":
SI MPLE
om p
Ġc atalog
as pect
md p
Small IconUri
Group Id
separ ated
C art
D TO
String Len
in voice
sh m
ĠFile s
Asc ii
With in
ĠCheck s
09 4
Ġpost s
pear ance
è° ĥ
er ator
IN LINE
Qu eries
ex tern
Code Attribute
ĠC FG
pos er
S izer
Ġlo ff
Ġeffect s
FOR CE
Ġtim ed
ĠE l
Ġpay ment
) (((
Ġl icense
Rec order
in vert
Ġnamespace s
ãĢĤ \
å½ĵ åīį
Pro files
Text View
OP ER
d on
ĠC ODE
Buff ered
F m
xFF FFFFFF
nowled ge
In sn
Ġv endor
ĠT imes
N t
vi al
sh int
Convert s
Â ł
Ã º
Ġinter ceptor
ĠW ill
connection s
TR UN
Ġback ward
Ġoverride s
M utation
") ?
DR AW
J q
Ġfile Path
() ==
cre ation
vi ct
Ġg db
AI LED
s mbus
Ġre cover
I OD
Ġbit cast
Ġtool s
PAT CH
Edit able
ĠR UN
jd Glvb
in ja
J IT
mod ifiers
des ired
MM MM
ĠTime stamp
C tor
áĥ ĺ
pe m
hs otg
Ġcollection s
å¤ §
åĪł éĻ¤
Ñ Ħ
ĠI ND
Ġsl ider
re write
add Listener
b W
ĠR S
ç İ
Ab out
Page Size
sig ma
Ġ3 60
Ð°Ð ²
a verage
In jection
ĠN amed
Relation ship
Space s
NOT ICE
ĠAs set
C ube
c ern
mask s
ĠCl uster
n function
ĠB l
ĠL ED
uc ene
Ġde ps
dev s
Ġint ended
S ales
Ġind irect
Ġcom es
INTER VAL
Ġp ts
ĠFunction s
P kg
SA S
Sp ot
c sum
ĠA N
ĠB rowser
PK CS
Ġoptim ization
Ġeps ilon
Ca ret
sp ot
ĠAr t
à¤ Ĥ
Region s
Sel fer
N AM
(" &
M illisecond
] },
n bytes
ĠP H
print er
cho ices
Cap ability
ĠW C
game Object
Ġr q
Could n
pipe s
tom orrow
d ss
Ġ& _
E valuation
H OME
N W
un load
Ġ> (
ĠRun nable
I am
Ġnorm ally
Min ute
Ġg row
imp licit
M enus
ou ch
88 59
Ġform ula
ĠSource Location
ĠComple x
Ġb h
fe at
An ce
P assed
Ġer ase
K X
Ð ³
ĠV ideo
Transaction s
Ġ} }
Ġstart Time
ch n
INTERR UPT
Ġge o
http Response
çĶ Ł
Ġ9 6
c laim
Multip ly
En velope
äº İ
Ġbe g
imple mented
One Of
Ġin i
Depend ent
phab et
WAR F
assign ed
icip ant
Source Map
ĠI W
Ġd g
om inator
ĠPop over
Ġd ropped
ĠC Base
N Z
Ġ` $
H istor
jk lm
Ġ' (
Ġload s
ven ience
ä½¿ çĶ¨
Ġre cursively
pro f
add Widget
BO OT
remove All
10 9
find er
To File
D etermine
p mlme
Ġe fx
check Outdent
Ġexec uting
YY YY
ĠErrInvalidLength Generated
U t
Ġt st
Async Result
ĠVis ual
Ġf o
/ ****************************************************************
de veloper
quest ions
st ors
EE PROM
Ġvis ited
Ġte gra
b cd
r us
id r
Ġr w
Log Level
ĠDE SC
CE V
F w
PRO JECT
x k
Ġbefore Each
Ġinvalid ate
Pre set
> *
work flow
E cho
YX Rl
GT K
? ");
Ġsub class
get Document
Re v
Ġim ported
ĠLOG GER
ifi able
definition s
get Root
pro jection
ĠEE PROM
ãģ Ħ
('/ ',
Ġdec lare
ol r
Ġtuple s
Err no
SC REEN
m is
la pping
Ġr val
Ġpro cedure
NOT E
Ġt k
block size
p refs
R ating
ĠI ss
Attach ed
ĠN DB
SE CTION
C pu
Ġ0 2
Ġpar ses
Layout Params
Load Balancer
Ġun marshaller
ers core
Ġlo ops
Ġrelated Target
dap m
V Z
il io
ĠC B
ĠSQL ITE
parse Float
J z
å Ĵ
FIX ED
Ġqual ity
- "
Create Instance
è¿ Ļ
ho od
M z
ç ´
ĠHe aders
i ated
ĠI T
type Name
Ġpath name
lo it
Ġh l
table LayoutPanel
ĠAP Int
is csi
ĉĉĉĉĉĉĉĉ ĉĉĉĉ
Type Info
U W
R aise
u A
Column Name
Ġl r
ex change
ail y
compare To
> %
c map
We ights
g x
y ond
ag o
ĠS A
ĠPI PE
prob lem
TR IES
P DO
Ġfield Num
ĠReg ex
:" %
co herent
Des ktop
sub type
åı ·
)) *
ç±» åŀĭ
n avigation
Ð ¹
In verse
velo pers
) ')
Ġpol ynomial
ĠP tr
EV P
c uda
rett ify
P s
12 1
ĠId x
ĠU LONG
O E
B IO
I METHODIMP
r port
M ISC
IF S
(' ../
ĠB IO
Ġset ter
k bd
CP P
Font Size
n api
Ġfield Name
Ġparent s
Ġ7 5
Ġenv iron
um ented
Col lapsed
Resume Layout
Ġw ave
tmp dir
RUN NING
add Element
DI AN
qr st
tol ua
Ġfunction ality
Ġg ateway
ĠCon st
Ġgraph ics
Suspend Layout
ĠT M
ĠEx pect
Get Next
============ ==
Ġb one
In ject
read cr
Ġs cores
DB B
phys ical
Ġord inal
C s
Ġf g
check Position
ĠF AILED
Ġh al
Ġ` ``
201 8
=\ ""
F Y
get Connection
( ;
ers hip
Ġcom bine
201 9
rag ma
| %
Attribute Checker
v Ly
Ġp eek
Ġ" //
ĠW LAN
Ġstr n
r ust
on us
or a
ĠF R
req s
New Reader
VER TEX
T m
dr upal
Ġpers oon
Instance Ptr
Plural Rule
ACTIV ITY
Ġexpect s
F o
E s
æ ¬
Bu iltin
G tk
Ġsc anner
S ynchron
b ag
io unmap
DI M
equals IgnoreCase
AL TER
cal lee
ĠP SU
ear ly
J i
pr ime
C DATA
arg ins
domain s
Ġinsert ion
M apped
th resh
Ġqueue s
ĠA ff
d B
x mm
ĠB ool
* $/
n am
Tra iling
BRE AK
Ġfilter ing
Tim ing
cycl er
k k
IS H
see also
good s
BIN ARY
ĠName space
Ġh ierarchy
ill s
Ġre write
ĠM CS
Bra zil
Ġlast Node
u tr
ĠIN IT
Ġexec utor
Non User
( ($
A ws
ĠIN DEX
Av ailability
Ġdepend ent
Ġ article
ip y
Ġex change
Min Value
Std err
strn cpy
cl amp
Ġsec ure
C he
SI X
Publish er
Ġindent ation
pr imitive
Ġassoci ation
(* (
V ENDOR
ç ©
co ef
MEMB ER
gd G
x n
Q Object
Ġtable Name
writ ing
South east
Ġd ial
: $
è Ģ
ream ble
S yn
at in
G data
å ĵ
FI LL
Ġb f
get Selection
Icon s
à¥ ĩ
= ',
AP H
ĠC amera
comp ose
scal er
ĠTI ME
Ġtrack ing
b ench
Ġstatus Code
ĠSe lector
el come
Rep lication
Com ma
ï¼ ī
> :
E OP
Ñ ħ
mp df
Pro filer
Ġbus y
ĠSign ature
ĠInput Stream
re interpret
-------------------------------- --------
cre ator
User Agent
ab i
ĠTime out
Ġuser Id
Ġblock Size
Connection String
dd y
ĠS F
ï¼ Ī
VIS IBLE
collection s
d ial
Ġc pp
set On
ens us
55 55
ĠA CL
p wd
Ġsc enario
dispatch Event
ĠW atch
FA ST
) ');
d W
Ph oto
ĠOPT ION
ĠCar ousel
Ġfor ms
Ġlo st
ĠAn not
M b
F p
f all
ĠC annot
b rightness
Select s
Ġactiv ate
Ġv an
Ġ{} ",
EXT ENSION
Ġmethod Name
ou ted
au ssian
w av
x o
ä¼ ł
l on
t sk
} _
Ġsn ippet
Ġschedule d
start ing
Sk ipped
ĠB C
mt ab
T HE
Ġw or
set Type
Feb ru
S UR
ĠY AML
ĠV P
Ġk s
v ga
Ġf ine
Ch ip
aggreg ate
å® ¹
Ġembed ding
> ")
Ġr l
Ġpur pose
Instance Id
~ /
ĠObj C
Ġ ur
ep s
convert er
test er
============ =
Ġ" =
Ġ Ð¸
in ventory
V LAN
Ġsy mlink
string Value
atal en
Part y
Play ing
l q
à¥ Ģ
Ġmk dir
ĠC ast
play back
Ġget Id
Key Down
F U
Ġg fs
ufacture r
get Active
ot os
Lower ing
Ġs uspend
ic o
Can ada
" ",
3 02
jklm nop
b an
ĉĉ ĠĠĠĠĠĠĠ
free ze
remove Listener
ut ive
add on
ĠPers oon
Ġhas n
bm N
Ġmean ing
Ġc k
Ġsort ing
{ '
read Int
sk y
J Z
V IR
Ġb rowsers
In et
ĠT S
6 55
Field Value
ĠAct iv
stop ped
Ġcom pact
PI E
Contain ers
Move ment
w nd
Ġstart up
TYPE S
Record ing
activ ation
Ġ- (
Or Update
PROG RESS
w ers
Ġmask ed
INIT Y
om b
ĠC XX
ĠNot ification
s pa
h at
ĠĠĠĠĠĠĠĠĠĠĠĠĠĠĠĠĠĠĠĠĠĠĠĠĠĠĠĠĠĠĠĠ ĠĠĠĠĠĠĠĠĠĠĠĠĠĠĠĠĠĠĠĠĠĠ
is F
() *
å® ŀ
G OT
Test Data
CO VER
ÐµÐ º
An onymous
C ms
| _
md c
ĠQ T
Ġcontent Type
åº Ķ
ĠErrIntOverflow Generated
Convert To
ĠPa ir
Ġc lang
Re moves
P i
ĠE S
ĠSc reen
Ġ" ="
mo vie
DA O
g mt
Ġun re
cy c
izz le
ĠAnal y
A st
m ci
pen ame
O Auth
V ote
Ġb enchmark
Ġb alance
week day
Ġty ped
Ġo paque
FF IX
Ġ}, \
(" *
Unm arshall
ig ure
Ġ") ");
M PI
U ME
ĠS CR
ĠPro gress
Ġappear s
(). (*
ĠĠĠĠĠĠĠĠĠĠĠĠĠĠĠĠĠĠĠĠĠĠĠĠĠĠĠĠĠĠĠĠ ĠĠĠĠĠĠĠĠĠĠĠĠĠĠĠĠĠĠĠĠĠĠĠĠĠĠĠ
Host name
Ġjo urnal
v out
Ġtr uncate
Ġstd in
Vector s
åŃĹ ç¬¦
ĠĠĠĠĠ Ċ
entic ator
data Type
Ġ4 7
f k
ĠK ER
H old
ĠD at
ĠS eek
ĠLe ft
ĠP atch
track ing
rout ing
Ġsatis fy
as i
yn os
SET UP
conf lict
assert Not
COM PRE
C Sharp
en ses
ind irect
04 41
Ġtermin ate
P eek
Ġcont inuation
ĠM II
ĠF ace
Ġdec ide
Ġre strict
vector s
x dr
c amel
Ġ Ø
ĠVer tex
** /
Ġde grees
ĠN E
Ġpr inted
g pi
SI M
exec utor
Ġ16 0
ĠSw ap
s mb
Ed m
Ġab orted
B h
==== ==
Var P
CSS Prefix
80 80
D ns
ĠM anager
S SED
ad b
======== =
Auth ority
G RE
p Src
ra ck
Ġm ul
imp lode
MULT I
è· ¯
Ġf ifo
36 5
ĠQString List
u ar
et rokken
int val
Ġ[ ['
pa st
% (
3 86
in el
MI SS
d ense
ĠQ Latin
Ġjo bs
date Format
create Mock
Std String
ĠTr igger
Ġ12 34
} ))
Ġint ro
V Q
un pin
Require ment
s ap
áĥ Ĳ
Î¿ Ï
ĠM s
AS M
ĠUs age
11 4
Base Path
NOT SUPP
ĠEd ge
Des ired
S olid
Type Def
Ġle ad
first Day
LI CT
Ġwork flow
Ġlow est
base CSSPrefix
P rettify
tr ast
Ġp ing
key up
EN DIAN
ĠQ U
Call Option
S MALL
Ġh armony
ĠP F
unit test
ĠCol lapse
ARG UMENT
Ġlength s
Ġ& ,
msg hdr
um ulative
sl id
get Max
AL AR
user data
bat tery
Ġ4 04
quant ity
ĠAdd r
Ġtermin ated
R ob
ĠPro xy
Ġun iform
(_ ("
LC J
c bl
/ },{
g row
Ġ ist
ializ ers
Parse Error
ends With
è¯ ¢
B ANK
G J
Ġ( @
ĠB R
Ġim pro
DI FF
EN DED
B roker
ĠD P
Import s
Ġbel ongs
ensit ivity
Ġl c
Invalid ate
Domain s
L atest
U r
C AA
ĠC GF
G ate
un supported
Product s
G ro
T OM
PU BLIC
Simple RefCount
Direct ories
g Z
| [^
un ref
CO LL
direct ories
b cs
et ing
vok ed
uber net
Set String
<< "
ri ptions
Value Pair
trans parent
14 6
ĠW S
equal To
MAPP ING
h ed
ĠIn clude
b etween
n J
Ġc anceled
ĠT T
Le ast
Ġq l
Ġ"- "
BL K
Lim its
Ġst and
SIGN AL
check s
Ġaws util
vi se
int o
Ġd istribute
As sessment
K i
ubernet es
ĠP ipe
ĠAs sembly
/ $
to pology
Input Service
15 4
C W
ĠD A
M d
CRE F
CAPT URE
ub i
handle s
rol led
Tx t
ĠC ard
Ġg rab
Ġbu iltin
Ġ[] );
ĠPers on
Ġc wd
erg ency
ren dered
ĠW idth
Le ader
Ġpers istent
( ++
Ġ: '
}/ {
Ġy es
IC Y
Multi Line
S ampler
Ġ? ></
auto Outdent
ENC ODING
pe ak
ang led
Ġ'/ ',
get Token
Ali ases
N y
Ġinter section
et y
Tra versal
R t
m igration
Ġm l
US AGE
åĴ Į
HA VE
ot on
é ľ
Ġco verage
Ġtick s
ĠR SA
ĠEn gine
Ġ'. ')
Ġdebug ger
Ġpop ulated
B H
Ġ\ ""
Tr ust
irq s
ĠZ ip
Ġred uction
t re
Ġbr ush
o a
Ġmail box
PARAM S
Ġa jax
line To
font Size
SPE CI
T Key
se gs
Sm arty
check Box
stat istics
Configuration s
Ġout line
New Err
Ġextract ed
ligh ted
) "),
s ctp
Ġn an
Data Size
Inter action
posit ive
dojo x
alloc ation
S ND
mon o
æľ Ģ
Chunk s
Ġ* *)
Ġg fp
11 7
be havior
dimension s
j mp
FORE ACH
ĠP RE
Http Client
ext ents
assert That
gener ation
ĠScal ar
ĠA PP
Ġch osen
ĠCont ains
am ent
Ġre ach
Ġend points
é» ĺ
G round
Ġ* ((
click ed
plan es
sc p
Ġwant s
ĠP A
66 6
ĠBig Decimal
F CH
02 0
04 0
Ġcap s
ĠFe ature
sp read
Output Service
Ġ[ &
Ġindex Of
Sign er
R s
Get Length
ĠInst all
; ++
ĠB reak
Ġp Src
end ants
') ]
Main Window
Q m
à¸ ²
ĠE ither
Ġtransform ed
S ensitive
Ġb py
short cut
CHAN GED
åľ °
24 0
Ġguarante ed
å» º
s ynth
art ifact
ĠF low
Inter op
get Row
Ġpa inter
Visual Style
sp u
Ġparse Float
h ib
); //
N an
ĉĉĉĉĉĉ Ċ
CON D
Mouse Event
+- ]?
COUN TER
' });
Value Error
Sh ard
Selected Item
> ;
an c
00 4
add Item
EN XIO
raw ler
76 2
Ex clusive
11 3
Write s
Read All
))) |
Ġg st
Ġport ion
XY Z
SECON D
Ad vance
Face s
CONNECT ED
Red uce
C anceled
List Box
ĠH Z
SY N
pref erred
h mac
m log
PO OL
é»ĺ è®¤
, ,
T ue
Ġhint s
St ock
Ġdestroy ed
Ġan imate
COM MON
ploy ee
SW AP
2 32
MA CH
Boot strap
D ie
Ġ/ ^\
d rain
Message Type
Ġ1 92
Ġweek days
IO CTL
pag ination
f abric
æł ¼
p atient
vi ation
Ġex cluded
sent ence
ĠI o
ME T
Ġre covery
CO OKIE
Red is
Ġol der
Ġ( ))
ĠF LASH
], "
Ġtransition s
Ġge om
celer ation
EN GINE
Ġns I
à¤ ²
wifi ex
n pos
Ġth eta
4 43
ĠS afe
è¯ ģ
TEMP LATE
th ca
ĠC ase
oc fs
To End
Ġ/** \
)} },
ĠMemory Stream
H l
ĠAss ume
é ª
jklmnop qrst
Ġo id
ile ges
Ð¾ ÑĤ
Vert s
C are
str m
Ġre pr
09 30
Ġobt ained
p ins
Un used
F loor
Ġun link
Perform ance
trip le
Ġ$ ('<
ĠSec ure
re aded
Ġtr ust
ĠE P
c ma
ĠH AVE
:" ^
Remove All
Prototype Of
Ġne arest
æ ¯
re cent
ĠNew Populated
ĠSh ift
Ġw ide
form ula
new Value
h ance
Ġmet av
n ock
Ġin finite
D s
Ġgener ating
ap ic
Link age
ĠSouth east
Ġo t
00 7
Single Value
ĠDIRECT ORY
Ġd ro
bar rier
ĠIO RESOURCE
Ġ? :
Ġspec s
r te
Exp ired
ip c
next Sibling
Dis position
Ġbreak point
z s
css Text
Ġref ers
" +"
/* ------------------------------------------------------------------------
(_ .
Result Set
Handle d
C USTOM
Un pack
Ġthere fore
Ġin variant
Ins pect
PLAY ER
éĢ ī
C ity
Ġsh all
dw c
Ġ( /
real m
Ġsub tract
ĠLine ar
o dd
te ctor
Ġlua L
g zip
ĠD ispatch
get Position
ĠO FF
Store d
AL OG
Ġ:: =
] )))
Count ers
6 000
an alysis
Ġun register
Instruction s
OR S
fe rer
Ex ponent
ĠU SER
Com put
list ed
Ġsys fs
P al
sw ig
ĠDest roy
. "),
T Source
ĠL IMIT
Ġcon sumed
iv ative
s olid
ther net
ĠLe g
> }
SF ER
te l
EN SE
Ġy yyy
Î ½
shape s
Ġre cogn
Ġtime zone
Rout ines
ç© º
F lex
Ġ$ $
s al
Cre ating
à ¨
NewErr Param
le ading
cc w
ne ver
NOT IFY
google apis
ate ly
Ġo mitted
re strict
Ġd v
Ġget Data
order by
J R
m pt
lo om
Local ized
Under lying
Ġcycle s
] &&
Å ¡
gin es
Scope s
Ġpie ce
OW ER
pub key
ct ime
è¿ Ľ
ĠGame Object
Entity Type
Ġclo sure
CONNE CTION
Ġ( `
Ġsynchron ous
Ġ\ $
Debugger NonUser
in ated
ON CE
E ye
s ibling
ĠA gg
Ġinter preter
Http Response
Non ce
Ġcomput ation
base line
cc c
dat atype
Default Value
ĠNo thing
st h
Ġoper ators
ãģ Ĺãģ
V el
Ġm ed
get Options
ĠE valuate
f X
l ittle
UT DOWN
u control
/* .
r ds
ĠM esh
Ġ ancestor
task let
ĠO ff
æ Ĭ
Trans parent
clear Timeout
Ver ification
Logic Exception
flat er
book mark
ç «
En emy
OT AL
Client s
To Be
Class Loader
ĠN FS
oo th
d to
ĠOb servable
div ider
7 54
Ġ= &
Ġis a
ĠQ ModelIndex
bb y
h om
ĠKey Error
om ation
Ġwas n
SUB TEST
Acc um
M N
replace ment
ACT ER
| -
ce mber
Av g
eat While
, [
M SK
Ġ unc
*) ?
Dead line
ĠEV ENT
Ġens ures
US R
ĠErr no
Gu ide
ret ries
dec lared
Q o
ĠB ecause
sw ing
/ ********************************
I l
lips is
ĠB us
i very
]; \
AR GE
Ġend ing
ĠZ STD
cor ner
è½ ¬
Ġh uman
sub process
Q l
Y y
Percent age
Ġa ffected
und ay
2 16
; }.
Ġget id
ty ped
un less
RE CTION
L z
T N
sub set
Z y
ch i
ĠCurrent ly
rep lay
f ib
Ġd lg
Add To
SE EK
pb m
Ġa a
ĠOPEN SSL
m otion
MI SSION
Ġdb g
vi o
Ġ`, `,
Text Field
Ġwx T
Ġoptim izer
ap ing
[] >
m mu
ĠW riter
Iter ations
Ġteam s
ĠPK IX
Ġs aving
De fn
= {}
get View
Ġ1 01
æ® µ
Query String
Ġc rtc
Script Engine
O U
moz illa
æĪĲ åĬŁ
CR YPTO
ignore d
Ġign oring
z ones
ĠA DC
Tick et
Ø ¬
str ain
n avigator
Inst alled
abcdefghi jklmnopqrst
mo o
Ġcom parator
iter able
Db Type
DEF INE
Top Level
Conv ex
lat in
ĠConvert s
tr ig
ĠR ADE
ĠS UB
display Name
Ġcould n
VARI ABLE
k ref
End Point
ĠRADE ON
d cb
de ployment
)) ?
Ġsc atter
ĠC D
no b
u lo
out s
ĠB FA
Ġend if
IG F
} [
åĬ ¡
i am
native Obj
R and
Ġsh uffle
cycle s
Ġd rbd
Ġnot ifications
PA Y
z illa
Not ifications
rx q
Y z
ĠP olicy
Ġ{} ".
Ġint s
4 96
Z v
get Version
COMP ONENT
M age
Ġ# %
iter ations
Db g
Normal ized
j ack
lo od
col on
Ġwe ak
ĠPh ys
Instr ument
ÐµÐ½ Ð¸
ĠUn i
Ġpl ural
P FN
Ġin p
Ġst m
sc i
ĠCPP UNIT
add To
Ġcom bo
01 00
sd io
Al arm
ĠRed irect
24 00
Ġdelete s
need le
p B
(" //
Ġ}); \
org anization
M UX
Y EAR
Ġ â
start Element
get Total
Ġnote s
m ip
ĠS ym
ĠF ake
Ġbuff ered
p nt
y ellow
Back drop
Ġprob ability
O paque
el i
KeyValue Pair
None Match
ĠP x
iter ation
Ġperform s
ĠQu ick
U m
um bs
J D
ly r
è¾ ĵ
ĠQ List
% ;
Ġf ired
spin lock
py x
L ed
is Directory
com ma
Cal lee
g ent
Ġ} ]
Se verity
F b
k u
et ooth
Co ver
Ġexecute s
P AN
ĠMod ify
rl imit
y er
ri p
p ivot
Use VisualStyle
st m
Ġre fs
ph pcs
B enchmark
a q
Ġtype Name
CH K
CON TA
ĠĠĠĠĠĠĠĠĠĠĠĠĠĠĠĠĠĠĠĠĠĠĠĠĠĠĠĠĠĠĠĠ ĠĠĠĠĠĠĠĠĠĠĠĠĠĠĠĠĠĠĠĠĠĠĠĠ
Ex clude
ĠH AND
ĠRe st
aff ixed
Wire Type
ÐµÐ »
UseVisualStyle BackColor
} (
end Element
02 54
Auto Scale
Sm art
erv ation
get Client
Ġte arDown
* =
Ġb a
cent ral
ĠTrans late
Marshal JSON
æĹ¶ éĹ´
Edit ing
Qual ifier
Prod ucer
qt script
decor ation
p db
type ahead
12 9
Ġ5 000
Extract or
By Version
Block Size
Roll back
J T
S dk
01 7
Co in
ĠP CL
*)( \\
ĠĠĠĠĠĠĠ Ċ
AP B
Ġurl lib
à §
md ir
Ġ6 5
M IPS
a rena
ĠG ST
assert Array
assert Count
COM PAT
200 4
ĠDepend ency
e lems
ĠString Buffer
tim ings
Ġ5 5
Ġser ialization
22 1
Ġc andidates
Ġc he
col laps
Ġs impl
ĠF D
roll back
Ġc ulture
RE NDER
us p
par agraph
Ġel f
R AND
Ġc ritical
*(\ /\
X S
is Enabled
Ġch ance
view er
DebuggerNonUser CodeAttribute
ĠL ONG
ĠO k
SI O
New Source
S sl
l ng
config ured
Z j
n la
h ole
get Decl
as n
J P
p Device
2 13
e very
PL ATFORM
G ray
Ð°Ð »
Ġ ----------------
Text ures
Ġhy per
Se par
c db
AD APTER
Account Id
E FF
Run nable
ĠRef resh
mem o
ĠSh are
YW x
Ġa ge
Align ed
Ġf fi
Ġ" ?
Ġdata store
lat ency
W ed
/ :
3 06
sh uffle
Ġfore ign
Ġr ng
ĠH R
do ctype
Non null
compos ite
Ġcom pared
P sr
p ressed
())) .
field set
icult y
Ġmat ter
Unm anaged
Ġhost s
F ATAL
Cl usters
éľ Ģ
Mult icast
"], "
g pr
Ġac cessed
EOP NOTSUPP
list Of
å¤ ±
getFoldWidget Range
CS V
å¤ Ħ
C Base
O iB
Context s
Ġinter mediate
Ġinter polation
Ġre member
Ġin dependent
"> ';
get Error
yst ate
Field Type
Ġsub stream
Lat ency
ĠNVPTX ISD
N m
ĠW idget
Rew rite
ĠĠĠĠĠĠĠĠĠĠ Ċ
Rep resentation
ĠD river
======== ===
Namespace s
error Message
a G
ĠP oly
DB F
Te le
15 2
Ġrequire ments
ctl r
BL ANK
Ġdat um
par c
Has Been
å° ı
Î ¼
im c
ĠE D
s se
d lg
Ġv ma
SW ITCH
Q V
ĠP clZip
ĠT alk
ç» ĵ
4 40
IT S
85 00
} |\
ore ad
Read ing
B s
F ar
base Url
R SP
Ch anging
- _]+
N i
]. _
Ret rieves
w id
ME TA
Ġbel ong
Ġtrunc ated
ĠA ssoci
block ed
C IPHER
fig ure
Ġm eth
Th ing
ĠSc ene
ident ifiers
Z Y
pt ime
: ,
m cast
Per f
Ġaff ix
root Scope
Feed back
Ġs age
R c
dd ata
I Ch
Ġv lan
Ġw ildcard
Re ports
SH ADER
go al
Ġdelay ed
supp ly
w ik
Inter sect
mar ies
f ers
Sh ipping
Query Interface
el m
D t
REG S
Ġplatform s
ĠMax imum
x X
at i
Ġf atal
ĠM MC
Ġq Debug
g ene
Ġt ap
Ġde ser
Ġget Parent
Ġg uest
De crypt
Ġun wrap
Expression s
Ġb ericht
Ġm ux
(" >
str ipe
noc ache
getValue Type
Ġpur poses
cl inical
pag er
C os
F un
W izard
Ġlist ed
NewError WithError
S ong
Ġwe bs
D SS
ĠA ES
C AT
ol t
bat on
ĠR D
no thing
UN SIGNED
mb x
order By
Ġapp licable
x id
Ġpred ict
ĠA I
PR OD
response s
Ġrelation ship
D ense
str ftime
éª Į
V W
E Y
per ms
NET WORK
Ġtyp ically
c group
Server Error
st retch
Ġ# ##
Pie ce
Ġcom bination
ĠQ Point
Sub net
Ġtensor s
Ġbe yond
TIME STAMP
Ð¾Ð º
âĢ¦ âĢ¦
Cam paign
DOC UMENT
-> {$
th ird
ab y
Ġsh ard
Ġ"_ "
Ġcl oned
Copy To
ĠQ Object
ĠD uration
ĠP U
R Y
z m
File Type
File Size
Greater Than
K ILL
At Index
ĠURL s
we apon
22 22
Ġtrack er
co up
Get Call
ĠR ound
Format ted
QU FB
Ġ32 0
rout ine
A mb
C URL
à¤ µ
Ġassoci ative
Ġn ice
ĠA li
Ġstd Class
MM C
Ġel t
g ested
tr c
Ġw anted
> `
e ol
ul ted
sm art
Ġplace d
cbi Aq
P id
re alloc
is Open
S il
em place
AR C
ane ous
class name
Ġcorrespon ds
mix in
Ġch at
amd gpu
IS ION
30 8
Ver b
(" __
Sc ratch
ĠAT OM
Ġle ak
ĠJ an
d pm
Ġgo al
J ust
set Visibility
ĠT Arg
dd d
n est
CD C
Check ing
)/ (
Cancel led
atter y
p us
ĠW alk
13 5
v w
Ġex clusive
REGE X
b urst
Ġlin eno
Tx n
Per m
B ODY
port al
ĠO verride
à¤ ¤
p reserve
set Position
stanti ate
)} .
åĲ Ī
is True
ĠM k
hint s
re pos
:" -
Block Comment
ĠInt errupt
Tile s
p gs
str l
sm i
s amp
Reg istr
Line Number
fire Event
in coming
Ġ' }
imit ives
l id
Ġis p
//// ///
Ġtri ed
, //
C k
K o
00000000000000000000000000000000000000000000000000000000000000000000000000000000000000000000000000000000000000000000000000000000000000000000000000000000000000000000000000000000000000000000000000000000000000000000000000000000000000000000000000000000000000000000000000000000000000000000000000000000000000000000000000000000000000000000000000000000000000000000000000000000000000000000000000000000000000000000000000000000000000000000000000000000000000000000000000000000000000000000000000000000000000000000000000000000 00000000000000000000000000000000000000000000000000000000000000000000000000000000000000000000000000000000000000000000000000000000000000000000000000000000000000000000000000000000000000000000000000000000000000000000000000000000000000000000000000000000000000000000000000000000000000000000000000000000000000000000000000000000000000000000000000000000000000000000000000000000000000000000000000000000000000000000000000000000000000000000000000000000000000000000000000000000000000000000000000000000000000000000000000000000
Ġex ported
Ġblock ing
ĠL PC
ĠQ Widget
Ġi a
St and
Ġest ablish
F lip
t iny
open ed
l port
l ifetime
return ed
R igid
T rie
Th umbnail
Try Parse
l ru
In i
Ġr k
Ġbt Scalar
T ap
Ġrole s
ap sz
AME S
`. `
ĠAttribute s
g olang
ĠLay er
Ġg round
CH O
Emp loyee
Ġn ic
Ġcon current
Ġad v
mouse up
f ps
Ġq ed
Qualified Name
C ent
ĠD iagnostic
map hore
TER M
mail er
(' *
Owner Id
st o
Ġp ng
Ġs oc
End Time
semb lies
ĠCAI RO
C i
it ness
Ġno op
M oney
ens ible
page Y
op p
Get Size
56 5
Index er
TER NAL
Ms Rest
u char
x html
Ġb asis
Info f
Oc currence
W ildcard
d io
the re
sec utive
TRAN SFER
Ġf avor
Bucket s
Ġhton s
phpcs File
UT IL
Ġcap abilities
ograph y
D n
En crypted
CH UNK
MO USE
87 23
log ged
ic ing
Get All
ĠB SON
Ġx t
Init Struct
fil ing
ĠId entity
f ar
AB S
qui et
ĠQ R
get Color
Ġtag Name
s am
A abb
M CE
in b
ĠD irection
MA KE
App s
Ġsignal s
P layers
In correct
jac ent
Ġcap ability
activ ated
ĠC mp
serv ation
e hci
n fd
Property Value
Al go
B Z
" <
Y our
Format Exception
M ID
Arg v
ĠP DF
ĠType s
Vol umes
Ġ") ";
ĠSC IP
OPERAT ION
THRESH OLD
\\ -
Ordinal IgnoreCase
ĠStack Object
G rpc
Ġth umb
Re covery
Pro vision
Ins ights
!! !!
Ġ% +
bt coexist
ĠHe ight
Ġweb kit
Tol erance
Ġbe haviour
Pointer Type
Enumer ate
xpr t
R ULE
w iphy
Ġvert s
ĠF AIL
imp lementation
Throw n
iter ate
Generic Type
Com position
Sn ap
o ob
Ġs vg
ph dr
Ġdet ailed
s addr
Return ed
ĠData Type
ĠD NS
y ou
Ġe le
ĠU TC
ri j
Spec s
ch ieve
r paren
Ġ ÑĤ
Ġright s
Ġs ays
lin ing
Ġstr ong
d addr
Evalu ator
og n
He ading
tw ig
A k
q n
Ne ver
ur ator
Ġc laim
Ġd lm
ll db
Ġbl end
Trim Space
h k
Dif ference
In tern
Ġclose s
car rier
Ġoptim ize
REQUI RED
ĠS lot
Web hook
Ġman ual
Ã §
Ġc aching
Ġde letion
Ġ4 3
mark down
ï¼ ģ
Ġintern ally
Ġwx String
owner Document
api Version
Ġorg anization
ĠD rag
Ġsign ificant
| <
ĠTrans fer
N ATIVE
ĠBuild MI
Ġhe alth
ä¼ ļ
OR IG
Ġblock ed
Co eff
X ATTR
Less Than
ĠWeb Socket
Hash Set
Send Fields
d ib
Ġd amage
14 4
c as
de sktop
16 9
76 7
Right s
çŃ ¾
ĠInvalid ArgumentException
: .
Ġ amb
x fe
en tered
Ġm otion
88 88
Ġsearch ing
PARE NT
get Store
ID S
OD ER
D y
te e
Front end
m as
t an
c rt
11 5
Ġco eff
1234 5
TI FF
uff man
Sp atial
U CH
ĠBe fore
'] .'
ĠSign al
w y
draw able
Hex String
t ain
ĠAuth entication
pl t
Mismatch ed
Q n
response Text
è½ ½
he id
ĠJ oin
ex istent
ol ated
Ġr dev
âĢĶâĢĶâĢĶâĢĶ âĢĶâĢĶâĢĶâĢĶ
Is Set
ĠIN PUT
nV uY
Value Object
... "
tab Page
ital ize
en ger
==== =
Ġadjust ed
p D
at tle
Ġd ates
Ġfor k
æ± Ĥ
Match ed
Unix Nano
ĠCon s
IL Y
ãģ Į
get Address
Ġal ter
Container State
Ġr sp
02 2
04 32
Ġme chanism
IsNullOr WhiteSpace
c ake
M CS
Ġpro j
write w
Ġappend Varint
ĠC lock
Init ialization
C v
s rb
Ġm map
co e
Fd Set
L ab
ĠAttribute Error
String Utils
Ġ' ^
Ġ0 3
o q
Ġsign ing
ç¼ ĵ
ens ive
Original Constructor
Y UV
ant is
' [
DE L
st rength
Ġde gree
pos ure
write Int
Cl inical
æĢ §
positor ies
Y ii
Ġ Keys
Ġf read
Ignore d
) })}
get Loc
Ġclear Timeout
") &&
Ġassert ions
ĠCon v
200 6
font s
32 1
Up dater
ME SH
MS R
L PC
pro files
ĉĉĉĉĉĉ ĠĠĠĠ
At las
() )));
lo ver
fe ren
Ġx fer
Imp ulse
ĠComp iler
æ ²
Not Implemented
=== //
A SYNC
IC ODE
For Each
No ise
Ph i
Host s
ĠSer ial
re covery
I i
£ Ģ
ĠDec imal
pur ge
> ]
Ġr tc
Ġapp lications
ĠIss ue
(' @
ĠThe y
ho ud
ot ify
Ġoff s
Ġh ole
node Value
buff ered
CONT IN
PRI MARY
f z
ĠW arning
orm ap
AD V
codec Selfer
rect angle
SCRIPT ION
ĠD one
Ġ*/ )
pa rency
Ð¾ Ð½
Protocol s
v ha
Ġdetermin es
R om
> {
Ġ` [
('. ',
B old
Ġmodel Builder
8 0000000
å ķ
æĸ¹ æ³ķ
M m
ĠAd min
Ġs ampling
EN OT
ĠR ad
Ġcomp at
Ġ'. /
:` ~
Ġpercent age
St retch
not ifications
Op Code
37 5
M ed
[ /
g IH
Ġend ian
MM M
Ġpr incipal
periment al
} })
ar de
] >
E PERM
is dir
is Visible
Hint s
INF INITY
ent ropy
Ġ" ^
Mod ification
éĢ ļ
ten ant
EL F
Ġ' ').
PHY S
XC J
get Z
Ġcom bin
ok emon
Cred it
g us
u ced
get Mode
ĠPR OT
Len um
ĠS ame
U AL
// ===
ab fd
sc m
find ViewById
sh rink
IF MT
par able
PASS WORD
In herit
od ium
ir ks
ĠTest s
hard ware
Ġerror Code
77 6
ist ed
Get Service
25 2
PRINT K
M alloc
Ġest imate
Ġs uggest
li bs
tri angle
IS P
ĠSw agger
ĠDown load
Ġ8 5
Not Modified
ce eds
ss o
]* ?
(' ')
[: ]
tim eline
SEL F
Force SendFields
e ck
case Insensitive
Dif ferent
d ag
ĠT E
ĠP ixel
Lang uages
ĠF ORM
pp id
Ġtime val
ĠEx ternal
Ġconfig urable
CON STR
ãĤ ¹
Ġface s
full screen
fac et
Ġs ibling
event Type
b all
ĠT Value
Method Name
Ġgu ide
ĉ ĠĠĠĠĠĠĠĠĠĠĠĠĠĠĠ
Ġs ix
Go al
sh ard
ĠL UA
On line
un read
Ġde crypt
Ġ') ';
F ocused
x v
date Time
Ġequal ity
Ġd iagnostic
Ġl and
ĠA jax
). </
Ġle tt
éĶ Ļ
ĠMs Rest
Null Fields
Build ing
de m
cq e
g ensupport
t lement
66 66
ales ce
ĠClean up
w arded
Th ree
29 1
ĠE AP
obj c
Hy per
çī ĩ
no v
nv km
` :
f to
** )
X OR
By Type
Ġdis covery
Ġgr ant
Ġ ENABLE
Ġst rerror
Pan ic
æĮĩ å®ļ
Ġdis connected
X Z
Ġa bb
b map
Ġin complete
Draw er
I ZE
en cryption
step Backward
å· ²
=" _
ĠD ig
frame buffer
exp lode
................ ................
Ġh h
'. "\
Contract s
p ip
current Text
fw link
] )),
page X
SR S
i u
Ġd h
Ġp ic
apt ures
Ġac curacy
Inte rest
Ġleg al
- "+
5 01
e asing
n k
add Attribute
ĠSt mt
Std out
Multip lier
POL ICY
+ ",
get Selected
mouse move
P Q
X CI
h aystack
set Parameter
(" #{
M arshall
d ock
Ä į
sys ctl
C Str
und ant
}); \
h istogram
ioc b
FILEN AME
S LEEP
Ex ceeded
IT IVE
Log Error
EX TRA
std Class
è® °
get Input
ck e
ĠM Y
åı ĺ
Move To
Ġ} ))
ĠCK EDITOR
B a
co ff
Tool kit
V p
char acters
ĠAn imation
ll d
Data Frame
Ġj ar
L ater
T cp
12 4
Ġb cm
tra its
CODE C
W ell
Ġm n
get Children
Ġlock s
f riend
pos ix
from CharCode
Ph rase
car ry
w anted
(' |
ĠI V
nd im
ĠY G
Ġsn ap
Atom s
G id
he cy
gr ant
Ġmod ification
re cover
Ġca ught
Ġcho ices
1 16
P c
Ġp ressed
ĠU T
u V
ĠL V
percent age
p st
get Module
Ap pro
J OR
d raft
n vm
Ġreal m
Do ctrine
to JSON
Ġqu ota
scri bed
play list
Ġconv olution
get Global
Ġstr chr
IP C
fin i
ERAT OR
Le ading
f Y
Data Table
8 37
d ont
In side
. "));
en velope
Ġp New
Ġdata Type
é ģ
Pro tected
D Z
] |\
j c
is file
ne ar
Invok er
ĠT ake
=" <?
B V
Ġon Click
Qu aternion
RI X
Fix tures
Book mark
Ġ0 7
Ġde serialize
US D
Queue d
Tw ig
r data
__ [
sk ipped
z r
ĠL ess
il le
RE CV
F riend
p ot
\\ \
mp p
[" +
PA IR
Ġsub net
Spec ified
Ġca ption
Ġget Context
Del ivery
Declar ative
S ized
WAY S
Ġ lab
Ġs ampler
Value Changed
aw t
55 5
Ġtool bar
ĠQ Text
current Target
GEN ERAL
s ampling
as oc
session s
Expect ation
Dash board
J G
s port
ĠW rap
array copy
Block ing
æĽ ´
W STR
OutOf Bounds
n ex
ĠT iXml
22 2
bp f
Ġt cg
Web View
ĠÐ ·
Host Name
Ġctx t
"} ),
ĠHD MI
I ENT
ĠW A
RT S
... ",
bound ing
ĠKER N
Q C
fail ures
p aper
Ġret rieves
exp iration
Ġtx n
Ġregard less
Ġ'- ')
st ime
im etype
dr Error
js x
Ġpl ug
af ka
m ute
Ġ{ \\
ĠX Path
start Region
L atch
T TL
root s
Constant Int
U AP
Ġ --------------------------------------------------------
Ġc entral
Ġh c
ĠM ail
t Z
Ġpro duced
ĠE M
Ġcheck box
Tra de
og us
sg l
Ġcl usters
G uest
00 8
GEN ERIC
I x
el astic
Ġ5 2
ad m
13 62
Man ip
ATT ACH
ĠINTE GER
s uggest
ol ate
20 5
Ġpe ople
(){ }
ĠQual Type
end region
Ġwh atever
Ġaccount s
è§ £
co pi
Ð Ŀ
ra ined
vis ited
Ġshape s
Ġplace s
****** */
ĠComp ile
startRegion Re
U a
X A
Ġs anity
watch dog
Ġg ray
Ġinter sect
over lap
Ġ'# '
te ch
Ġver ification
sil on
é Ľ
Ġ= ================================================================
ĠC ertificate
Ġirq return
Ġpres ence
N ear
la pped
Ġscroll Top
band width
sil ent
L dap
key Set
Item Id
send Message
3 15
Ġm irror
ĠD IV
ĠU Char
Ġselector s
âĢ Ļ
ç ¨
Get Text
mapping s
M Hz
Ġ"/ ",
Progress Bar
LAY ER
Tim eline
I ER
assert Contains
opt imize
Apr il
Y S
i y
ER AS
Ġvar iance
"], ["
ĠOn ce
Hard ware
err msg
entry Set
Ref Vo
Ġsom etimes
ĠT wo
//=== ----------------------------------------------------------------------
E CC
Ġc id
Ġcom posite
chem es
rid ay
CLU DE
Q Widget
cho ose
Ġaccess or
Ġt rap
Ġj j
Un authorized
6 76
I de
ex clusive
ĠC ap
//===---------------------------------------------------------------------- ===//
D h
Ġ4 6
Ġhw nd
C tl
I r
ĠC AP
Ġ@ @
Ġdis posing
Ġm ass
Error Handler
html Options
Role Binding
title s
vic all
Ġb x
New Guid
SCA PE
auto load
Ġloc ate
Ġlett ers
P OP
offset Top
b anner
et o
ĠT im
Action Result
pin ned
ĠMCS ymbol
BlockComment Re
!== "
V ia
Det ach
m atic
Size Of
COM PI
Ġtri ple
out file
Stream ID
ĠLog in
Ù ģ
ist ing
cond s
Ġb ench
Data Object
ãģ §
TR L
ĠPCL ZIP
R Unlock
Equal ity
F g
ĠD X
code d
ĠDe v
T elemetry
Month s
ĠM ach
13 0
Cl r
1 64
I ID
get Application
Ġd rivers
resource Groups
Ġevalu ated
og g
Ġg cc
Ġlim ited
e ye
B rows
Ġoffset of
Ġmem o
Success ful
Ġd ont
18 8
Ġmark ers
Av atar
R i
Ġ' {}
ip edia
over write
! ")
Ġf an
Ġwait For
f ri
x res
Ġn om
get D
fi ed
I LE
S pectrum
($ ){
ter mios
10 23
ãĥ Ī
e ax
f ly
al ink
Ġd ense
En queue
! ');
Web site
æį ¢
G MT
Se en
Time Stamp
config urable
å¾ Ĺ
Ac quire
insert ion
ĠMachine Operand
Register Class
éħ įç½®
in active
Ġt aking
Ġh ello
Tool Bar
Z ONE
ba ud
Ġal ternative
GE ST
disable OriginalConstructor
ĠAt tempt
Den ied
err y
Bu ilt
hash Code
Ġreason s
1111 1111
. ]
set Size
ĠV X
Sh a
ĠT ok
J w
read line
Object Id
>> ();
| __
å° Ĩ
*)(\\ ()",
B ORDER
Ġw heel
Ġle arning
åĪ ¶
t q
Ä ±
Ġc rypt
B AND
db us
AX IS
Replace ment
% ",
get Page
ĠS chedule
Ġi os
Ġh aven
FA LL
access or
Activ ities
y Z
ĠS UC
n fc
Ġre commended
Ġio addr
Contain ing
M ATH
St ation
30 7
Ġo ss
ĠM RI
sub scriber
ĠOper and
am il
read ing
Add on
c ue
Ġh istogram
Ġ6 00
4 28
L Q
Ġ Resources
Ġpro ceed
Ġca used
Partial Eq
Ġ{} '.
Ġx or
)| (
q string
get Logger
Ø ´
Background Color
Po ssible
è ģ
c style
u FF
Par ses
Ġalloc ator
ĠTime Unit
Ġbinding s
O X
ë ĭ
ĠF ixed
Get Num
Ġstr m
ĠSup er
} -
Ġ% {{.*
ĠCh o
Cho oser
B rowse
d uplex
SH UTDOWN
OPER AND
LIT ERAL
NAM IC
int s
ĠC OR
ç¼ĵ åŃĺ
14 0
Ġab ility
Ġprediction s
< !--
ĠW EB
ÑĢ Ð¸
oint ment
Azure Operation
Ġex e
Ġvalid ated
service Name
Ġrece ives
ĠAssertion Error
n pm
al ty
Ġret ries
abc de
get Count
set Defaults
Ġbuf len
ĠRece ive
:' "',
k x
tr iggered
Ġres ol
G row
Ġrc u
tim ed
Ġoccur rence
] ');
é ĥ
em e
g ro
by name
Render Target
HW ND
r upted
con c
Ġun changed
Byte Stream
GU AGE
un y
ĠB son
G SI
Z ones
Ġ} ],
), (
Ġwork around
dm x
Log ged
+' "
Ġbt Vector
Status OK
Ref Expr
sa a
ĠDrop down
) **
, *
pa ste
ep silon
bas is
ĠD ict
loc ator
md W
25 8
En g
Ġ4 1
Ġel im
ĠD ummy
Request Metrics
N u
Ġpro tection
AVAIL ABLE
F luent
ĠA NY
FL G
Ġident ifiers
J Y
un aligned
Ġdef er
Files ystem
Ð» Ð¸
M eter
Contact s
frag s
le ad
ĠN EW
ĠP lain
Expected Exception
w il
3 50
g as
Ġg sp
CON DITION
Members hip
Ð Ĵ
11 9
o gs
] }}
pe ople
(" ^
Unmarshaller Context
ĠB lob
P si
se ll
Ġ* ********************************
In trinsic
ĠG UID
pre set
ĠPR OP
LD AP
de queue
Ġp ret
Ġtr an
Tra iler
tc bl
Full Screen
ten ded
d td
Ġerr s
CH ILD
Ġdiv isor
xml ns
Ġwatch dog
y c
Float ing
Ġqu ot
Split ter
qq string
2 15
E TIME
Ġtra kt
Shape s
Ġn m
Order ing
UG H
æĢ ģ
00 9
off line
ck o
iet f
Increment al
s pr
By Key
inf late
Ġsaf ely
' </
. *)
r uid
E t
{ |
un ame
('/ ');
analy zer
check out
ĠIL Intepreter
Q w
Ġl Param
Al g
STR ICT
Integr ation
d XJ
Ġre loc
arg p
ĠAt tr
Get Enumerator
cur ring
TH IS
Sp read
rs v
att ack
Ġstride s
AB ASE
WAR D
s andbox
PRO XY
Ident ifiers
W all
in ance
Log f
Ġsk ipping
Con struction
Ġj object
01 3
Ġ(" %
an other
SC OPE
GA IN
æ ĵ
lo p
Top ology
Ġo v
ĠC rypto
Ġav ail
ug gested
Ġg b
d av
Ġde leting
Ġar Params
06 23
CID Lib
A ssoc
log ue
HasBeen Set
IT ER
PO SE
à¸ £
get Kind
Ġd sp
lace ment
Sep tember
Ġ" {$
ĠUn ityEngine
Ġ] ),
åĨħ å®¹
ĠP OP
LET ED
A ux
An imate
Ġvol tage
EXPECT ED
add Test
L ane
Ġin vert
ĠS pan
13 7
bt c
B ond
C g
tr ident
Ġo m
Block ly
off ice
Ġg rp
Ġal bum
FO O
expect Exception
255 19
f u
Type Code
If Not
Array Type
Ġ` "
on click
Ġh ub
sd vo
PER IOD
outed EventArgs
A i
y ing
() (
art ist
Ġ'/ ';
> -
O ffer
os b
RL ock
KEY S
Spe ech
m usic
Service Provider
r ich
Child Nodes
Ident ical
Mime Type
ag s
00 6
Comp iled
Ġre dis
aring Type
N H
Ġb son
BIT MAP
CN F
And Args
Ġg or
16 6
auth enticate
V Y
IMP L
ER AN
flatten SingleValue
Ġget Current
PROB E
d X
al er
ĠN PC
]) /
Client Config
BO UND
fold ers
ĠLL DB
L Z
l ut
sup press
f write
ĠN GX
gs l
multip lier
st al
Ġ); \
Ġmask s
Ġplace ment
) !=
ĠC Script
pie ces
ĠEN V
Ġvo ice
s is
t cb
de mux
SL CR
plain text
M H
Ġf ooter
ic ated
ĠCO UNT
L IN
ç Ļ
Ġs as
Test Model
Base Type
@ "
ance stors
Ġsub string
åŃ Ĳ
ĠĠĠĠ ĉĉ
re pl
ri ed
log its
be g
Ġhash Code
cl p
Ġenumer ator
4 20
Ġp index
ãģ ª
attach ments
Ġsucce ed
Ġs anitize
mp s
No vember
Ġ++ )
Ġ!! (
ĠNull PointerException
O l
as px
List er
AD ATA
ELE M
Ġx en
VE C
Man ual
? $
RE N
list ing
TR FS
04 00
I List
Ġp pc
ĠD AC
ĠIn s
I jo
P ivot
m en
Tra its
B id
Ġ< ?
à¯ į
Ġst ar
LO OK
13 9
Ġexp ansion
pass wd
ĠLI KE
APPL ICATION
ystate change
ra cle
IO U
Ġport al
ĠLE FT
co ordinate
T i
f cs
He re
30 3
ERAN AMES
Get Field
Ġal arm
Ġ7 2
Ġmultip ly
L ucene
p j
Ġtrans parent
Ġver b
Ġ". /
à¤ ¬
w mi
ing Mode
Ġsub stitution
just ify
CLE AN
per ature
ĠL W
Ġun i
Ġro bot
I MM
[ ++
tp s
Man age
md s
ag ain
Ġcomplete s
Ġnil fs
Ġ? ,
orph ic
Ġ204 8
get Layout
19 7
B log
un s
prefix es
$/ ',
ct s
aW Y
su cc
Pod s
ĠCONF LICT
ĠIn finity
RO LE
Ġexp ire
(/ [\
Ġman age
BIND ING
C MS
os d
Ġsl ug
Config File
Ġroot s
ĠCol lect
Ġprod uction
at ts
ĠN B
work queue
Ġpad ded
ĠPa ssword
ĠEnter prise
dr am
Bit Width
Ġprefix es
Ġpref er
C d
Y G
Ġf id
Ġ4 9
ĠGL uint
ĠRuntime Error
us c
Ġs mb
set Title
buf len
May be
iz ers
OD B
Ġim x
Ġdist inct
Ġasc ii
F h
g uess
Ġ( #
Ġbreak s
ZX h
copi ed
N J
ĠA void
Ġat trib
ĠJSON Object
q m
Leg al
tr ust
ĠP T
'] ],
Le ase
åŃĹ æ®µ
o y
BL END
Ġf la
ular ity
Ï ĥ
Ġw ater
:" @
å ¥
Ġguarante e
Client Rect
pie ce
R ol
Node Name
ig er
Mo ved
B k
t len
LL OW
Y ES
Tra cing
b illing
Key Name
year s
ple vel
Ġsp atial
SizeIn Bits
æĿ ¡
SCHE MA
T un
ĠG P
D c
event Data
trans lated
Ġsm allest
HAL F
z Y
Ġin b
data sets
ĠEx act
di rent
ad vert
Ġeffect ive
mult icast
k mp
document s
List Result
Exec uting
tr uth
read ystatechange
Package Name
ĠP E
Ġcol on
Ġdw c
Machine BasicBlock
Ch rome
Cont inuation
Ġsql Command
Ġ% -
æ ¶
ĠI SCSI
Get Bool
) <
Ġm andatory
Ġif f
]) [
Or Equal
F oot
M utable
set ter
Ġyear s
ĠTest ing
us able
per ience
Get Hash
VOL UME
4 17
A o
ĠĠĠĠĠĠĠĠĠĠĠĠĠĠĠĠ ĠĠĠĠĠĠĠĠĊ
ĠM ore
": [
Ġerror Message
sub class
quee ze
Ġ' '.
be low
custom ize
æĪ ĸ
ĠP MA
Ġout file
The ory
Ġprint er
GU g
à¥ ĭ
v reg
Ġw f
Un available
Ance stor
\ ""
In voice
h or
get Component
Ġwe apon
Ġrece iving
à¥ ģ
Ġns result
// }
is RTL
b iz
Ġ energy
ĠA xis
Set Name
STAND ARD
tr usted
ER A
Sup ports
s olve
ad vanced
Ġsm art
{ `
IT AL
Status NotModified
åŃĺ åľ¨
v cc
p I
get Simple
ro te
ff i
ĠN ODE
ĠP rop
ĠL imit
max Length
Ġub ifs
ĠBr ush
Stream Reader
anit izer
B IOS
lo red
11 8
Ġbl ur
Tex Coord
E ar
Sub tract
Ġeff icient
J k
Ġb mp
cd c
Ġp ip
Ne eds
lp fc
e z
p S
Ġs olve
f ort
Ġp as
ĠI PS
){ }
N FS
ĠI MP
ĠM aster
Ġcol lected
Ġbound aries
D Array
ip ment
Ð¾Ð ±
Ġwiret ag
pmlme priv
th an
ole d
attribute Name
@ +
Ġch k
UP D
DIS P
å¤Ħ çĲĨ
n Q
v ch
Ġd uplicates
ĠMan agement
it ored
ĠD ay
ĠIn line
rel se
Full y
M l
× ¨
UT ES
af ari
Ġsingle ton
ĠS y
44 4
=-=- =-=-
â ´
ĠE mail
bs d
B RO
re ports
ä¸ ²
PH I
ĠId ent
y i
in cluding
lash es
Ġboot strap
') (
Ġim ag
áĥĲ áĥ
u str
NE SS
Ġexp iration
Win API
D d
L ng
al con
Ġqu ad
Ðµ Ñģ
ĠTri ple
CUR SOR
INST ALL
$ ("#
L H
temp ted
rt s
HV y
ĠP HI
Ġr am
86 01
IFI ED
D ed
group Id
PL UGIN
ĠMay be
A way
com bined
M ess
il s
ĠE T
Ġne ighbor
PL AN
. `
M SI
ENC Y
c msg
e ap
let ions
in u
ĠS pell
? ',
J v
Ġ* ',
** */
im ized
Radio Button
li pped
R u
éĥ ¨
H andshake
D ER
ĠP ay
pa c
Ġon line
ĠT AB
Ġpage Size
End sWith
Ġemit ted
F k
P aste
MALL OC
RE SER
PRE SENT
OV ERR
create TextNode
obj s
ĠInt erruptedException
J A
J OIN
W ra
Window Size
SP ORT
')-> __('
Ġmaint ain
background Color
åĪĹ è¡¨
Read Byte
Ġprotocol Marshaller
C Ptr
s ales
ĠH ID
ĠCO LL
S low
Ġc sr
ĠS ound
(), "
N at
() )))
Get File
ĠHAND LE
ì Ľ
Ġ: ,
ĠR ename
sk u
d fs
and as
Trans ient
Ac cepted
Exit Code
Ġsov Generated
æ¬ ¡
U x
q id
Ġo w
Sample OneOf
ĠT D
Ġdo ctest
HE X
éªĮ è¯ģ
A INT
k zalloc
Class ifier
Query able
U Z
Ġg arbage
IM G
ut y
mac Frac
embed ding
ĠM ongo
arn ess
ãĥ «
Final ize
cmd line
inher ited
C w
get FullYear
em pt
qu ares
ĠIter ate
Ġlat ency
æĶ ¯
Un checked
20 6
Ġtemp erature
Font s
C ourse
ĠUn ique
mo ke
Domain Name
get From
ML X
ĠCont act
Ġno uveau
Trans formation
pci dev
r gid
Size of
Code d
=' "
associ ate
x cbiAg
á Ł
vest ig
4 76
b el
\", \
ĠT F
! ',
ĠCon sume
ĠRE ST
em p
set Error
Ġg pu
for ced
). \
Ġget All
.$ .
k ms
current Index
hw mgr
y res
AC HE
fb i
Execution Context
? '
K W
String To
At tempts
AA E
Method Call
crim inator
de compress
Ġb la
ĠTest Utils
ring s
ĠMon o
ASS IGN
": ["
('/ ')
Ġlower case
ĠL ang
12 00
Ġll c
Ġtick et
Adjust ment
an on
Ġtrans l
äº Į
c j
res id
GR APH
Ġhtml specialchars
MA JOR
Ġassert Null
Ġen ded
äº ĭ
c xx
Pro g
multip art
Ex pires
Ġ3 600
ĠIn c
Pr im
Ġun checked
aw k
Su cc
ĠItem s
æŁ¥ è¯¢
/ )
T Result
c ube
de b
ĠW here
Send ing
prec ation
Ġarch itecture
Ġ' >'
roll ing
ĠSt d
6659 7
(" |
log rus
+" \
ĠWh at
under line
G amma
Bad Request
k le
im mediate
ot s
Aug ust
decess or
à¤ ª
Ġrout ines
F inding
j z
Block Index
Ġc ircular
Ġd istributed
IP Address
cr on
Hex agon
next Tick
Ġproto buf
V t
() `
il legal
... ,
super class
ĠDep rec
Ġreturn Value
Ġh t
sc enario
Method Info
Ġloc ated
ER P
Ġtag size
Ġms gs
contact s
ĠD om
State ments
Code Gen
ĠPer mission
Ġtest Set
chron o
g lfw
Ġt gt
PA USE
([] *
ne cessary
lear ning
Ġproject s
ĠCopy right
m Data
work ers
Ġlo t
è´ ¥
pan e
cipher text
éľĢ è¦ģ
str casecmp
12 12
åĪ Ľ
SIL ON
ĠCode Gen
Abb r
L N
{ ",
)/ .
Ġimplement ations
ĠĠĠĠĠĠĠĠĠĠĠĠĠĠĠĠĠĠĠĠĠĠĠĠĠĠĠĠĠĠĠĠ ĠĠĠĠĠĠĠĠĠĠĠĠĠĠĠĠĠĠĠĠĠĠĠĠĠ
Dec ision
y r
Ġn es
Ġm arshall
Ver ifier
Bounding Box
A z
Ġoper ating
ru ption
*\ *
Ġpot entially
BOT TOM
D on
S coped
Mouse Down
ĠDet ect
C ED
watch er
E lastic
Ġg ax
ä¿ Ŀ
J d
Ġcase Insensitive
Inter section
draw ing
deli very
Deser ialization
E Z
ĠRe pository
ms ix
Off line
Ġb old
ĠT ARGET
20 3
ĠV ert
M aint
len ame
") };
ĠR ate
Ġf write
Ġf ade
88 8
Ġim ports
compos er
G rad
Bu dget
the ses
ĠK nown
Ġdi vide
r strip
ing u
Ġso on
. ;
A sp
M ER
UT ION
I OM
ĠA ut
Ġres erve
part y
J t
Ġg fx
Ġde mo
Get Resource
") ->
log out
ĠRed is
get OwnProperty
FF S
m fc
ĠS UP
An no
Domain Object
åĨ Ļ
E poch
de mod
di vide
_ ("
fd t
'] (
tri e
j asmine
o hci
s rq
Ġst ops
80 8
Trace Source
å¤± è´¥
en sed
Un handled
ĠEx cel
get Section
//// //
Termin ator
ss ip
usb dev
P or
read s
ĠV olume
o sc
Property Type
ĠParam s
de reference
ĠC ms
Ġmo ves
SD Value
WE B
T TY
has Attribute
SP LIT
EN DR
Key Event
Client Exception
Java Bridge
R j
Ġs ol
bo b
Ġg m
=" ${
Ġpar a
Ġaccess ible
hd w
Ġs aa
ĠA U
Th ink
97 0
Ø ¹
ĠL OC
/** \
ĠI C
ĠB ook
stream ing
å Ł
į ä½ľ
project Id
THREAD S
th ough
fl u
ch allenge
module Name
Dis posable
r df
Web Service
ĠIO Error
dXJ u
R N
LINE AR
000000 01
OLD ER
Ġ5 7
THE ME
Ġf abs
ç¼ ĸ
ĠE UAP
B t
E very
Ġj int
un ordered
De ps
account Id
(. *)
[ ,
sw f
è¯· æ±Ĥ
get Offset
pre ferences
Rout ine
um a
Ġw ifi
the ad
Ġs pu
St ores
est er
lev ation
Ġm ess
To Remove
Ġj peg
Test Result
AA AC
9 05
A bove
Ġ*/ :
Up Down
=' ',
Found ation
un iq
par sing
Ġm w
ĠUpdate s
imp orter
Play back
Ġt om
ĠP OWER
ĠScroll Spy
OutOfBounds Exception
Ġcon struction
26 5
U z
mp l
Ġstr dup
Ġb log
IN ER
Ġpro x
set Id
Ġcon sum
ĠO MX
=" ";
... ")
V h
Ġ64 0
ĠV S
ĠPro vider
w string
GetType Id
eli hood
c ifs
co ex
ç§ °
r usage
DB C
Bus iness
id en
S in
ĠC AM
Last Modified
Q i
Ġ1 10
tw itter
DAY OF
wa iter
G k
Status Bar
Set Up
cp umask
ĠCR YPTO
V ENT
NE ED
m ss
ĠS G
Ġtr iggers
03 1
Has MaxLength
Ġlock ing
Ġlang uages
J u
is Debug
str str
AR N
Prop hecy
Ġenumer ation
E FI
Animation Frame
Ġclick ed
ĠSp rite
q w
ĠP df
success ful
0 123456789
P g
Msg hdr
ID C
"] ]
ĠGD AL
ĠH P
Sim ulation
Ġincrement al
ps b
Client Id
self Closing
Open ed
clk s
Fac ade
Ġc q
Ġmark s
Ġg yp
ĠD imension
14 8
Ġ" ..
(?: (?:\\
eX Bl
E I
ĠService s
ĠInst ead
ĠSyntax Highlighter
N AN
ĠS SH
Vo Bean
X f
Ġe igen
No Such
pri or
+ .
o va
SC ROLL
éĩ į
pv t
real path
Sort Order
Real m
DESCRIPT OR
ĠH OST
Iter able
Ġproduct s
ĠC SV
Un load
are Equal
U mV
ĠF M
Ġx i
Pa used
ĠM apping
ĠPr imitive
Y ield
u info
get Function
get Decimals
Ġutil ity
Ġof ten
CT S
idi em
ĠOper ator
Ġu a
\\ /
B z
I STR
IS HED
anag ers
FD C
r at
is ite
Ġt a
get Buffer
ĠInter val
C AR
G t
c ck
Ġs pacing
get Service
ign er
Ġ5 3
Ġinter pret
ak a
Q ix
h ouse
bu dget
start Index
Q M
Ġp fn
ul ner
put c
Ġget Decimals
("_ "),
" </
R K
in cr
ĠDR OP
contain ers
8 10
R IE
T bl
Track s
Get Path
Text Writer
GE P
stack Ptr
Activ ated
Ġlex er
G c
to ul
get Cache
Ġsk in
Ġdrop down
Ġn esting
hash es
Elt s
Ġal g
Ġ' >
DAYOF WEEK
Ġ} \\
Ġ" <<
ĠCh unk
LAY OUT
1234567890 1234567890
g res
Ã «
ĠTR I
S ITE
Node List
ĠP CM
ĠB L
VM Image
, ))
ĠL ower
sing ular
Ġ'\\ '
M ob
e on
Ġcontain ers
vn ic
åĪĽ å»º
Load s
Doc CommentHighlightRules
Ser ve
Ġcode cs
Pre pared
gICAg ICB
close Text
Ġac quire
ãĤ ¤
MULT IP
elding en
C ancellation
c ia
h andshake
ms v
J I
Ġb id
Ġset Name
P IC
O bs
W t
De veloper
u h
pg d
ĠState ment
ANG LE
es ize
ĠNDB T
ĠR AM
open ing
Ġcapture d
æ ·
Ġx dr
Ġal ternate
FA M
Border Style
n printf
o h
ĠS CTP
list View
04 34
ĠAgg reg
ot ype
Ġstr toupper
Q A
W hether
W arm
tx d
/ ),
Ġf uzz
Bar rier
Validation Error
* ((
mark ers
ĠNot SupportedException
|\\ -
O w
Ser ializable
147 48
collaps ing
S LA
dd ir
J a
pol ator
F RE
Ġe i
Ġ++ ;
pk ts
aut os
Succe eded
M ip
im a
OM P
Ġ'" ';
Particle s
MP T
]] :
. =
04 31
Ġgsp ca
f at
à ²
Ġg zip
Ġar ia
break point
HJ vc
" !==
Ġp te
(" ;
ĠA bs
mouse over
Ġt enant
(" \"
Ġcontext s
ĠOB JECT
7 46
Ġqu it
K K
Ø £
qu id
Ġident ified
m Stack
s mooth
de velopers
Ġ' `
state ments
04 38
Ġprint s
Ġold Value
F IND
a void
i dev
Error Exception
Ġsup press
ĠCo unter
V ault
ar ma
OD M
cam paign
g ather
Ġf requ
next Text
havi ors
FIRST DAYOFWEEK
ç ķ
Ġs ufficient
ĠEx tra
site s
CRIT ICAL
ther mal
PRE SS
li ant
ĠTy ped
WEEK ENDR
WEEKENDR ANGE
j Y
j v
if r
ĠDep th
k in
mp z
RO UP
SK B
p State
ro d
13 6
Rep licas
Ġct ypes
dif ference
un marshal
Test Utils
12 6
Ġlist Of
Override s
str ained
Ġcre ature
PC IE
ĠSwagger Doc
le et
CT R
const s
end points
Delete s
Gr ant
ĠUP DATE
' })
Ġ' ..
Ġon Create
ĠIn str
Ġ` %
Par a
c it
M ost
Stream Writer
ĠPro b
Gl z
Ġp icture
OT H
top ics
")) :
ĠArgument OutOfRangeException
H its
FORM ATION
Ġs mooth
ĠDE SCRIPTION
Ġinvalid Params
ĠGener ator
Ġm gr
(). (
Ġsome one
ìĽ Ķ
ĠS u
p z
Ex amples
ber n
feren cing
Ġcon vention
to i
. ';
M UL
g allery
Ġre cursion
Ġe lems
buf size
CA LE
å¤ ļ
f abs
File Dialog
ĠC apture
sp dif
Ġbuild s
Ġw b
Ġw pa
ĠText HighlightRules
Ġdisp osed
a ffected
Ġw ish
EN CRYPT
Test Category
erm al
=" '.$
"," ",
ĠThere fore
æĿ ¥
ST ORAGE
ĠE igen
25 4
trail ing
Ġ( [
ER E
Desc r
cord ion
Ġ{} ),
car ded
get Action
ob serve
GF X
åº ı
' ";
u an
Ġs Log
get Form
ĠG tk
ĠV k
ĠPR INT
ĠN AND
block Size
Ġtoken izer
No thing
V w
r fd
Ġp Device
Ġ'* '
R d
vb i
get text
sg i
6 56
ĠD iff
signal s
: ";
g old
Ġnot ifier
Ġen tered
format ting
Ġq real
Function Index
finish Node
Am mo
B ias
Ġs mp
Ġe h
Ġex ceeded
ordin ator
Matching BraceOutdent
) `
: \"
on error
Pro cesses
Ġsc anning
ĉĉĉĉĉĉ ĠĠĠĠĠ
LI M
is MultiLine
Ġ. /
OP S
19 8
j l
Ġo sc
f la
Ġwhen ever
U an
ed ac
ĠFile System
ZX I
Ġpag ination
end p
Object Name
Get Key
ĠĠĠĠĠĠĠĠĠĠĠĠĠĠĠĠĠĠĠĠĠĠĠĠĠĠĠĠĠĠĠĠ ĠĠĠĠĠĠĠĠĠĠĠĠĠĠĠĠĠĠĠĠĠĠĠĠĠĠĠĠĠĠĠ
k es
bo ss
f wd
Ġ/> ';
ĠComple te
ar se
Ġd ims
Ġdescrib ing
- $
book s
Ġinstanti ate
a ight
x sl
ĠC ASE
eth e
N Q
ld r
man ent
×Ļ ×
ss p
as array
Tra it
2 11
all close
ĠB I
Success or
Ġtermin ator
Ø Ń
um ed
Frame buffer
Ap pearance
Ġconstruct ed
f pu
Ġst ation
//////////////// ////////
S ORT
ĠS pace
7 29
M isc
Ġre duced
ĠF inal
Ġne ither
Sheet s
EL DS
Ġpr im
re connect
Add ing
Tr uncate
O CT
U Y
"] ))
Sub set
scroll Left
Art ist
ä¾ ĭ
ĠM issing
Ġassert s
AC HED
Ġscope s
Play list
ĠAV ERROR
et ition
SO UND
Site s
get Lang
) >>
h ad
» åĬł
Ġth r
Ġprevent s
Reject ed
æ¶ Ī
q ty
è Ĭ
pp y
af b
ĠAnnot ation
at an
lat er
ĠCH IP
D PA
end ers
ĠO BJ
Ġn op
cp uid
ĠHandle s
P Invoke
ĠÐ ¼
MISS ING
re veal
Ġpro tect
face book
ĠTrans port
Ġp al
Ex ports
package Name
> ]*
k n
get Ndb
Mix in
SUS PEND
] /,
(' &
ĠF old
ĠMe asure
ĠF X
ĠL INE
Pod Auto
D AB
data s
ĠPro c
//================================================================ ==========
k ern
UL D
ĠQu aternion
Ġmat rices
on Error
Ġ% }
Test Class
Ġconfig s
A ir
Key Id
AAAAAAAAAAAAAAAAAAAAAAAAAAAAAAAA AAAAAAAAAAAAAAAAAAAAAAAAAAAAAAAA
ue l
"); \
str cat
ep isode
AC COUNT
)) ).
CR T
Can Be
d ropped
ĠL ight
mV ud
h alt
Ġis su
Not ifier
æī §
ĠFail ure
åĽ¾ çīĩ
cur ate
App Domain
Th ird
Ġtra verse
Present er
Ġlog its
Ġsup posed
71 10
combo Box
RE CE
find all
SI MD
ãģĻ ãĤĭ
Ġ' +'
set Field
De ath
Ġevent Name
(* )
Ã ¸
ĠA cpi
Ġde leg
Exec uted
Debug Info
Ġc u
Ð¸ Ð½
Alloc ated
o up
Ä ĥ
Ġ Endpoint
j me
SETTING S
I w
m ol
em b
Pers istence
J PEG
ĠF older
ha ir
è¯ ¯
hier archy
inter net
Require ments
ĠS N
ĠADD RESS
á º
ĠH y
Over lap
Ġp Data
QL atin
IMP LEMENT
Ġe ax
Start Element
z n
Ġj am
AD J
XG I
ĠBo th
] ')
th metic
Hash es
Ġ1 00000
PREC ATED
Ġto day
b Is
Ġt tm
Ġslice s
Ġmult icast
L ifecycle
Ġsh rink
C ron
G REEN
15 9
embed ded
glyph s
Ġh andshake
Time zone
Ġcol lapse
ĠRE S
VALUE S
Ġbase line
ĠGe o
V ud
Ġ ushort
is Undefined
set Max
na am
p C
ert ia
Exp orter
CO ORD
Pred iction
arb on
S PR
m ess
ĉĉĉĉĉĉĉ Ġ
Ġ'/ ');
qK io
T OTAL
c ml
Ġp Item
Ġset attr
Ġstr totime
06 0
Ġbucket s
B d
Y AML
Ġ ------------------------
// --------------------------------------------------------
Ġd ock
ab r
ac curacy
instance of
Xml Node
n sp
p Sheet
Ġ" ?"
Ġto pology
Ġany more
Http StatusCode
trans lations
Imp orter
A ware
H h
ro bot
il ers
E J
length s
be red
ĠH i
f read
Ġst ale
F our
set Layout
Ġpre pend
æĮ ģ
å± ŀ
M w
ĠL azy
ĠRead s
ch ors
; /
r mi
AR GB
line Number
me ga
Ġstream ing
ur day
-- */
ĠT B
ĠAff ix
R AT
in de
Ġ: ]
ĠIN FO
ĠS MB
Read File
Reference d
remove Attr
Ġauth enticated
Ġleg end
ĠTI FF
os h
Termin ate
y ml
æ ĥ
ĠB G
Handler Context
CANCE L
Ġ{ %
([ ^\
transition end
ĠMI ME
1 00000
track s
Ġassum ing
s mu
Ġce il
j t
List ing
ev sel
PROT ECT
g J
LAN GUAGE
^^ ^^
I toa
Check point
MD P
Ġext ents
Ġeas ier
Column Index
Ġex ceeds
áĥ Ķ
LO AT
W m
lo ops
ĠL M
active Target
R b
ĠU ses
Ġas sets
Attribute Name
Graph ic
le ast
is Defined
Ġh its
Query Builder
åĩ ½
æī§ è¡Į
M ongo
at o
ĠM ix
Exp ansion
ĠD etermines
Sc aled
Ġprint ing
focus in
]| [
f lt
ĠOUT PUT
set Is
iter items
*/ );
Dis assembler
dddddddddddddddddddddddddddddddddddddddddddddddddddddddddddddddddddddddddddddddddddddddddddddddddddddddddddddddddddddddddddddddddddddddddddddddddddddddddddddddddddddddddddddddddddddddddddddddddddddddddddddddddddddddddddddddddddddddddddddddddddddddddddddddddddddddddddddddddddddddddddddddddddddddddddddddddddddddddddddddddddddddddddddddddddddddddddddddddddddddddddddddddddddddddddddddddddddddddddddddddddddddddddddddddddddddddddddddddddddddddddddddddddddddddddddddddddddddddddddddddddddddddddddddddddddddddddddddddddddddddddddddddddddddddddddddddddddddddddddddddddddddddddddddddddddddddddddddddddddddddddddddddddddddddddddddddddddddddddddddddddddddddddddddddddddddddddddddddddddddddddddddddddddddddddddddddddddddddddddddddddddddddddddddddddddddddddddddddddddddddddddddddddddddddddddddddddddddddddddddddddddddddddddddddddddddddddddddddddddddddddddddddddddddddddddddddddddddddddddddddddddddddddddddddddddddddddddddddddddddddddddddddddddddddddddddddddddddddddddddddddddddddddddddddddddddddddddddddddddddddddddddddddddddddddddddd dddddddddddddddddddddddddddddddddddddddddddddddddddddddddddddddddddddddddddddddddddddddddddddddddddddddddddddddddddddddddddddddddddddddddddddddddddddddddddddddddddddddddddddddddddddddddddddddddddddddddddddddddddddddddddddddddddddddddddddddddddddddddddddddddddddddddddddddddddddddddddddddddddddddddddddddddddddddddddddddddddddddddddddddddddddddddddddddddddddddddddddddddddddddddddddddddddddddddddddddddddddddddddddddddddddddddddddddddddddddddddddddddddddddddddddddddddddddddddddddddddddddddddddddddddddddddddddddddddddddddddddddddddddddddddddddddddddddddddddddddddddddddddddddddddddddddddddddddddddddddddddddddddddddddddddddddddddddddddddddddddddddddddddddddddddddddddddddddddddddddddddddddddddddddddddddddddddddddddddddddddddddddddddddddddddddddddddddddddddddddddddddddddddddddddddddddddddddddddddddddddddddddddddddddddddddddddddddddddddddddddddddddddddddddddddddddddddddddddddddddddddddddddddddddddddddddddddddddddddddddddddddddddddddddddddddddddddddddddddddddddddddddddddddddddddddddddddddddddddddddddddddddddddddddddddddd
Ġn id
ip ath
ĠB ASE
Ð°Ð º
o ber
Ġh ist
AG ENT
reference d
ĠInput Option
analy ze
æ² ¡
Ġs ynth
Document ation
instruction s
Blue print
æĵ įä½ľ
64 0
:" '",
Ġdig ital
ĠWord Press
error Response
ĠAdd itional
Match ers
ng x
Effect ive
Week day
k h
em ap
to Object
auth ors
Ġrout ing
test Case
port ion
ĠFile Utils
ĠSource Map
X L
] ")
Ġa cl
ĠSe gment
Attach ments
ĠK ernel
id ian
Array Buffer
NO W
æŀ Ĳ
ĠN F
Or More
? [
Ġcmd s
Ġpe ak
( ...)
/ \/
N w
RE TRY
se verity
ĠL ow
Ġbus iness
Priv ilege
ad ic
Ġrep orter
New object
Ġencode URIComponent
id ers
Ġ// }
Ġround ing
t st
ĠT drError
Ġj avax
Ġconvert ing
single Line
Abb rev
)? "
MG MT
Ġsem antics
ĠAv ailable
Auth enticate
ĠY A
ĠAnal ysis
, ",
A UX
U o
Ġg lsl
ĠP NG
par ity
Dis c
S HE
b es
get Host
Ġco in
in x
Col lapse
Ġb az
MC U
termin ated
G AC
ĠTA SK
% "
Ġprint k
gl m
prev Text
è®° å½ķ
m ong
ur y
SA MP
If Needed
Ġgl m
Ġde structor
Ġre cognized
Ġ}, {
Ġq la
ed id
Cycle s
get env
get AbsolutePath
ĠP G
By ID
find One
13 1
Ġsin on
M aker
R g
Ġa u
el ix
Ġfunction al
Ġse em
k c
gl Get
à¸ Ļ
got iation
2 18
Ġv ch
05 00
åº ĵ
Sem antic
åĩ½ æķ°
get Minutes
]. [
Ġx mm
Syntax Error
nod oc
Event Source
Oc cur
XXXXXXXX XXXXXXXX
P cd
y ii
Ġsh ut
Internal ServerError
åŃĹç¬¦ ä¸²
] &
ĠĠĠĠĠĠĠĠ ĉ
ĠIn crement
write reg
Ġcol lector
Ġi om
Con sume
Ð ľ
ll Get
ĠQ wt
Ġ ENT
Ġp layers
Ġtest Case
dis covery
Delay ed
Soft ware
Base line
Ġdecl arations
ĠP refix
}, _
PIN VOKE
################################ ################################
G ATE
R p
is Number
Ġ5 4
Unmarshal er
åĲį ç§°
Tra ining
d amage
ĠA TH
ĠOS Error
Test Runner
First Child
ĠST REAM
or ian
AL WAYS
GE TP
Ġapp s
Relative Path
utr al
re mainder
ib rate
Ġdom Map
Ġvo Collection
State ful
ĠSe lected
Sl ug
Ġsom ew
DESCRIPT ION
Tra cer
tr av
ĠCon straint
Mock ery
SQL ite
tile s
============ ===
Ġke pt
strl cpy
( [$
K Y
n do
de tection
bu gs
ĠM ultiple
SC ENA
Calcul ator
is Error
(' __
inal ity
Hash Table
foc used
lin enum
ĠA SC
xuICAg IH
ĠA CK
ĠD ist
"," %
pc ap
Ġeth tool
= []
i oremap
Ġt g
get Raw
mo val
hy per
T l
Ñ Ĭ
Ġmsg AndArgs
UD A
set Item
rc mf
WOR LD
Ġdiag onal
V a
Ġmin us
{} {}
ĠMake Scenario
ĠMakeScenario Flags
Ġb pp
da o
limit ers
åĪ ¤
" &&(
Ġnot ation
ĠG V
ick s
s ms
): (
ĠString s
G H
Ġa z
ĠS ide
folding Rules
F u
Ġle aves
Ġi ps
index er
Ġ' ~
In complete
ĠS AX
ĠQ Rect
Ġoptim ized
"," .
æķ° ç»Ħ
h its
v node
y un
if Error
ĠS csi
17 9
ppos ite
× Ĳ
Ġc err
Ġfind ViewById
200 5
ĠBu iltin
GROUP S
ĠConstant Int
14748 364
From Value
19 3
CS Function
000 3
40 3
ĠOr iginal
schedule d
Ġsucce eds
b rowse
| >
Ġt rie
hy ph
Qk FB
Ġd u
ĠD ial
mark et
p Info
protocol s
Ġband width
re addir
Ġresult aat
.$ $
MT U
Ġremo val
Analy tics
N avigator
] ]);
assertArray HasKey
z Index
Ġcon venience
Ġ20 16
6 16
d sn
st ones
(' +
Http Context
S AM
ĠR en
dimension al
g utter
in cluded
Get Default
ĠF inally
Ġinit ializes
Protocol Test
Item Type
y x
bb on
con verted
ma int
("% #
æĺ ¾
Proc Address
F c
Ġth umbnail
R ates
Per Page
ep age
12 71
AA D
Ret ries
ch ans
che str
Ġpublish ed
S ampling
Ġc ity
Ġp refs
Ġ1 99
up d
Ġx p
P WM
ĠT REE
File Stream
Imp lements
outer Height
Ġrequire ment
ĠEN C
Walk er
g lo
Ġhappen ed
public Request
SY SC
full name
Servlet Request
de activate
Ġin herited
Ġh is
Com bined
"] (
Ġh v
Ġgp Globals
L ife
Â Ħ
re main
ex cluded
:" <
Ġad j
SR V
Writ ing
All Types
mouse wheel
c ub
Con cern
Ġk rb
touch es
s In
Ġm ip
ĠD BUG
AP IC
file size
Ġal ive
Ġraise s
% .
R ich
s ong
Ġl t
A ffected
Ġbu dget
Group ing
phan um
Ġb ra
ĠG ra
Ġcal lee
z ed
ĠP ull
Ġon click
Ġpre ference
Ġinvok es
k mem
Ġs ingular
ĠR ew
00 04
PE ER
D og
S aving
ĠA UD
ĠD em
istr ator
Ġman ip
Cmp Inst
) ]);
M v
S MP
St udy
OF DM
FIX ME
Ġs dk
ĠCont inue
cod ers
v tx
Ġdetermin ing
S team
Ġ[] (
Sub scriptions
spe ak
16 3
CH AIN
EX TERNAL
Ġinstall ation
Associ ated
34 5
uc v
comm erce
deg ree
æłĩ çŃ¾
Ġ èİ·åıĸ
get Seconds
element ptr
And Get
tra verse
Ð½ Ð¾
Ġ1 04
O LL
Ġd ib
Not Equal
COM MIT
Ġ"' ");
decor ator
ĠTw ine
K D
s ures
v ram
'] }
gr d
Send Request
"/> .</
cu ssion
c ach
Ġst able
ãģ ¯
BT N
Touch es
à º
l ife
dayNames Min
lo ff
get Number
En ded
Access Exception
åĪ Ŀ
DA IFMT
ĠencodeVarint Generated
V irt
01 5
gra b
; $
ĠPro vides
uplic ated
" =>
ĠC RE
Ġstruct s
ld HVy
PL US
Pop ulate
ĠSec ret
Ġrespons ible
L ARGE
W s
Ġb ond
Base URI
Server Name
C CK
a ver
get Imm
Ġref lection
ital ic
Ġprod ucer
é ļ
(" "),
Ġ" ))
ĠReg ist
ĠKey board
Get Window
sub mission
Ġtoken ize
Ġshow s
dayNames Short
K L
PO SIX
Ġw Param
ĠC ss
Ġde velopment
mp ath
ĠM ult
From Parent
FA CTOR
tim ers
Ġ': ')
init With
run s
Changed EventArgs
sort able
ĠAl pha
ab ove
ĠUn expected
or arily
to List
ign um
ARE A
l uc
m oney
s iz
ç Ĭ
Ġa ir
Ġb pf
Ġup loaded
ĠGit Hub
: <
(\ '
report ing
Ġtrace back
Ġwidget s
N vb
Ġfrag ments
Ġlisten ing
Ġdat atype
Ġ> ,
CC C
(?= \\
H al
ur sday
Ġl an
struct ured
Ġs ch
14 9
aked irs
bu st
([ -
," ",
ĠWrite s
\"> <
Ġof s
ĠM utable
ĠDe veloper
Ġrad ix
ĠChar Set
Ġ"' "
Ġide a
ĠSub ject
Ġ Results
ĠT og
ĠG ROUP
Ġper ipheral
Imp orted
R am
16 5
Comp atibility
Ġent ropy
Ï Ģ
Ġre curse
Ġbuffer Size
Ab ility
OVER FLOW
Ġa h
Ġh o
Ġde lim
ĠJ NI
jo y
auth ority
Leg end
L AT
To Map
SI Z
ĠValue Object
S b
qu enc
ĠF n
Ġlib raries
HD MI
Ġ âĢ
ĠR R
Ch allenge
ĠUn safe
Ġquant ity
Brows able
O H
ĠH ide
Write To
Ġexpect ing
à¸ ¡
aff s
ĠA BS
Qu it
replace All
Display ed
Ġve hicle
t rees
soc ial
ICAgICAgICAgICAg ICAgICAgICAgICAg
Ġget elementptr
ĠI con
Auth enticated
AV A
Ġ') '
ĠAd apter
ĠA p
add Error
| @
de e
qu is
Set Item
PRO GRAM
gK i
* |\
I SE
X FS
() ]);
col lector
ĠThe me
install er
S IC
Pro f
etrokken heid
ig a
ĠRe moves
DY NAMIC
g IC
To Add
DO CTYPE
/ ;
rom an
): "
CH R
tra de
END POINT
GR A
Gro ep
33 7
Ġedit ing
OPERAT OR
ili ary
r sc
Ġm alformed
Asp Net
Ġ( <
//------------------------------------------------------------------------ ------
one g
SI ST
}} ),
Ġl inux
Ġh ang
ĠNormal ize
Ġd ensity
De letion
Ġsh util
ĠID ictionary
get System
ĠArray Ref
WA KE
ĠEditor GUI
*\\ /",
Ġj q
Ġj shint
L SB
TW O
x g
read Line
Bu bble
Vol atile
ĠDel ay
C laims
p T
Ġf ri
Desc riptions
Tra ffic
lat itude
j un
Ġ" ../
ĠO DM
ĠWAR NING
Ġassert Same
Ġdec ay
num s
Bl it
ĠRes erved
Ġeditor Cell
Ġpol ling
Ġend Row
ĠDE VICE
cycler View
K y
string Len
Ġhash es
indent ation
ĠCOL OR
monthNames Short
u der
on ym
ĠCL R
( .*
Ġde fs
Ù Ĥ
ĠT K
æīĢ æľī
C rash
ĠCom posite
vi ction
ĠF ilename
break s
Par ms
Ġmeta var
v allen
al most
Ġv cpu
up dater
S AT
get H
Con cept
ON TH
re y
Se quential
sk ill
Tag List
SU FFIX
rule set
HOR IZ
G Z
g ender
t sd
irection al
get Boolean
ĠGL int
get Long
err str
Ġnew lines
Ġ'? '
ĠLD AP
Ġbeg ins
Ġclean ed
Git Hub
At Time
m illiseconds
u etooth
Ġ ë
ST M
plot lib
VIS ION
Row Count
NAME S
P j
st icky
te si
dom Node
Ġtip c
F lavor
al ternate
Ġwatch er
w af
ĠI FF
Source File
ĠRT L
ĠImport Error
n im
ĠE GL
Ġconcat en
& )
ĠP ID
R limit
a ac
querySelector All
Â ĥ
Resource Name
s uch
pa che
REFER ENCE
d istribute
start Node
sub net
Ġsub mitted
ĠDE V
M idi
s weep
base Path
let ters
à¸ ģ
cred s
Ġplay back
fto ver
J OB
\ ")
Ġr trim
pr m
Un def
sub dir
34 1
Ġcancel led
ĠFUN C
N v
Ġg rammar
Ġas n
D IF
G AME
Ġch rom
Not SupportedException
sw ift
Json Object
æĺ¾ ç¤º
ĠU B
get Output
get Identifier
Data Row
Normal s
c rit
For bidden
Ġsys vicall
G Q
ĠG O
Ġdiv ision
Type Meta
ĠF ilters
out come
sur f
ĠDIS ABLE
S AME
ĠF igure
ma i
MI LL
gs i
ĠE VT
GUICtrl ListView
mime Type
æĶ ¹
Ø ©
Are as
Root s
G b
T ube
p layers
get Metadata
Ġd asd
Ġout going
ĠObject s
oo ted
Debug f
Ġvm w
P retty
Ġj avascript
PR IM
Width s
h op
ĠNo Such
interpret er
ĠC U
ĠIn ner
b cm
ĠĠĠĠĠĠĠĠĠ Ċ
Ġno except
en force
Ġi oremap
Ġ! _
KE EP
ĠIN S
æı Ĳ
j Q
m Image
ĠV F
ĠCh art
ĠRel ative
æĸ Ń
cer pt
+ ?
ĠC riteria
à¤ ľ
èģ Ķ
Ġn y
ĠL a
Ġ'< ?
ĠHttp Request
Detect ed
W i
w ol
Ġf etched
ex tr
'; \
Ġsupp ly
Re striction
Ġline Number
dm Fy
ĠPU BLIC
(?:(?:\\ \\.
Ġr ds
sa f
Invalid OperationException
ONT AL
p DM
Ġst oring
open id
æ³ ¨
H ARD
ĠPro pel
ĠNum eric
éĶĻ è¯¯
W y
Ġs andbox
::_ ('
Ġartifact s
f ish
create From
User Info
un icate
Get DlgItem
20 8
è® ¡
é ĺ
ide d
ĠReg istry
th rottle
get Info
19 1
[: ])
LT A
AG ER
head s
Ġallow ing
Xml Element
ĠLib rary
+ )\
Ġat mel
middle ware
_ '.$
get attr
==== ===
Ġloc ator
Ġfind s
Ġmo vie
ĠBE GIN
c sk
(' //
RE A
amazon aws
D DR
next State
Ġex ceed
Ġdiff er
article s
; ;
H IST
ĠC RM
Ġl ic
UN DEFINED
Ġdispatch er
X aml
55 2
Ġpatch es
set Checked
static Class
Ġden ied
H k
To Read
Bo th
Ġinter vals
ĠU DP
Sc ena
exp ired
Persistent Volume
: ///
print able
Ang ular
F AN
Ö Ģ
Ġtrans lator
Ġsys ctl
OPTION AL
epoch s
Ġ ing
Ġarg parse
cert s
A y
end o
Ġu dp
Ġle ts
Max Size
week Header
Table Model
G w
W Z
get Event
After Year
Î º
Ġ dddd
ĠP ublish
work s
M ux
S andbox
g log
Ñ ī
data Table
pr incipal
Ġmeasure ment
ä¸Ĭ ä¼ł
++++ ++++
Un iversal
Jan uary
Ġfold ers
. '));
R Z
Ġfor ced
Ġk b
RO UGH
Ġbind er
Iss uer
, ),
E ven
AB ILITY
IG lm
EX TRACT
4 096
E quivalent
ĠR etry
Ġun def
\\ [
t ur
Ġl bl
ah c
ic ount
In tr
set String
item ap
ĉĉĉĉĉĉ ĠĠĠĠĠĠ
IF IC
ĠWork er
U w
Ġc alloc
ĠB order
Ġfind ing
W Y
iss uer
Ġ655 35
w ap
ĠR ooted
write String
è¯ ¥
Cho ose
f type
r B
ç ľ
Machine Instr
32 3
ĠL ists
ãĤ ¯
Ġmultip lier
j ango
ĠT GSI
Ġinit ializing
S pl
Tem perature
Ġc ube
Header Value
Ġ7 6
show Month
ĠPER F
f riendly
te in
get Attributes
Ġfor Each
Is AssignableFrom
ĠFI LTER
ĠC LK
Ġcon trib
ĠL CD
ĠCON ST
ĠE L
cl js
lu Z
ĠT PM
Error Log
50 7
U h
W CHAR
Ġ" ").
ĠP rom
88 5
b ang
n db
Ġv js
:" ("+
av x
Vertex Attrib
æ ¸
04 2
ç¨ ĭ
on a
DE CREF
Ð°Ð ¹
T errain
data Source
IN STR
Ġ" ',
ĠF all
auto complete
ãģ ¨
BL ACK
)|(?: [^
Ġm obile
Pur chase
wik ipedia
ĠH ook
AR K
AB B
Ġ(* (
pol ated
nv ram
Ġcorrespon d
Ġm pc
24 5
æŃ £
+ $
s fp
temp orary
Wa iter
Ġm secs
get Constant
b ins
or test
Ġg a
dif ferent
PInvoke Callback
C Z
T v
Ġc redential
Ġno Method
Cod ing
! ='
S i
Ġh istor
IT OR
Mono PInvokeCallback
X Q
Ġc art
ul ates
Ġre corded
(); }
ĠC ert
Ġget Num
Ġget Next
Str ong
09 00
E AP
i io
ĠS SB
Tr usted
Ġper mitted
Ġcomp ound
äº º
showMonth AfterYear
get Entry
Ġw d
Ġl f
SS I
ĠDE LETE
Over view
P ts
id o
Ġb aud
node Id
ĠK ill
Exp lorer
blk no
Ġdiv ider
-* -*
ingu ish
T CHAR
Ġre lat
Ġr ates
fp ga
year Suffix
D up
K H
ĠSt ub
ĠGL FW
I v
('. ')
ĠCustom er
KT tcbiAg
(?:(?:\\\\. )|(?:[^
d os
Ġnew er
ind s
object Manager
mark ed
ĠQueue WorkItem
ĠAli as
amp ing
Packet s
:"\\ /\\
S ight
Ġ" |
ĠP ART
Ġbo ther
open ssl
)? ))|
Ġv ote
Ġint StringLen
List Meta
Ġlist ing
ĠEx tended
ĠCom mit
Material s
\\\\ ]))
s lab
Ġh ci
eth ost
CODE S
^ =
re map
ĠF ade
ENT S
ĠMA KE
Send ContainerState
Ġhton l
j st
l atch
Ġa e
Ġa ce
ĠPre vent
Ip Address
L ights
Date s
ĠCON NE
ĠBo ot
ut er
ab cd
l ba
St rength
") ?"
temp erature
Ġpr ime
Ġs implify
read FileSync
Ġan no
ms b
[: ],
Perform ed
$)/, ""
Ġ ÑĢ
Err Invalid
U O
x FD
é Ĵ
ĠD SP
'] ++;
ll c
current Page
an onymous
ĠIN TER
CHAR ACTER
st udent
HT MLElement
NO S
ĠGet LastError
M x
f T
Failed Exception
ĠEvent s
transaction s
WV ud
Ġpartition s
Ġrepla cer
âķ Ĳ
R tc
{ \"
Com bin
DE TE
cont rollers
Assert ions
96 0
cred its
Ġsil k
Supp lier
ĠX M
serv ations
f ram
Ex e
pro filer
64 4
Ø¨ Ø±
çĬ ¶
ĠF inish
ĠL Z
ĠH o
Ġgroup ing
ãĥ ĥ
åĮ ħ
3 01
E ps
Ġg z
ĠG ui
]) *
UN ICODE
Ġ"/ ")
FI ELDS
ĠUn able
Na am
get Debug
ĠD D
log file
md l
Ġco ef
K F
S s
Ġc map
Ġe ap
ĠD M
dig ital
Scalar s
Ġcard s
åĲ Į
æµ ĭ
SC HED
mouse enter
E r
E w
P NG
Dist inct
k ube
æ Ļ
ĠAct ual
= /^
To Upper
trans mit
)) /
RA DE
perform ance
W IFI
in em
qu o
Set Text
ĠU V
Ġactiv ated
æ £Ģ
ur o
Ġpro duces
Response s
SH OT
Null Value
Ġ' '),
ĠM etric
Ġlong est
ev list
Work book
a ic
Ġ2 40
Ġtoken Base
30 5
right s
Pro x
ĠR uby
Ġset Value
T ween
End Tag
14 5
card s
at tempts
Ġl u
String IO
Wire Bytes
w sdl
sc ache
15 6
tc G
Lua CSFunction
> $
Ġpre ferences
spin ner
Host ed
Instanti ation
\ -
LE SS
Ġover written
ĠPri ority
in ci
get Description
De cember
Style Option
Ð¾Ð ¼
t ic
co w
Tr iggers
4 22
Ġm thca
ĠAb ort
Ġ" `
ri o
Ġ@ _
ĠUp load
Set Id
Ġpar ity
inter polation
Ġn u
Ġin active
ĠE very
New Decoder
ĠRE SULT
LIST EN
Round Trip
c str
DE AD
Y k
c M
s li
Ġ* );
09 1
Mark ers
U d
te s
Ġpred icted
Ġbranch es
8 75
u ZW
Ġd ic
set Status
Ch arge
min i
ED I
User ID
Ġfloat s
V j
sign er
ĠTh us
Ġstr r
ĠSpec ifies
b q
l is
Ã ¥
lo ppy
list dir
ĠJ PEG
25 7
ĠHR TIM
Ġl it
ĠM ultip
back ward
IP lus
Top ics
Ġav ctx
Aff inity
ĠP N
O A
Mark et
New s
Bracket Block
PROD UCT
L u
Ġ6 6
select All
Ġside bar
ĠPred icate
REPL ACE
ĠC RL
04 43
Ð½ Ð¸
MO UNT
" ||
p Player
Ġf resh
={ '
S pline
n Dst
IC R
CR TC
xff fd
Press ure
7 134
ĠMethod s
pgs ql
K MS
i ra
Ġd ispose
UN IX
TO O
Fold Range
Ġenable s
\"> \
p do
Ġ* __
Ġhe ading
DI AG
ĠBr anch
N aming
s om
st rerror
Reference Equals
AF TER
T pl
m z
FP U
Vi olation
Ġsit uation
pro cesses
SU ME
long itude
Addr s
Ġsur rogate
ĠD er
Ġby pass
Ġrep lica
à¤ Ĺ
Byte Size
scri bers
te le
bl it
if a
Ġv k
ĠI IO
Un register
DIS K
1 000000
T z
Ġm Path
get c
ĠRe quire
riev ing
TRUN CATE
re ement
Ġp trace
Ġr n
getComment FoldRange
B ATCH
Esc aped
O verr
data store
Ġ(" \
rep lica
UL AR
em ployee
Query Parameter
LOG IN
b relse
ĠQ uest
ĠWe ak
Ġv l
ve mb
SO AP
Ġfold Style
Ġ% "
Drop down
Mail box
W Q
m cs
Ġf ft
read b
OWN ER
x FC
IG V
Session s
GV z
Ġpri o
Ex press
00000000 0
hd G
plan ation
zz le
BI AS
C ertificates
get Label
get Display
DB L
DI ALOG
F uzz
end Time
ann o
GV k
ĠFORM AT
2 12
d ue
ul filled
ile ged
BL UE
depend s
Ġin vol
od ate
\" /><
te ardown
ĠI MAGE
Comment Start
ĠM essages
ĠF lash
32 32
require ments
can f
ĠWh ile
Opt imize
read Only
ust um
Service Exception
Ġdraw n
Aut omatic
Ġ$" {
Ġre versed
base s
ym orphic
Q Name
U MP
v ap
Ġ& #
Ġview er
Ġio v
Ġp ure
RO UT
E CTION
n ano
ĠR outedEventArgs
riv es
14 3
w ps
Ġq ib
Ġpro viders
Ġpick le
DE CODE
rint f
document ation
s ucce
is Set
Ġm tk
Test Shape
local es
Pixel Format
N BT
b ecause
ĠB IG
Ax es
Ġm es
Ġ'" ')
amil ies
Ġl ate
IZ ATION
m akedirs
ch s
: |
n of
Ġ[ ].
ĠLinked List
B AT
() '
Ġpre pared
abb reviated
* (?:
nes day
ĠSoft ware
èĬ Ĥ
an ded
add Imm
LI KE
Ġrepla cing
F ails
x pc
Ġsaved InstanceState
as String
ĠL ambda
sa ss
Ag ain
Ġoffset Bottom
Ġql cnic
) ("
l j
ht m
Ġan alog
ide ograph
void Elements
ĠQ Action
Ġrep lay
Link Id
DT D
7 07
d ensity
() >
SA CTION
Native Methods
sy ms
Ġvirt io
Ġh Wnd
div isor
IS upport
ĠDO C
------------------------------------------------ -
å¹ ¶
d bo
Ġ( ).
ĠT ech
aw ay
Expr s
Set Int
ĠE lastic
Ġz z
ĠHe ap
partition s
WINDO WS
Ġstr ipped
CL IP
UST ER
? (:
)) [
Ġl un
tor ch
orph an
Ġf q
Ġn and
normalize Rules
% ',
D ont
le b
last Index
next Int
Ġtile s
getNum Operands
J avadoc
Ġd rain
API Version
Socket Address
So ort
wa res
àµ į
E QU
Ġt iny
:: __
Ġdefault Token
Ġ5 1
filename s
yy v
5 02
A h
full Path
Ġask ed
T ier
Source Code
ĠMatch ing
PACK AGE
swig CPtr
F t
sk ew
Ġca ret
optim izer
\ ";
ĠEN O
s ram
at m
Ġ6 1
--- */
64 6
Ġreport ing
o Test
un escape
prop Name
ser if
remove Attribute
ĠVar iant
Ġpartic ip
Ġtol ua
P et
Ġo auth
DE B
ĉĉĉĉĉĉĉĉ ĉĉĉĉĉ
Anim ated
Scena Index
P unc
m eter
Ġcon crete
gdG hl
Oper ators
Ga uge
ĠShare Point
c rash
Re cipe
ĠCan vas
ĠPart ition
4 80
b ul
Ġn Src
) =
C n
N arrow
str icmp
Type Ref
Assign ed
Launch er
q dev
ar a
RE P
Ġtra ffic
F z
Test Results
Ġtag ged
MM Y
åı £
Ex cept
Ġv ers
ra f
loc ate
P m
Sh ot
RADE ON
O dm
Y Z
p ly
Ġf luent
), !
Ġare as
Ġact ives
ĠSh ader
relation ship
get Frame
ĠW ORD
ĠGet HashCode
CRE MENT
AMP LE
ĠdomainObject List
MET ADATA
V r
write ln
by pass
ĠEntry Point
ask et
Ġasynchronous ly
Ġb igger
ĠCon version
Ġaccept able
inter active
session Id
D x
Ġw ent
cess arily
Ġoffset Top
Ġconfiguration s
Ġ+ "].
H ull
x hci
ĠAL IGN
åı¯ ä»¥
k ick
w est
} `,
í ķ
ĠC lip
Record Decl
icon v
ĠSQL ite
E U
K M
Group Box
Ġturn ed
4 29
P AL
b cc
For Key
ffffff f
F ID
=/ ^\
Add Refs
Th u
à¤ ¦
C ake
H ref
Ġre le
Ġe of
IN FORMATION
ĠO pts
STD METHODIMP
ĠD r
In gress
ĠL IST
pr s
red o
aa bb
ar ith
ce ph
ex tras
"> <?
lower case
Ġl ifetime
ite it
Match Set
" [
B SON
H uman
z ag
Ġr lim
Ġ2 10
Ġen queue
Ġpos ix
Lock er
Invok es
O op
a Result
column Name
cre ature
Ġwra pping
is File
State Changed
gre y
pt ype
Ġch allenge
An ti
trans ient
Work s
mouse out
Ġaccording ly
Ġtr uth
Not ice
ĉĉĉĉĉĉĉ ĠĠ
Ġpo ss
Ġ") "
e dev
å ģ
(" ""
Ġh f
EN TRIES
03 00
Full screen
ĠSyntax Kind
g k
h ue
ĉ ĠĠĠĠĠĠĠĠ
id a
reg no
Ġinter preted
DOM Node
ve ct
mp pc
mod s
Parse Exception
enc lo
Editor Browsable
Ġv el
sip Parse
ĠSUC CESS
å±ŀ æĢ§
Y E
e W
IF TYPE
Ġob served
Pin ned
= ?
night ly
Z hci
Ġa ug
Ġin bounds
with in
allo on
\ $
on Complete
Ġn pc
() "
Type Enum
Ġget Class
ĠĠĠĠĠĠĠĠĠĠĠĠĠĠĠĠĠĠĠĠĠĠĠĠĠĠĠĠĠĠĠĠ ĠĠĠĠĠĠĠĠĠĠĠĠĠĠĠĠĠĠĠĠĠĠĠĠĠĠ
C rop
fe c
DE T
Ġback slash
= &
P ULL
.' "
è¯ »
ĠSecure Random
14 1
DR AM
ķ ãĤ
Push Back
F og
N n
VARI ANT
: _
p R
Ġf ib
Ġreturn Type
Read UInt
MIN US
Gh pc
M argins
get Server
Parent s
Parent Element
Ġsp here
Wrapper AI
ĠDef inition
ĠREQ UEST
I SS
ĠMon th
B urn
n to
Ġ< %
Ġret ain
> [
ĠH ard
Ġroll back
RES OL
YA HOO
PFN GL
Ġ" ));
ERAT ION
re wind
Ġ8 6
13 8
convert To
B SS
D u
Un ity
Ġy a
}} \
DI RECTION
66 0
ä½ ĵ
get Day
SE CUR
Read String
@@@@ @@@@@
ĠSk ASSERT
R CC
â ĸ
Ġ% [[
a decimal
Ptr Ty
Ġbuf size
Ġanaly zer
] _
c aching
Ġm igrations
he artbeat
Imp lement
Ð¸ Ñģ
Ġ'- ',
effect ive
ĠDocument ation
am i
Ġa head
K ore
ĠP ol
ĠP EAR
SIGN ATURE
Gra vity
= #{
A mt
C BA
c raft
== -
ĠM R
'] ).
new Line
TU AL
Ġp ins
user Data
K HR
Ġ" }\
Ġg ate
Ġf ee
Node ID
13 3
Domain Factory
Css Class
K lass
Remove At
Ġsearch ed
ALI AS
z k
ib a
tra ffic
Selector s
= <
Y n
Ġd to
ĠM SR
ID ata
Part ner
ĠRE SET
LLVM ValueRef
calcul ated
q x
IC A
Ac cepts
Ġmiddle ware
E SC
ĠB TRFS
Co efficient
px a
vok er
- ->
F AD
Q B
W G
se x
,"% ":
FI RM
Line Indent
Ø§ Ø±
Ġprece ding
ĠM otion
RO ID
at ime
36 8
ĠCH AN
H ive
=' .$
E MAIL
N IL
pp tr
Read Line
Ġgroup ed
Ġwork sheet
ĠPO LL
Ġs ong
ĠF i
Ġbe acon
Ġalloc a
pZ iA
Ġtun nel
K P
m delay
comp ilation
BB D
Extended Property
abcdefghi j
PodAuto scaler
or i
Ġs light
ĠS orted
:" (?:
19 6
ĠCh rome
IH R
U Char
ĠC he
group ing
m us
(' >
Ġneed le
ĠCh at
Ġsession s
adr atic
", '[
ĠT LI
ĠB in
04 1
ĠAl gorithm
ĠIP PROTO
åħ ¨
ĠB its
ĠH ead
inal g
Ġser ve
cor r
m Context
p ct
Ġc as
ag p
Ġx f
Current Culture
Alloc a
ä¹ ī
f ilt
olid ay
fld El
de que
Version ed
ĠOpen Layers
\\. \\
Prefix es
at ively
I OP
is Loading
int illa
T ray
Z nVuY
z f
lo ded
ĠGet Value
NE LS
touch start
æł ¹
ĠCre ature
M otor
O I
ĠF x
moo thing
on th
18 7
Find Property
ĠYA HOO
ĠC v
." +
ĠMon itor
ĠGu ide
J j
S oc
Ġm ol
ĠF lat
SI VE
Ġparams Array
Ġ}) ();
anit ized
S mooth
(' ;
ĠR OM
ĠRe member
Image List
19 70
Machine Function
Ð Ĳ
Ġ Enumerable
mp y
77 5
Ġdown loaded
Ġown ed
Sq rt
J h
Ġc w
Ġver ified
åĿ Ģ
Ġscatter list
Ġtest Runner
Ġpre cedence
USH ORT
present ation
é¡ ¹
te gra
7 000
s Type
'] =
ĠG T
Ġtrack s
/ "+
é ķ
pre load
PER MISSION
æĪ ĳ
"}] },{
2 30
E lect
c andidates
n X
pp p
msg len
TER MIN
ĠStr ip
< \/
Ġre view
SSE S
ut ors
ĠI CMP
Over write
GO OD
ĠM Hz
Ġnode Name
55 0
PER F
sock addr
expression s
adjust ed
Ġsem antic
F ramer
bu bble
Ġget env
on Change
Ġi ce
Ġdo Test
Ġk mem
Move Next
ri st
ĠL LL
06 34
Ġ] ))
20 7
little fuzz
ge v
ins ics
SA pi
WORD S
MonoPInvokeCallback Attribute
SECUR ITY
ap hore
Ex c
Back off
exec Command
Ġattempt ing
Get Parent
ĠFI ELD
!= -
h ape
on Click
ĠD LL
Ġar ith
Content Length
cap able
PRE D
Ġvariant s
Ġanaly ze
it v
Ġ$ (".
PR T
Bad WireType
I k
[ --
ĠC GM
Set Active
SD IO
Pr ime
VR AM
g data
Ġl atch
has er
Profile Id
Ø§ ÙĨ
direct ives
Î ·
ĠV ID
Lat itude
u dd
Ġf out
ORIG IN
ĠL C
source Root
Ġshow ing
Syntax Kind
Ġ} )(
ĠT EMP
raw l
Ġdef ining
Ġmove ment
AutoScale Mode
ĠM IB
ĠB US
fe b
Ġtest case
xD ol
Analy ze
ĠW H
YX I
D ensity
l arg
ĠC TL
Ġic mp
emo ji
M p
n interface
Ġe en
Ġro unded
i ot
pr t
stat uses
Proto buf
Ġbar rier
Ġauthor ized
a el
Ġb ins
cap italize
LOG GER
ĠVis ibility
Ġoct et
h ighest
out l
auth enticated
host data
TI LE
=$ (
ĠÐ½ Ð°
G ING
{ };
ap prox
Ġ@ __
Q p
][ :
MP TY
33 0
e u
ax e
App ointment
Internal BadWireType
ask ell
Lookup Instance
p buf
is Checked
Ġin ventory
I y
W o
Ġdata Source
arch ical
25 3
ĠPre v
ĠWait For
ur bs
Ġm wifiex
get UTC
li able
find All
Pag inator
ASS OC
( ~
Ġf v
Data GridView
Ġle ader
LOCK ED
ĠT P
Set Context
pl d
ĠC Log
:" (
atom s
EB ML
Ġhd mi
ĠS CI
Ġtr usted
ĠH istory
Ġcount ing
HORIZ ONTAL
In active
In serted
Ġst amp
fo ps
ĠW rit
ib dev
uc ing
CG M
Ġn avigator
ĠIn te
06 7
err code
ĠD ense
eth tool
=' $
MAT RIX
8 001
abb r
éĽ Ĩ
sc c
06 6
/ <
ri de
bb ed
ĠT ermin
sub device
FAM ILY
m clk
ĠN R
Arg b
as semble
be led
Ð°Ð ¼
C decl
um ing
ile stone
Get Float
cache Key
ĠSh utdown
b mc
p ctl
Ġg f
Key Pair
Ġmultip art
ic a
lt as
Ġback ing
ĠTrans ition
ĠPh one
Ġ' //
loc ities
ĠH AS
Ġ6 2
DB D
Event Id
AA BB
Ġprop agate
Font Style
Ġindic ated
Add Item
Ġsub scriber
æĶ ¾
ĠO MP
EM IT
Ne arest
Ġdec ision
FL AC
Ġct r
DAT ABASE
d ce
r me
la ch
Ġin clusive
Ġres idual
ĠGet Current
selector s
ĠPo ssible
D raft
F riendly
f rozen
To Use
re order
Ġpa used
RD Y
APP END
? !
Q Text
h aps
Item Count
Ġca ref
ĠĠĠĠĠĠĠĠĠĠĠĠĠĠĠĠĠĠĠĠĠĠĠĠĠĠĠĠĠĠĠĠ ĠĠĠĠĠĠĠĠĠĠĠĠĠĠĠĠĠĠĠĠĠĠĠĠĠĠĠĠĠĠ
Log Entry
=' %
VB Info
8 64
J L
se ud
Ġm ar
Ġin fer
RE PE
Ġon Error
ĠQ Size
Core OS
M IS
p info
tr ial
Ġex press
tesi an
L UA
P ING
ĠA ctor
PE M
Message Id
client data
17 7
] `
Bit Cast
Ġfix up
A an
get G
client Width
Mock Object
*)( =
) ].
T ID
U Long
c ule
l psz
ĠS WT
ac cepted
02 00
)( \
ĠT k
IN O
user Name
cv t
Ġout s
Ġnormal ization
getNdb Error
ĠM PT
ĠG TK
ne arest
Ġcor rection
PL ACE
get Resources
ĠP ool
Valid ity
Rect s
Ġp ul
In Out
ĠP D
HE S
Ġ6 8
Ġperform ing
+") (\\
clock s
Ġidentifier Re
Ġfeed back
ISupport Initialize
Ġ{ //
Ġop us
v L
factor ing
th dr
or te
ps r
Config ured
bern ate
ĠRel ation
W AL
] <<
n P
v y
of dpa
Ð½ Ð°
aut op
ĠC a
ID ER
hide Modal
ĠMy Sql
Gu ild
pref etch
Comm unication
U y
m buf
Session Id
Ġsp ans
Primitive Type
00 20
lic ated
Be low
Ġoper ate
bi B
white list
L ost
ĠG ive
dis count
ĠTest Runner
er mios
(' =
w cm
Ġl dap
var name
33 4
W ATCH
X l
ref er
Function Name
lear n
V c
a io
u DF
Ú ©
Call Options
Ġcomp utes
socket s
ighb our
I gn
h am
j vm
NUM ERIC
Ġ201 7
ĠT W
ĠF LOAT
Ġmin imal
dict s
] <
a Glz
lic enses
AL ERT
local Name
sd s
ac ct
URL s
XML String
Named Item
pod s
ĠAre a
ĠTog gle
] ","",
Ġf tp
od ata
Ġtest er
Ġauth enticate
Ġour selves
Utc Now
ĠM et
View Translation
Ġrelease s
ĠD bg
S am
T rap
h eld
Set Window
ĠIn tern
vid ing
Ġ'= ',
]","", ,"",
Ġt pl
RD ONLY
Z F
Ġre build
ol ded
vi es
Not Supported
18 1
Ġstyle sheet
h read
get Configuration
ĠV R
comp ound
ĠD IR
key press
File Exists
do ctest
Ġusers pace
Jul y
2 80
J H
K b
æ »
ip er
Ġbu fs
sock name
dif fs
VERT ICAL
S vg
T DR
\ *
st v
qu iz
reg val
Int Value
|[^ |
à ¼
è ¨
re cted
23 5
CONTA INER
Cont rollers
Min Max
split Container
ĠSer ies
tn l
ĠUN USED
Ðº Ð°
STAND AL
O kt
c st
get Record
29 0
Build s
ĠWIN API
trac ing
prediction s
eder ation
Key Code
Ġ'" ',
Prob ability
N ick
ra ster
from String
new Request
M is
T c
ĠM SI
var iate
Ġget User
BU CK
style Behaviour
Work ers
AX B
nav bar
Flat ten
", ""
qu asi
ĠCon n
Ġbat adv
a ead
Ġprefix ed
Pers ist
. */
w mb
ĠD ynamics
Get FileName
PH ASE
) $/
ud f
New Value
Assert s
INTE GR
Ġe a
Err s
Pro tect
Th ickness
associ ated
æł¼ å¼ı
C AD
G fx
m ismatch
Ġf ence
Ġin form
Ġpoint ing
ĠTop ic
p grp
Ġ? >"
Ġ9 7
"} ]}
Monitor ing
ĠIter able
Ġc amel
int errupts
dd c
Set Attribute
Inter polation
loop back
Ġangle s
F light
s ar
() }),
get Template
Append Format
ĠIRQ F
Q I
Ġg one
Ġmax len
pad ded
h ose
ĠJ o
ĠJ VM
so lo
w ar
ve hicle
mp u
Col on
LO UD
... '
S print
ser io
ĠCon d
Ġra ster
Ġam ong
IMP LE
! [
in variant
Ġcon tour
AG C
zd GF
chieve ment
\\\\])) *?
P ot
e es
h uman
Con versation
ĠO ur
Spec Flow
Å ¾
ĠD H
? \\
Ġre pl
Ġse verity
Ġ'{ '
/ ')
le ader
Ġm ysqli
ĠB PF
VM X
ss canf
Ġm g
Local es
soft ware
Ġtransform s
ĠSpec ify
çĶŁ æĪĲ
32 7
start Date
nd x
æ· »åĬł
ans wers
Rel ations
am s
Ġg sl
Ġr ating
13 05
å¯ Ĩ
Ġee prom
ert ype
ĠA ng
Ġq h
([" ../../
) +'
R n
i adic
x code
Ġn h
Function Type
Ext ents
ĠST D
ĠCall s
Ġp ev
__ .'/
]) }
ank s
Post s
ĠOpen GL
synchron ized
B c
J r
Ġt n
fs l
ĠList en
Ġpresent ation
L et
Ġo x
ĠN ested
DI E
get Project
Get Position
ĠDep loy
] ="
ĠS tri
(? <
Client Conn
UND ER
TAIL Q
O Y
_ ),
Ġ ew
!! !
p index
Ġvalue Type
>> >>
ĠUtil ity
Kore a
R w
è ī
Ġex pose
Int ensity
Start s
ĠReturn ed
uff ff
Web Request
Ġtemp file
Sp inner
èĢ ħ
ĠP IO
no se
+" </
period ic
x w
add Field
tor rent
F ingerprint
module Id
~~~~~~~~ ~~~~~~~~
Ġm buf
sc lk
page Number
15 00
Confirm ation
________________ ________________
DIM ENSION
# ',
on Create
Ġf ilt
In Bytes
ĠI DE
rand int
Jo hn
ĠTool s
w dev
Ġm isc
Ġu char
ero us
ĠY ear
# $
Ġa es
ĠFrame work
ĠExit Thread
å¾ Ħ
bla h
f ab
z l
Ġp mc
TR AIN
ãĥ ©
YX R
Partition s
Ġwa its
Ġimpro ve
c ale
in file
Ġv if
Ġstart Column
Ġdesc r
Ne ighbor
Ġ1 11
ĠD id
error f
gg led
Wh at
Track ed
ĠS urface
cd f
Coll ider
b readcr
k ing
cs io
wh ole
]* (\
u cs
Ġw all
å® Į
] };
cd n
Document Fragment
204 8
M UT
Î »
Ġc aches
ers on
tri bu
Ġrespect ively
C Script
Ġ" {}
Ġ' {$
store Id
Ġequal To
Ġ%{{.* }},
Ġerr msg
out ube
Decor ation
ĠOPTION AL
ĠMach O
J N
row Count
in er
Ġpar m
Ġicon v
6 36
Throw If
vZ HV
o verr
next PageToken
Exp ire
26 2
P reserve
get StatusCode
ve cs
ĠA m
of dm
dist inct
(/\ |[^|
Install er
r ho
Ġint f
ĠG NU
à¤ ¯
SUPP LY
(/\|[^| ]*?
get Properties
ĠP an
Ġn args
Get env
Ġle aving
ens ation
01 9
celer ator
A ud
un marshall
con tour
he mer
11 00
push Value
version ed
"] =
ĠAR CH
Ġdynamic ally
ĠFace book
r ctx
à¸ Ń
Text Changed
OF DPA
enar ios
ç® Ĺ
flu ence
is digit
Ġ' '))
set Parent
ĠC ipher
Resource Manager
Ġad vanced
neg ate
Pag ination
aaaaaaaaaaaaaaaaaaaaaaaaaaaaaaaa aaaaaaaaaaaaaaaaaaaaaaaaaaaaaaaa
V u
en ed
Ġm pi
getIs RIE
p K
Ġp buf
Ġs ensitive
[...]
